{
  "version": "1.0",
  "truncation": null,
  "padding": null,
  "added_tokens": [
    {
      "id": 0,
      "content": "[UNK]",
      "single_word": false,
      "lstrip": false,
      "rstrip": false,
      "normalized": false,
      "special": true
    }
  ],
  "normalizer": {
    "type": "BertNormalizer",
    "clean_text": true,
    "handle_chinese_chars": true,
    "strip_accents": true,
    "lowercase": true
  },
  "pre_tokenizer": {
    "type": "BertPreTokenizer"
  },
  "post_processor": null,
  "decoder": {
    "type": "WordPiece",
    "prefix": "##",
    "cleanup": true
  },
  "model": {
    "type": "WordPiece",
    "unk_token": "[UNK]",
    "continuing_subword_prefix": "##",
    "max_input_chars_per_word": 100,
    "vocab": {
      "[UNK]": 0,
      "!": 1,
      "\"": 2,
      "#": 3,
      "$": 4,
      "%": 5,
      "&": 6,
      "'": 7,
      "(": 8,
      ")": 9,
      "*": 10,
      "+": 11,
      ",": 12,
      "-": 13,
      ".": 14,
      "/": 15,
      "0": 16,
      "1": 17,
      "2": 18,
      "3": 19,
      "4": 20,
      "5": 21,
      "6": 22,
      "7": 23,
      "8": 24,
      "9": 25,
      ":": 26,
      ";": 27,
      "<": 28,
      "=": 29,
      ">": 30,
      "?": 31,
      "@": 32,
      "[": 33,
      "\\": 34,
      "]": 35,
      "^": 36,
      "_": 37,
      "`": 38,
      "a": 39,
      "b": 40,
      "c": 41,
      "d": 42,
      "e": 43,
      "f": 44,
      "g": 45,
      "h": 46,
      "i": 47,
      "j": 48,
      "k": 49,
      "l": 50,
      "m": 51,
      "n": 52,
      "o": 53,
      "p": 54,
      "q": 55,
      "r": 56,
      "s": 57,
      "t": 58,
      "u": 59,
      "v": 60,
      "w": 61,
      "x": 62,
      "y": 63,
      "z": 64,
      "{": 65,
      "|": 66,
      "}": 67,
      "~": 68,
      "¡": 69,
      "¢": 70,
      "£": 71,
      "¤": 72,
      "¥": 73,
      "¦": 74,
      "§": 75,
      "¨": 76,
      "©": 77,
      "ª": 78,
      "«": 79,
      "¬": 80,
      "®": 81,
      "¯": 82,
      "°": 83,
      "±": 84,
      "²": 85,
      "³": 86,
      "´": 87,
      "µ": 88,
      "¶": 89,
      "·": 90,
      "¸": 91,
      "¹": 92,
      "º": 93,
      "»": 94,
      "¼": 95,
      "½": 96,
      "¾": 97,
      "¿": 98,
      "×": 99,
      "ß": 100,
      "æ": 101,
      "ð": 102,
      "÷": 103,
      "ø": 104,
      "þ": 105,
      "đ": 106,
      "ħ": 107,
      "ı": 108,
      "ĳ": 109,
      "ĸ": 110,
      "ŀ": 111,
      "ł": 112,
      "ŉ": 113,
      "ŋ": 114,
      "œ": 115,
      "ŧ": 116,
      "ſ": 117,
      "ƃ": 118,
      "ƒ": 119,
      "ƛ": 120,
      "ƥ": 121,
      "ƨ": 122,
      "ƭ": 123,
      "ƴ": 124,
      "ƽ": 125,
      "ǃ": 126,
      "ǆ": 127,
      "ǝ": 128,
      "ǳ": 129,
      "ȝ": 130,
      "ȥ": 131,
      "ɉ": 132,
      "ɐ": 133,
      "ɑ": 134,
      "ɒ": 135,
      "ɔ": 136,
      "ɖ": 137,
      "ə": 138,
      "ɛ": 139,
      "ɡ": 140,
      "ɣ": 141,
      "ɥ": 142,
      "ɪ": 143,
      "ɯ": 144,
      "ɱ": 145,
      "ɲ": 146,
      "ɴ": 147,
      "ɹ": 148,
      "ʀ": 149,
      "ʁ": 150,
      "ʇ": 151,
      "ʊ": 152,
      "ʌ": 153,
      "ʍ": 154,
      "ʎ": 155,
      "ʒ": 156,
      "ʔ": 157,
      "ʕ": 158,
      "ʖ": 159,
      "ʘ": 160,
      "ʟ": 161,
      "ʠ": 162,
      "ʭ": 163,
      "ʮ": 164,
      "ʲ": 165,
      "ʷ": 166,
      "ˆ": 167,
      "ˇ": 168,
      "ˈ": 169,
      "ˉ": 170,
      "ˌ": 171,
      "ˏ": 172,
      "ː": 173,
      "˘": 174,
      "˙": 175,
      "˚": 176,
      "ͱ": 177,
      "ͳ": 178,
      "α": 179,
      "β": 180,
      "γ": 181,
      "δ": 182,
      "ε": 183,
      "η": 184,
      "θ": 185,
      "ι": 186,
      "κ": 187,
      "λ": 188,
      "μ": 189,
      "ν": 190,
      "ξ": 191,
      "ο": 192,
      "π": 193,
      "ρ": 194,
      "ς": 195,
      "σ": 196,
      "τ": 197,
      "υ": 198,
      "φ": 199,
      "χ": 200,
      "ψ": 201,
      "ω": 202,
      "ϗ": 203,
      "ϛ": 204,
      "ϝ": 205,
      "ϟ": 206,
      "ϡ": 207,
      "ϧ": 208,
      "ϰ": 209,
      "ϳ": 210,
      "ϵ": 211,
      "а": 212,
      "б": 213,
      "в": 214,
      "г": 215,
      "д": 216,
      "е": 217,
      "ж": 218,
      "з": 219,
      "и": 220,
      "к": 221,
      "л": 222,
      "м": 223,
      "н": 224,
      "о": 225,
      "п": 226,
      "р": 227,
      "с": 228,
      "т": 229,
      "у": 230,
      "ф": 231,
      "х": 232,
      "ц": 233,
      "ч": 234,
      "ш": 235,
      "щ": 236,
      "ъ": 237,
      "ы": 238,
      "ь": 239,
      "э": 240,
      "ю": 241,
      "я": 242,
      "ѕ": 243,
      "і": 244,
      "ј": 245,
      "џ": 246,
      "ѱ": 247,
      "ѵ": 248,
      "҉": 249,
      "ґ": 250,
      "ғ": 251,
      "ҕ": 252,
      "ӻ": 253,
      "ӿ": 254,
      "ԍ": 255,
      "ԙ": 256,
      "ԛ": 257,
      "ԫ": 258,
      "ա": 259,
      "բ": 260,
      "ե": 261,
      "ի": 262,
      "ծ": 263,
      "վ": 264,
      "ր": 265,
      "ց": 266,
      "փ": 267,
      "օ": 268,
      "և": 269,
      "։": 270,
      "֊": 271,
      "֋": 272,
      "֍": 273,
      "֏": 274,
      "־": 275,
      "׀": 276,
      "׃": 277,
      "׆": 278,
      "׈": 279,
      "׉": 280,
      "׊": 281,
      "׋": 282,
      "א": 283,
      "ב": 284,
      "ד": 285,
      "ו": 286,
      "ח": 287,
      "ט": 288,
      "י": 289,
      "כ": 290,
      "ל": 291,
      "ם": 292,
      "מ": 293,
      "ן": 294,
      "ס": 295,
      "ע": 296,
      "ר": 297,
      "ש": 298,
      "ת": 299,
      "׹": 300,
      "ء": 301,
      "ا": 302,
      "ب": 303,
      "ة": 304,
      "ت": 305,
      "ث": 306,
      "ج": 307,
      "ح": 308,
      "خ": 309,
      "د": 310,
      "ذ": 311,
      "ر": 312,
      "ز": 313,
      "س": 314,
      "ش": 315,
      "ص": 316,
      "ض": 317,
      "ط": 318,
      "ظ": 319,
      "ع": 320,
      "غ": 321,
      "ف": 322,
      "ق": 323,
      "ك": 324,
      "ل": 325,
      "م": 326,
      "ن": 327,
      "ه": 328,
      "و": 329,
      "ى": 330,
      "ي": 331,
      "٣": 332,
      "٩": 333,
      "٪": 334,
      "چ": 335,
      "ک": 336,
      "گ": 337,
      "ھ": 338,
      "ی": 339,
      "۰": 340,
      "۳": 341,
      "۶": 342,
      "۹": 343,
      "ݒ": 344,
      "ݓ": 345,
      "ݔ": 346,
      "ݕ": 347,
      "ݖ": 348,
      "ݗ": 349,
      "ݙ": 350,
      "ݪ": 351,
      "ݫ": 352,
      "ݱ": 353,
      "ݶ": 354,
      "ݷ": 355,
      "ݸ": 356,
      "ݹ": 357,
      "ݺ": 358,
      "߄": 359,
      "ߊ": 360,
      "ߋ": 361,
      "ߌ": 362,
      "ߎ": 363,
      "ߏ": 364,
      "ߕ": 365,
      "ߙ": 366,
      "ߚ": 367,
      "ߠ": 368,
      "ߡ": 369,
      "अ": 370,
      "आ": 371,
      "इ": 372,
      "उ": 373,
      "ए": 374,
      "औ": 375,
      "क": 376,
      "ख": 377,
      "ग": 378,
      "ज": 379,
      "ट": 380,
      "ठ": 381,
      "ड": 382,
      "ण": 383,
      "त": 384,
      "न": 385,
      "प": 386,
      "ब": 387,
      "म": 388,
      "य": 389,
      "र": 390,
      "ल": 391,
      "श": 392,
      "स": 393,
      "ह": 394,
      "ऽ": 395,
      "ा": 396,
      "ि": 397,
      "ी": 398,
      "ो": 399,
      "ौ": 400,
      "।": 401,
      "१": 402,
      "२": 403,
      "५": 404,
      "६": 405,
      "७": 406,
      "८": 407,
      "९": 408,
      "ॳ": 409,
      "ॺ": 410,
      "ং": 411,
      "অ": 412,
      "আ": 413,
      "ই": 414,
      "উ": 415,
      "ও": 416,
      "ক": 417,
      "গ": 418,
      "ঙ": 419,
      "ণ": 420,
      "ত": 421,
      "ধ": 422,
      "ন": 423,
      "প": 424,
      "ফ": 425,
      "ব": 426,
      "ম": 427,
      "য": 428,
      "র": 429,
      "ল": 430,
      "ষ": 431,
      "স": 432,
      "া": 433,
      "ি": 434,
      "ে": 435,
      "০": 436,
      "১": 437,
      "৭": 438,
      "ઉ": 439,
      "ઠ": 440,
      "ળ": 441,
      "૩": 442,
      "૪": 443,
      "ଅ": 444,
      "ଢ": 445,
      "ଣ": 446,
      "ଥ": 447,
      "ମ": 448,
      "୷": 449,
      "ழ": 450,
      "ௗ": 451,
      "௫": 452,
      "௭": 453,
      "௴": 454,
      "ఇ": 455,
      "ఓ": 456,
      "ష": 457,
      "ౙ": 458,
      "ౡ": 459,
      "ಔ": 460,
      "ಟ": 461,
      "ಠ": 462,
      "೪": 463,
      "ആ": 464,
      "ഓ": 465,
      "ഗ": 466,
      "ര": 467,
      "വ": 468,
      "൦": 469,
      "൭": 470,
      "൰": 471,
      "ග": 472,
      "ඤ": 473,
      "ඨ": 474,
      "෴": 475,
      "ก": 476,
      "ข": 477,
      "ค": 478,
      "ง": 479,
      "ฉ": 480,
      "ช": 481,
      "ซ": 482,
      "ด": 483,
      "ต": 484,
      "ถ": 485,
      "ท": 486,
      "น": 487,
      "บ": 488,
      "ป": 489,
      "พ": 490,
      "ภ": 491,
      "ม": 492,
      "ย": 493,
      "ร": 494,
      "ฤ": 495,
      "ล": 496,
      "ว": 497,
      "ษ": 498,
      "ส": 499,
      "ห": 500,
      "อ": 501,
      "ฮ": 502,
      "ะ": 503,
      "า": 504,
      "ำ": 505,
      "฿": 506,
      "เ": 507,
      "แ": 508,
      "โ": 509,
      "ใ": 510,
      "ไ": 511,
      "๐": 512,
      "๑": 513,
      "๗": 514,
      "๙": 515,
      "ດ": 516,
      "ທ": 517,
      "ພ": 518,
      "ມ": 519,
      "ລ": 520,
      "ວ": 521,
      "ສ": 522,
      "າ": 523,
      "ໜ": 524,
      "ໝ": 525,
      "་": 526,
      "༼": 527,
      "༽": 528,
      "ཀ": 529,
      "ད": 530,
      "བ": 531,
      "ལ": 532,
      "ས": 533,
      "ཪ": 534,
      "྾": 535,
      "ဃ": 536,
      "ဏ": 537,
      "န": 538,
      "ဖ": 539,
      "မ": 540,
      "ာ": 541,
      "ြ": 542,
      "၅": 543,
      "၍": 544,
      "ၑ": 545,
      "ၺ": 546,
      "ၾ": 547,
      "႔": 548,
      "ა": 549,
      "ბ": 550,
      "გ": 551,
      "ე": 552,
      "ვ": 553,
      "ი": 554,
      "მ": 555,
      "ო": 556,
      "რ": 557,
      "ძ": 558,
      "ხ": 559,
      "ჯ": 560,
      "ჳ": 561,
      "ჷ": 562,
      "ᄀ": 563,
      "ᄁ": 564,
      "ᄂ": 565,
      "ᄃ": 566,
      "ᄄ": 567,
      "ᄅ": 568,
      "ᄆ": 569,
      "ᄇ": 570,
      "ᄈ": 571,
      "ᄉ": 572,
      "ᄋ": 573,
      "ᄌ": 574,
      "ᄍ": 575,
      "ᄎ": 576,
      "ᄏ": 577,
      "ᄐ": 578,
      "ᄑ": 579,
      "ᄒ": 580,
      "ᅡ": 581,
      "ᅢ": 582,
      "ᅣ": 583,
      "ᅤ": 584,
      "ᅥ": 585,
      "ᅦ": 586,
      "ᅧ": 587,
      "ᅨ": 588,
      "ᅩ": 589,
      "ᅪ": 590,
      "ᅫ": 591,
      "ᅬ": 592,
      "ᅭ": 593,
      "ᅮ": 594,
      "ᅯ": 595,
      "ᅰ": 596,
      "ᅱ": 597,
      "ᅲ": 598,
      "ᅳ": 599,
      "ᅴ": 600,
      "ᅵ": 601,
      "ᆨ": 602,
      "ᆫ": 603,
      "ᆭ": 604,
      "ᆮ": 605,
      "ᆯ": 606,
      "ᆰ": 607,
      "ᆲ": 608,
      "ᆶ": 609,
      "ᆷ": 610,
      "ᆸ": 611,
      "ᆹ": 612,
      "ᆺ": 613,
      "ᆻ": 614,
      "ᆼ": 615,
      "ᆽ": 616,
      "ᆾ": 617,
      "ᆿ": 618,
      "ᇀ": 619,
      "ᇁ": 620,
      "ᇂ": 621,
      "፩": 622,
      "፪": 623,
      "፫": 624,
      "፬": 625,
      "፭": 626,
      "፮": 627,
      "፯": 628,
      "፰": 629,
      "፱": 630,
      "፲": 631,
      "፳": 632,
      "፴": 633,
      "፵": 634,
      "፶": 635,
      "፷": 636,
      "፸": 637,
      "፹": 638,
      "፺": 639,
      "፻": 640,
      "፼": 641,
      "᐀": 642,
      "ᐅ": 643,
      "ᐛ": 644,
      "ᐟ": 645,
      "ᑭ": 646,
      "ᓇ": 647,
      "ᔕ": 648,
      "ᕕ": 649,
      "ᕗ": 650,
      "ᚠ": 651,
      "ᚢ": 652,
      "ᚦ": 653,
      "ᚨ": 654,
      "ᚩ": 655,
      "ᚪ": 656,
      "ᚮ": 657,
      "ᚱ": 658,
      "ᚲ": 659,
      "ᚳ": 660,
      "ᚴ": 661,
      "ᚵ": 662,
      "ᚷ": 663,
      "ᚹ": 664,
      "ᚻ": 665,
      "ᚼ": 666,
      "ᚽ": 667,
      "ᚾ": 668,
      "ᚿ": 669,
      "ᛁ": 670,
      "ᛃ": 671,
      "ᛅ": 672,
      "ᛆ": 673,
      "ᛉ": 674,
      "ᛊ": 675,
      "ᛋ": 676,
      "ᛌ": 677,
      "ᛍ": 678,
      "ᛏ": 679,
      "ᛐ": 680,
      "ᛒ": 681,
      "ᛖ": 682,
      "ᛘ": 683,
      "ᛙ": 684,
      "ᛚ": 685,
      "ᛞ": 686,
      "ក": 687,
      "ង": 688,
      "ជ": 689,
      "ន": 690,
      "ប": 691,
      "ម": 692,
      "រ": 693,
      "វ": 694,
      "អ": 695,
      "ា": 696,
      "ៅ": 697,
      "៤": 698,
      "៧": 699,
      "᠆": 700,
      "᧓": 701,
      "᧗": 702,
      "᱃": 703,
      "᱒": 704,
      "ᴀ": 705,
      "ᴉ": 706,
      "ᴗ": 707,
      "ᴛ": 708,
      "ᴥ": 709,
      "ᵔ": 710,
      "ᵢ": 711,
      "ᵣ": 712,
      "ᵤ": 713,
      "ᵧ": 714,
      "‐": 715,
      "‑": 716,
      "‒": 717,
      "–": 718,
      "—": 719,
      "―": 720,
      "‖": 721,
      "‘": 722,
      "’": 723,
      "“": 724,
      "”": 725,
      "„": 726,
      "‟": 727,
      "†": 728,
      "‡": 729,
      "•": 730,
      "‣": 731,
      "․": 732,
      "…": 733,
      "‰": 734,
      "‱": 735,
      "′": 736,
      "‹": 737,
      "›": 738,
      "※": 739,
      "‼": 740,
      "‽": 741,
      "‾": 742,
      "‿": 743,
      "⁄": 744,
      "⁉": 745,
      "⁓": 746,
      "⁰": 747,
      "⁴": 748,
      "⁵": 749,
      "⁶": 750,
      "⁷": 751,
      "⁸": 752,
      "⁹": 753,
      "⁺": 754,
      "⁻": 755,
      "ⁿ": 756,
      "₀": 757,
      "₁": 758,
      "₂": 759,
      "₃": 760,
      "₄": 761,
      "₅": 762,
      "₆": 763,
      "₇": 764,
      "₈": 765,
      "₉": 766,
      "₊": 767,
      "₋": 768,
      "₍": 769,
      "₎": 770,
      "ₑ": 771,
      "ₓ": 772,
      "ₖ": 773,
      "ₗ": 774,
      "ₘ": 775,
      "ₙ": 776,
      "ₚ": 777,
      "ₛ": 778,
      "ₜ": 779,
      "₥": 780,
      "₧": 781,
      "€": 782,
      "₺": 783,
      "₽": 784,
      "⃝": 785,
      "⃣": 786,
      "⃤": 787,
      "ℂ": 788,
      "℃": 789,
      "℉": 790,
      "ℌ": 791,
      "ℍ": 792,
      "ℏ": 793,
      "ℓ": 794,
      "ℕ": 795,
      "№": 796,
      "ℙ": 797,
      "ℚ": 798,
      "ℝ": 799,
      "™": 800,
      "ℤ": 801,
      "ℹ": 802,
      "⅄": 803,
      "⅐": 804,
      "⅑": 805,
      "⅒": 806,
      "⅓": 807,
      "⅔": 808,
      "⅕": 809,
      "⅖": 810,
      "⅗": 811,
      "⅘": 812,
      "⅙": 813,
      "⅚": 814,
      "⅛": 815,
      "⅜": 816,
      "⅝": 817,
      "⅞": 818,
      "ⅲ": 819,
      "←": 820,
      "↑": 821,
      "→": 822,
      "↓": 823,
      "↔": 824,
      "↕": 825,
      "↖": 826,
      "↗": 827,
      "↘": 828,
      "↙": 829,
      "↣": 830,
      "↤": 831,
      "↦": 832,
      "↨": 833,
      "↩": 834,
      "↪": 835,
      "↳": 836,
      "↴": 837,
      "↵": 838,
      "↷": 839,
      "↻": 840,
      "⇄": 841,
      "⇋": 842,
      "⇒": 843,
      "⇓": 844,
      "⇔": 845,
      "⇡": 846,
      "⇢": 847,
      "⇥": 848,
      "⇦": 849,
      "⇧": 850,
      "⇨": 851,
      "⇩": 852,
      "∀": 853,
      "∂": 854,
      "∃": 855,
      "∅": 856,
      "∆": 857,
      "∈": 858,
      "∊": 859,
      "∎": 860,
      "∑": 861,
      "−": 862,
      "∗": 863,
      "∙": 864,
      "√": 865,
      "∞": 866,
      "∟": 867,
      "∠": 868,
      "∧": 869,
      "∨": 870,
      "∩": 871,
      "∪": 872,
      "∫": 873,
      "∴": 874,
      "∵": 875,
      "∼": 876,
      "∾": 877,
      "≈": 878,
      "≍": 879,
      "≡": 880,
      "≤": 881,
      "≥": 882,
      "≦": 883,
      "⊂": 884,
      "⊆": 885,
      "⊇": 886,
      "⊕": 887,
      "⊤": 888,
      "⊻": 889,
      "⋀": 890,
      "⋁": 891,
      "⋃": 892,
      "⋅": 893,
      "⋆": 894,
      "⋮": 895,
      "⋯": 896,
      "⋰": 897,
      "⋱": 898,
      "⌂": 899,
      "⌈": 900,
      "⌉": 901,
      "⌊": 902,
      "⌋": 903,
      "⌐": 904,
      "⌒": 905,
      "⌘": 906,
      "⌚": 907,
      "⌛": 908,
      "⌠": 909,
      "⌡": 910,
      "⌥": 911,
      "⌨": 912,
      "⎈": 913,
      "⎘": 914,
      "⎛": 915,
      "⎜": 916,
      "⎝": 917,
      "⎞": 918,
      "⎟": 919,
      "⎠": 920,
      "⎡": 921,
      "⎢": 922,
      "⎣": 923,
      "⎤": 924,
      "⎥": 925,
      "⎦": 926,
      "⎬": 927,
      "⎮": 928,
      "⎲": 929,
      "⎳": 930,
      "⎺": 931,
      "⎾": 932,
      "⏋": 933,
      "⏎": 934,
      "⏤": 935,
      "⏬": 936,
      "⏭": 937,
      "⏰": 938,
      "⏱": 939,
      "⏲": 940,
      "⏳": 941,
      "⏸": 942,
      "␀": 943,
      "␛": 944,
      "␟": 945,
      "␡": 946,
      "①": 947,
      "②": 948,
      "⒈": 949,
      "⒉": 950,
      "ⓐ": 951,
      "ⓒ": 952,
      "ⓓ": 953,
      "ⓔ": 954,
      "ⓘ": 955,
      "ⓛ": 956,
      "ⓝ": 957,
      "ⓞ": 958,
      "ⓡ": 959,
      "ⓧ": 960,
      "─": 961,
      "━": 962,
      "│": 963,
      "┃": 964,
      "┄": 965,
      "┆": 966,
      "┈": 967,
      "┊": 968,
      "┌": 969,
      "┍": 970,
      "┏": 971,
      "┐": 972,
      "┒": 973,
      "┓": 974,
      "└": 975,
      "┕": 976,
      "┖": 977,
      "┗": 978,
      "┘": 979,
      "┛": 980,
      "├": 981,
      "┝": 982,
      "┞": 983,
      "┟": 984,
      "┠": 985,
      "┣": 986,
      "┤": 987,
      "┦": 988,
      "┧": 989,
      "┨": 990,
      "┫": 991,
      "┬": 992,
      "┭": 993,
      "┯": 994,
      "┰": 995,
      "┲": 996,
      "┳": 997,
      "┴": 998,
      "┶": 999,
      "┷": 1000,
      "┹": 1001,
      "┺": 1002,
      "┻": 1003,
      "┼": 1004,
      "╅": 1005,
      "╋": 1006,
      "╌": 1007,
      "╏": 1008,
      "═": 1009,
      "║": 1010,
      "╒": 1011,
      "╓": 1012,
      "╔": 1013,
      "╕": 1014,
      "╖": 1015,
      "╗": 1016,
      "╘": 1017,
      "╙": 1018,
      "╚": 1019,
      "╛": 1020,
      "╜": 1021,
      "╝": 1022,
      "╞": 1023,
      "╟": 1024,
      "╠": 1025,
      "╡": 1026,
      "╢": 1027,
      "╣": 1028,
      "╤": 1029,
      "╥": 1030,
      "╦": 1031,
      "╧": 1032,
      "╨": 1033,
      "╩": 1034,
      "╪": 1035,
      "╫": 1036,
      "╬": 1037,
      "╭": 1038,
      "╮": 1039,
      "╯": 1040,
      "╰": 1041,
      "╳": 1042,
      "╴": 1043,
      "╵": 1044,
      "╶": 1045,
      "╷": 1046,
      "╼": 1047,
      "▀": 1048,
      "▁": 1049,
      "▂": 1050,
      "▃": 1051,
      "▄": 1052,
      "▅": 1053,
      "▆": 1054,
      "▇": 1055,
      "█": 1056,
      "▉": 1057,
      "▊": 1058,
      "▋": 1059,
      "▌": 1060,
      "▍": 1061,
      "▎": 1062,
      "▏": 1063,
      "▐": 1064,
      "░": 1065,
      "▒": 1066,
      "▓": 1067,
      "▕": 1068,
      "▖": 1069,
      "▗": 1070,
      "▘": 1071,
      "▙": 1072,
      "▚": 1073,
      "▛": 1074,
      "▜": 1075,
      "▝": 1076,
      "▞": 1077,
      "▟": 1078,
      "■": 1079,
      "□": 1080,
      "▥": 1081,
      "▩": 1082,
      "▪": 1083,
      "▬": 1084,
      "▮": 1085,
      "▯": 1086,
      "▰": 1087,
      "▱": 1088,
      "▲": 1089,
      "△": 1090,
      "▴": 1091,
      "▶": 1092,
      "▷": 1093,
      "▸": 1094,
      "▹": 1095,
      "►": 1096,
      "▼": 1097,
      "▽": 1098,
      "▾": 1099,
      "◀": 1100,
      "◁": 1101,
      "◄": 1102,
      "◆": 1103,
      "◇": 1104,
      "◉": 1105,
      "◊": 1106,
      "○": 1107,
      "◌": 1108,
      "◎": 1109,
      "●": 1110,
      "◑": 1111,
      "◓": 1112,
      "◔": 1113,
      "◕": 1114,
      "◘": 1115,
      "◙": 1116,
      "◛": 1117,
      "◞": 1118,
      "◟": 1119,
      "◡": 1120,
      "◨": 1121,
      "◪": 1122,
      "◫": 1123,
      "◭": 1124,
      "◯": 1125,
      "◱": 1126,
      "◳": 1127,
      "◶": 1128,
      "◷": 1129,
      "◻": 1130,
      "◼": 1131,
      "◽": 1132,
      "◾": 1133,
      "☀": 1134,
      "☁": 1135,
      "☃": 1136,
      "☄": 1137,
      "★": 1138,
      "☆": 1139,
      "☐": 1140,
      "☑": 1141,
      "☒": 1142,
      "☓": 1143,
      "☔": 1144,
      "☕": 1145,
      "☘": 1146,
      "☝": 1147,
      "☞": 1148,
      "☠": 1149,
      "☢": 1150,
      "☣": 1151,
      "☮": 1152,
      "☰": 1153,
      "☸": 1154,
      "☺": 1155,
      "☻": 1156,
      "☼": 1157,
      "☿": 1158,
      "♀": 1159,
      "♂": 1160,
      "♐": 1161,
      "♔": 1162,
      "♕": 1163,
      "♖": 1164,
      "♗": 1165,
      "♘": 1166,
      "♙": 1167,
      "♚": 1168,
      "♛": 1169,
      "♜": 1170,
      "♝": 1171,
      "♞": 1172,
      "♟": 1173,
      "♠": 1174,
      "♡": 1175,
      "♢": 1176,
      "♣": 1177,
      "♤": 1178,
      "♥": 1179,
      "♦": 1180,
      "♧": 1181,
      "♨": 1182,
      "♪": 1183,
      "♫": 1184,
      "♭": 1185,
      "♻": 1186,
      "♾": 1187,
      "⚐": 1188,
      "⚒": 1189,
      "⚓": 1190,
      "⚔": 1191,
      "⚖": 1192,
      "⚗": 1193,
      "⚙": 1194,
      "⚛": 1195,
      "⚠": 1196,
      "⚡": 1197,
      "⚧": 1198,
      "⚫": 1199,
      "⚰": 1200,
      "⚱": 1201,
      "⚾": 1202,
      "⛅": 1203,
      "⛈": 1204,
      "⛏": 1205,
      "⛑": 1206,
      "⛓": 1207,
      "⛔": 1208,
      "⛭": 1209,
      "⛮": 1210,
      "⛰": 1211,
      "⛴": 1212,
      "⛵": 1213,
      "⛽": 1214,
      "✂": 1215,
      "✅": 1216,
      "✈": 1217,
      "✋": 1218,
      "✌": 1219,
      "✍": 1220,
      "✏": 1221,
      "✓": 1222,
      "✔": 1223,
      "✕": 1224,
      "✖": 1225,
      "✗": 1226,
      "✘": 1227,
      "✚": 1228,
      "✝": 1229,
      "✧": 1230,
      "✨": 1231,
      "✳": 1232,
      "✴": 1233,
      "❄": 1234,
      "❇": 1235,
      "❌": 1236,
      "❍": 1237,
      "❎": 1238,
      "❓": 1239,
      "❔": 1240,
      "❕": 1241,
      "❗": 1242,
      "❘": 1243,
      "❤": 1244,
      "❮": 1245,
      "❯": 1246,
      "❲": 1247,
      "❳": 1248,
      "➔": 1249,
      "➕": 1250,
      "➖": 1251,
      "➜": 1252,
      "➡": 1253,
      "➤": 1254,
      "⟦": 1255,
      "⟧": 1256,
      "⟨": 1257,
      "⟩": 1258,
      "⟪": 1259,
      "⟫": 1260,
      "⟲": 1261,
      "⟳": 1262,
      "⟵": 1263,
      "⟶": 1264,
      "⟷": 1265,
      "⟺": 1266,
      "⠀": 1267,
      "⠁": 1268,
      "⠂": 1269,
      "⠃": 1270,
      "⠄": 1271,
      "⠅": 1272,
      "⠆": 1273,
      "⠇": 1274,
      "⠈": 1275,
      "⠉": 1276,
      "⠊": 1277,
      "⠋": 1278,
      "⠍": 1279,
      "⠎": 1280,
      "⠏": 1281,
      "⠐": 1282,
      "⠑": 1283,
      "⠒": 1284,
      "⠓": 1285,
      "⠔": 1286,
      "⠕": 1287,
      "⠖": 1288,
      "⠗": 1289,
      "⠘": 1290,
      "⠙": 1291,
      "⠚": 1292,
      "⠛": 1293,
      "⠜": 1294,
      "⠝": 1295,
      "⠞": 1296,
      "⠟": 1297,
      "⠠": 1298,
      "⠡": 1299,
      "⠢": 1300,
      "⠣": 1301,
      "⠤": 1302,
      "⠥": 1303,
      "⠦": 1304,
      "⠧": 1305,
      "⠨": 1306,
      "⠩": 1307,
      "⠪": 1308,
      "⠫": 1309,
      "⠭": 1310,
      "⠮": 1311,
      "⠯": 1312,
      "⠰": 1313,
      "⠱": 1314,
      "⠲": 1315,
      "⠳": 1316,
      "⠴": 1317,
      "⠵": 1318,
      "⠶": 1319,
      "⠷": 1320,
      "⠸": 1321,
      "⠹": 1322,
      "⠺": 1323,
      "⠻": 1324,
      "⠼": 1325,
      "⠽": 1326,
      "⠿": 1327,
      "⡀": 1328,
      "⡁": 1329,
      "⡂": 1330,
      "⡃": 1331,
      "⡄": 1332,
      "⡅": 1333,
      "⡆": 1334,
      "⡇": 1335,
      "⡈": 1336,
      "⡋": 1337,
      "⡌": 1338,
      "⡍": 1339,
      "⡎": 1340,
      "⡏": 1341,
      "⡑": 1342,
      "⡒": 1343,
      "⡔": 1344,
      "⡕": 1345,
      "⡙": 1346,
      "⡛": 1347,
      "⡜": 1348,
      "⡝": 1349,
      "⡞": 1350,
      "⡟": 1351,
      "⡠": 1352,
      "⡡": 1353,
      "⡢": 1354,
      "⡣": 1355,
      "⡤": 1356,
      "⡥": 1357,
      "⡦": 1358,
      "⡪": 1359,
      "⡫": 1360,
      "⡬": 1361,
      "⡮": 1362,
      "⡯": 1363,
      "⡰": 1364,
      "⡱": 1365,
      "⡲": 1366,
      "⡳": 1367,
      "⡴": 1368,
      "⡵": 1369,
      "⡶": 1370,
      "⡷": 1371,
      "⡸": 1372,
      "⡹": 1373,
      "⡺": 1374,
      "⡻": 1375,
      "⡼": 1376,
      "⡽": 1377,
      "⡾": 1378,
      "⡿": 1379,
      "⢀": 1380,
      "⢁": 1381,
      "⢂": 1382,
      "⢃": 1383,
      "⢄": 1384,
      "⢆": 1385,
      "⢇": 1386,
      "⢈": 1387,
      "⢊": 1388,
      "⢋": 1389,
      "⢌": 1390,
      "⢍": 1391,
      "⢎": 1392,
      "⢏": 1393,
      "⢑": 1394,
      "⢒": 1395,
      "⢓": 1396,
      "⢕": 1397,
      "⢗": 1398,
      "⢘": 1399,
      "⢙": 1400,
      "⢚": 1401,
      "⢛": 1402,
      "⢜": 1403,
      "⢝": 1404,
      "⢞": 1405,
      "⢟": 1406,
      "⢠": 1407,
      "⢡": 1408,
      "⢢": 1409,
      "⢣": 1410,
      "⢤": 1411,
      "⢥": 1412,
      "⢦": 1413,
      "⢧": 1414,
      "⢪": 1415,
      "⢫": 1416,
      "⢬": 1417,
      "⢮": 1418,
      "⢯": 1419,
      "⢰": 1420,
      "⢱": 1421,
      "⢲": 1422,
      "⢳": 1423,
      "⢴": 1424,
      "⢵": 1425,
      "⢶": 1426,
      "⢷": 1427,
      "⢸": 1428,
      "⢹": 1429,
      "⢺": 1430,
      "⢻": 1431,
      "⢼": 1432,
      "⢽": 1433,
      "⢾": 1434,
      "⢿": 1435,
      "⣀": 1436,
      "⣁": 1437,
      "⣂": 1438,
      "⣄": 1439,
      "⣅": 1440,
      "⣆": 1441,
      "⣇": 1442,
      "⣈": 1443,
      "⣉": 1444,
      "⣊": 1445,
      "⣋": 1446,
      "⣌": 1447,
      "⣍": 1448,
      "⣎": 1449,
      "⣏": 1450,
      "⣒": 1451,
      "⣓": 1452,
      "⣖": 1453,
      "⣗": 1454,
      "⣘": 1455,
      "⣛": 1456,
      "⣜": 1457,
      "⣝": 1458,
      "⣞": 1459,
      "⣟": 1460,
      "⣠": 1461,
      "⣡": 1462,
      "⣣": 1463,
      "⣤": 1464,
      "⣥": 1465,
      "⣦": 1466,
      "⣧": 1467,
      "⣨": 1468,
      "⣪": 1469,
      "⣫": 1470,
      "⣬": 1471,
      "⣭": 1472,
      "⣮": 1473,
      "⣯": 1474,
      "⣰": 1475,
      "⣲": 1476,
      "⣳": 1477,
      "⣴": 1478,
      "⣵": 1479,
      "⣶": 1480,
      "⣷": 1481,
      "⣸": 1482,
      "⣹": 1483,
      "⣺": 1484,
      "⣻": 1485,
      "⣼": 1486,
      "⣽": 1487,
      "⣾": 1488,
      "⣿": 1489,
      "⤬": 1490,
      "⤵": 1491,
      "⤷": 1492,
      "⥪": 1493,
      "⥭": 1494,
      "⦑": 1495,
      "⦒": 1496,
      "⦿": 1497,
      "⧉": 1498,
      "⧼": 1499,
      "⧽": 1500,
      "⨉": 1501,
      "⬀": 1502,
      "⬁": 1503,
      "⬄": 1504,
      "⬅": 1505,
      "⬆": 1506,
      "⬇": 1507,
      "⬛": 1508,
      "⬜": 1509,
      "⬢": 1510,
      "⬤": 1511,
      "⭐": 1512,
      "⭕": 1513,
      "⭠": 1514,
      "⭢": 1515,
      "⭾": 1516,
      "⮀": 1517,
      "⮕": 1518,
      "⮡": 1519,
      "ⱼ": 1520,
      "ⴋ": 1521,
      "ⴌ": 1522,
      "ⴍ": 1523,
      "ⴏ": 1524,
      "ⴕ": 1525,
      "ⴘ": 1526,
      "ⴝ": 1527,
      "ⴡ": 1528,
      "ⴷ": 1529,
      "ⴺ": 1530,
      "ⴼ": 1531,
      "ⵃ": 1532,
      "ⵊ": 1533,
      "ⵍ": 1534,
      "ⵎ": 1535,
      "ⵖ": 1536,
      "ⵙ": 1537,
      "ⵜ": 1538,
      "ⵝ": 1539,
      "ⵡ": 1540,
      "⸌": 1541,
      "⸍": 1542,
      "⸗": 1543,
      "⸚": 1544,
      "⸜": 1545,
      "⸝": 1546,
      "⸰": 1547,
      "⸺": 1548,
      "⸻": 1549,
      "⹀": 1550,
      "⹂": 1551,
      "、": 1552,
      "。": 1553,
      "々": 1554,
      "〇": 1555,
      "〈": 1556,
      "〉": 1557,
      "《": 1558,
      "》": 1559,
      "「": 1560,
      "」": 1561,
      "『": 1562,
      "』": 1563,
      "【": 1564,
      "】": 1565,
      "〚": 1566,
      "〛": 1567,
      "〜": 1568,
      "〝": 1569,
      "〟": 1570,
      "〰": 1571,
      "〵": 1572,
      "〽": 1573,
      "ぁ": 1574,
      "あ": 1575,
      "い": 1576,
      "う": 1577,
      "え": 1578,
      "お": 1579,
      "か": 1580,
      "き": 1581,
      "く": 1582,
      "け": 1583,
      "こ": 1584,
      "さ": 1585,
      "し": 1586,
      "す": 1587,
      "せ": 1588,
      "そ": 1589,
      "た": 1590,
      "ち": 1591,
      "っ": 1592,
      "つ": 1593,
      "て": 1594,
      "と": 1595,
      "な": 1596,
      "に": 1597,
      "ぬ": 1598,
      "ね": 1599,
      "の": 1600,
      "は": 1601,
      "ひ": 1602,
      "ふ": 1603,
      "へ": 1604,
      "ほ": 1605,
      "ま": 1606,
      "み": 1607,
      "む": 1608,
      "め": 1609,
      "も": 1610,
      "ゃ": 1611,
      "や": 1612,
      "ゅ": 1613,
      "ゆ": 1614,
      "ょ": 1615,
      "よ": 1616,
      "ら": 1617,
      "り": 1618,
      "る": 1619,
      "れ": 1620,
      "ろ": 1621,
      "わ": 1622,
      "ゐ": 1623,
      "ゑ": 1624,
      "を": 1625,
      "ん": 1626,
      "゛": 1627,
      "゜": 1628,
      "゠": 1629,
      "ァ": 1630,
      "ア": 1631,
      "ィ": 1632,
      "イ": 1633,
      "ゥ": 1634,
      "ウ": 1635,
      "ェ": 1636,
      "エ": 1637,
      "ォ": 1638,
      "オ": 1639,
      "カ": 1640,
      "キ": 1641,
      "ク": 1642,
      "ケ": 1643,
      "コ": 1644,
      "サ": 1645,
      "シ": 1646,
      "ス": 1647,
      "セ": 1648,
      "ソ": 1649,
      "タ": 1650,
      "チ": 1651,
      "ッ": 1652,
      "ツ": 1653,
      "テ": 1654,
      "ト": 1655,
      "ナ": 1656,
      "ニ": 1657,
      "ヌ": 1658,
      "ネ": 1659,
      "ノ": 1660,
      "ハ": 1661,
      "ヒ": 1662,
      "フ": 1663,
      "ヘ": 1664,
      "ホ": 1665,
      "マ": 1666,
      "ミ": 1667,
      "ム": 1668,
      "メ": 1669,
      "モ": 1670,
      "ャ": 1671,
      "ヤ": 1672,
      "ュ": 1673,
      "ユ": 1674,
      "ョ": 1675,
      "ヨ": 1676,
      "ラ": 1677,
      "リ": 1678,
      "ル": 1679,
      "レ": 1680,
      "ロ": 1681,
      "ヮ": 1682,
      "ワ": 1683,
      "ヲ": 1684,
      "ン": 1685,
      "ヶ": 1686,
      "・": 1687,
      "ー": 1688,
      "ヽ": 1689,
      "ㄱ": 1690,
      "ㄴ": 1691,
      "ㄷ": 1692,
      "ㄹ": 1693,
      "ㅂ": 1694,
      "ㅅ": 1695,
      "ㅇ": 1696,
      "ㅊ": 1697,
      "ㅋ": 1698,
      "ㅌ": 1699,
      "ㅍ": 1700,
      "ㅏ": 1701,
      "ㅓ": 1702,
      "ㅗ": 1703,
      "ㅤ": 1704,
      "㋡": 1705,
      "㌀": 1706,
      "㌐": 1707,
      "㌔": 1708,
      "㌢": 1709,
      "㌥": 1710,
      "㌨": 1711,
      "㌰": 1712,
      "㍃": 1713,
      "㍉": 1714,
      "㍋": 1715,
      "㎐": 1716,
      "㎞": 1717,
      "㎨": 1718,
      "㐿": 1719,
      "㑈": 1720,
      "㓱": 1721,
      "㕃": 1722,
      "㕫": 1723,
      "㯿": 1724,
      "㰪": 1725,
      "㷶": 1726,
      "㸿": 1727,
      "㹨": 1728,
      "㹼": 1729,
      "㽃": 1730,
      "䖏": 1731,
      "䩲": 1732,
      "䷯": 1733,
      "一": 1734,
      "丁": 1735,
      "七": 1736,
      "万": 1737,
      "三": 1738,
      "上": 1739,
      "下": 1740,
      "不": 1741,
      "与": 1742,
      "丑": 1743,
      "专": 1744,
      "且": 1745,
      "世": 1746,
      "业": 1747,
      "东": 1748,
      "丝": 1749,
      "両": 1750,
      "丢": 1751,
      "两": 1752,
      "严": 1753,
      "並": 1754,
      "个": 1755,
      "中": 1756,
      "丰": 1757,
      "串": 1758,
      "临": 1759,
      "丸": 1760,
      "丹": 1761,
      "为": 1762,
      "主": 1763,
      "举": 1764,
      "乃": 1765,
      "久": 1766,
      "乇": 1767,
      "么": 1768,
      "义": 1769,
      "之": 1770,
      "乎": 1771,
      "乏": 1772,
      "乐": 1773,
      "乗": 1774,
      "乘": 1775,
      "九": 1776,
      "也": 1777,
      "习": 1778,
      "书": 1779,
      "买": 1780,
      "乱": 1781,
      "乳": 1782,
      "乾": 1783,
      "了": 1784,
      "予": 1785,
      "争": 1786,
      "事": 1787,
      "二": 1788,
      "于": 1789,
      "云": 1790,
      "互": 1791,
      "五": 1792,
      "井": 1793,
      "亚": 1794,
      "些": 1795,
      "亞": 1796,
      "亡": 1797,
      "交": 1798,
      "亦": 1799,
      "产": 1800,
      "享": 1801,
      "京": 1802,
      "亮": 1803,
      "亰": 1804,
      "人": 1805,
      "亿": 1806,
      "什": 1807,
      "仁": 1808,
      "仂": 1809,
      "仅": 1810,
      "今": 1811,
      "介": 1812,
      "仍": 1813,
      "从": 1814,
      "仏": 1815,
      "仓": 1816,
      "仔": 1817,
      "仕": 1818,
      "他": 1819,
      "付": 1820,
      "代": 1821,
      "令": 1822,
      "以": 1823,
      "仪": 1824,
      "们": 1825,
      "仮": 1826,
      "仰": 1827,
      "仲": 1828,
      "件": 1829,
      "价": 1830,
      "任": 1831,
      "份": 1832,
      "仿": 1833,
      "企": 1834,
      "伊": 1835,
      "伍": 1836,
      "伏": 1837,
      "休": 1838,
      "众": 1839,
      "优": 1840,
      "伙": 1841,
      "会": 1842,
      "伝": 1843,
      "传": 1844,
      "伤": 1845,
      "伪": 1846,
      "伯": 1847,
      "估": 1848,
      "伴": 1849,
      "伺": 1850,
      "似": 1851,
      "伽": 1852,
      "但": 1853,
      "佈": 1854,
      "位": 1855,
      "低": 1856,
      "住": 1857,
      "佐": 1858,
      "体": 1859,
      "何": 1860,
      "余": 1861,
      "佛": 1862,
      "作": 1863,
      "你": 1864,
      "佣": 1865,
      "佬": 1866,
      "佰": 1867,
      "佳": 1868,
      "併": 1869,
      "使": 1870,
      "侄": 1871,
      "來": 1872,
      "例": 1873,
      "供": 1874,
      "依": 1875,
      "侠": 1876,
      "価": 1877,
      "侣": 1878,
      "侧": 1879,
      "侵": 1880,
      "便": 1881,
      "係": 1882,
      "促": 1883,
      "俄": 1884,
      "俑": 1885,
      "保": 1886,
      "信": 1887,
      "俩": 1888,
      "修": 1889,
      "俱": 1890,
      "俳": 1891,
      "俵": 1892,
      "倉": 1893,
      "個": 1894,
      "倍": 1895,
      "們": 1896,
      "倒": 1897,
      "候": 1898,
      "借": 1899,
      "値": 1900,
      "债": 1901,
      "值": 1902,
      "倾": 1903,
      "假": 1904,
      "偏": 1905,
      "做": 1906,
      "停": 1907,
      "健": 1908,
      "側": 1909,
      "偶": 1910,
      "偷": 1911,
      "備": 1912,
      "傣": 1913,
      "储": 1914,
      "傳": 1915,
      "傷": 1916,
      "傻": 1917,
      "僅": 1918,
      "働": 1919,
      "像": 1920,
      "僕": 1921,
      "僧": 1922,
      "儀": 1923,
      "億": 1924,
      "儒": 1925,
      "優": 1926,
      "儿": 1927,
      "允": 1928,
      "元": 1929,
      "兄": 1930,
      "充": 1931,
      "兆": 1932,
      "先": 1933,
      "光": 1934,
      "克": 1935,
      "免": 1936,
      "児": 1937,
      "兑": 1938,
      "兔": 1939,
      "党": 1940,
      "兜": 1941,
      "入": 1942,
      "全": 1943,
      "兩": 1944,
      "八": 1945,
      "公": 1946,
      "六": 1947,
      "兰": 1948,
      "共": 1949,
      "关": 1950,
      "兴": 1951,
      "兵": 1952,
      "其": 1953,
      "具": 1954,
      "典": 1955,
      "兼": 1956,
      "兽": 1957,
      "内": 1958,
      "円": 1959,
      "冇": 1960,
      "冊": 1961,
      "册": 1962,
      "再": 1963,
      "冗": 1964,
      "写": 1965,
      "军": 1966,
      "农": 1967,
      "冠": 1968,
      "冥": 1969,
      "冪": 1970,
      "冬": 1971,
      "冲": 1972,
      "决": 1973,
      "况": 1974,
      "冷": 1975,
      "冻": 1976,
      "净": 1977,
      "准": 1978,
      "凉": 1979,
      "凌": 1980,
      "凍": 1981,
      "减": 1982,
      "凑": 1983,
      "凝": 1984,
      "几": 1985,
      "凤": 1986,
      "処": 1987,
      "凭": 1988,
      "凯": 1989,
      "凸": 1990,
      "出": 1991,
      "击": 1992,
      "函": 1993,
      "刀": 1994,
      "分": 1995,
      "切": 1996,
      "刊": 1997,
      "划": 1998,
      "列": 1999,
      "刘": 2000,
      "则": 2001,
      "刚": 2002,
      "创": 2003,
      "初": 2004,
      "删": 2005,
      "判": 2006,
      "別": 2007,
      "利": 2008,
      "别": 2009,
      "到": 2010,
      "制": 2011,
      "刷": 2012,
      "券": 2013,
      "刺": 2014,
      "刻": 2015,
      "則": 2016,
      "削": 2017,
      "前": 2018,
      "剔": 2019,
      "剥": 2020,
      "剧": 2021,
      "剩": 2022,
      "剪": 2023,
      "副": 2024,
      "割": 2025,
      "創": 2026,
      "劃": 2027,
      "劇": 2028,
      "劍": 2029,
      "力": 2030,
      "办": 2031,
      "功": 2032,
      "加": 2033,
      "务": 2034,
      "劣": 2035,
      "动": 2036,
      "助": 2037,
      "努": 2038,
      "劫": 2039,
      "励": 2040,
      "劲": 2041,
      "劳": 2042,
      "労": 2043,
      "効": 2044,
      "势": 2045,
      "勇": 2046,
      "勉": 2047,
      "勋": 2048,
      "勒": 2049,
      "動": 2050,
      "勘": 2051,
      "務": 2052,
      "勝": 2053,
      "勢": 2054,
      "勤": 2055,
      "勧": 2056,
      "勾": 2057,
      "勿": 2058,
      "包": 2059,
      "匕": 2060,
      "化": 2061,
      "北": 2062,
      "匹": 2063,
      "区": 2064,
      "医": 2065,
      "匿": 2066,
      "區": 2067,
      "十": 2068,
      "千": 2069,
      "升": 2070,
      "午": 2071,
      "半": 2072,
      "华": 2073,
      "协": 2074,
      "卒": 2075,
      "卓": 2076,
      "協": 2077,
      "单": 2078,
      "卖": 2079,
      "南": 2080,
      "単": 2081,
      "博": 2082,
      "占": 2083,
      "卡": 2084,
      "卢": 2085,
      "卦": 2086,
      "卫": 2087,
      "印": 2088,
      "危": 2089,
      "即": 2090,
      "却": 2091,
      "卵": 2092,
      "卷": 2093,
      "厂": 2094,
      "历": 2095,
      "厉": 2096,
      "压": 2097,
      "厘": 2098,
      "厚": 2099,
      "原": 2100,
      "厦": 2101,
      "厳": 2102,
      "去": 2103,
      "叁": 2104,
      "参": 2105,
      "參": 2106,
      "叄": 2107,
      "又": 2108,
      "叉": 2109,
      "及": 2110,
      "友": 2111,
      "双": 2112,
      "反": 2113,
      "収": 2114,
      "发": 2115,
      "叔": 2116,
      "取": 2117,
      "受": 2118,
      "变": 2119,
      "叙": 2120,
      "叛": 2121,
      "叠": 2122,
      "口": 2123,
      "古": 2124,
      "句": 2125,
      "另": 2126,
      "叩": 2127,
      "只": 2128,
      "叫": 2129,
      "召": 2130,
      "可": 2131,
      "台": 2132,
      "史": 2133,
      "右": 2134,
      "号": 2135,
      "司": 2136,
      "叻": 2137,
      "吁": 2138,
      "吃": 2139,
      "各": 2140,
      "合": 2141,
      "吉": 2142,
      "同": 2143,
      "名": 2144,
      "后": 2145,
      "吐": 2146,
      "向": 2147,
      "吖": 2148,
      "吗": 2149,
      "君": 2150,
      "吞": 2151,
      "否": 2152,
      "吧": 2153,
      "含": 2154,
      "听": 2155,
      "启": 2156,
      "吴": 2157,
      "吶": 2158,
      "吸": 2159,
      "吹": 2160,
      "吼": 2161,
      "吽": 2162,
      "吾": 2163,
      "呂": 2164,
      "呆": 2165,
      "呈": 2166,
      "告": 2167,
      "呋": 2168,
      "呐": 2169,
      "呗": 2170,
      "员": 2171,
      "呢": 2172,
      "呦": 2173,
      "周": 2174,
      "呱": 2175,
      "味": 2176,
      "呵": 2177,
      "呼": 2178,
      "命": 2179,
      "和": 2180,
      "咒": 2181,
      "咔": 2182,
      "咕": 2183,
      "咖": 2184,
      "咤": 2185,
      "咨": 2186,
      "咪": 2187,
      "咬": 2188,
      "咯": 2189,
      "咲": 2190,
      "品": 2191,
      "哆": 2192,
      "哇": 2193,
      "哈": 2194,
      "响": 2195,
      "哔": 2196,
      "哞": 2197,
      "員": 2198,
      "哥": 2199,
      "哦": 2200,
      "哩": 2201,
      "哪": 2202,
      "哮": 2203,
      "哲": 2204,
      "唐": 2205,
      "唔": 2206,
      "唤": 2207,
      "唬": 2208,
      "售": 2209,
      "唯": 2210,
      "唱": 2211,
      "商": 2212,
      "啊": 2213,
      "問": 2214,
      "啟": 2215,
      "啡": 2216,
      "啥": 2217,
      "啦": 2218,
      "啰": 2219,
      "啽": 2220,
      "喀": 2221,
      "喂": 2222,
      "喃": 2223,
      "善": 2224,
      "喜": 2225,
      "喝": 2226,
      "喬": 2227,
      "單": 2228,
      "営": 2229,
      "喼": 2230,
      "喽": 2231,
      "嗄": 2232,
      "嗅": 2233,
      "嗎": 2234,
      "嗒": 2235,
      "嗚": 2236,
      "嗡": 2237,
      "嗥": 2238,
      "嗯": 2239,
      "嗷": 2240,
      "嘅": 2241,
      "嘇": 2242,
      "嘍": 2243,
      "嘚": 2244,
      "嘶": 2245,
      "嘿": 2246,
      "噌": 2247,
      "噔": 2248,
      "噗": 2249,
      "噢": 2250,
      "噤": 2251,
      "器": 2252,
      "嚁": 2253,
      "嚄": 2254,
      "嚓": 2255,
      "嚤": 2256,
      "嚩": 2257,
      "嚴": 2258,
      "囉": 2259,
      "囊": 2260,
      "囑": 2261,
      "四": 2262,
      "回": 2263,
      "因": 2264,
      "团": 2265,
      "団": 2266,
      "园": 2267,
      "困": 2268,
      "囲": 2269,
      "図": 2270,
      "围": 2271,
      "固": 2272,
      "国": 2273,
      "图": 2274,
      "圆": 2275,
      "圈": 2276,
      "國": 2277,
      "圏": 2278,
      "園": 2279,
      "圖": 2280,
      "團": 2281,
      "土": 2282,
      "圣": 2283,
      "圧": 2284,
      "在": 2285,
      "地": 2286,
      "圳": 2287,
      "场": 2288,
      "圾": 2289,
      "址": 2290,
      "坂": 2291,
      "均": 2292,
      "坊": 2293,
      "坏": 2294,
      "坐": 2295,
      "坑": 2296,
      "块": 2297,
      "坚": 2298,
      "坡": 2299,
      "坤": 2300,
      "坦": 2301,
      "垂": 2302,
      "垃": 2303,
      "垄": 2304,
      "型": 2305,
      "垓": 2306,
      "埃": 2307,
      "埋": 2308,
      "城": 2309,
      "域": 2310,
      "執": 2311,
      "基": 2312,
      "埼": 2313,
      "堂": 2314,
      "堅": 2315,
      "堆": 2316,
      "報": 2317,
      "場": 2318,
      "堵": 2319,
      "塑": 2320,
      "塔": 2321,
      "塞": 2322,
      "塩": 2323,
      "填": 2324,
      "境": 2325,
      "墓": 2326,
      "増": 2327,
      "墙": 2328,
      "增": 2329,
      "墨": 2330,
      "壤": 2331,
      "士": 2332,
      "壮": 2333,
      "声": 2334,
      "売": 2335,
      "壹": 2336,
      "处": 2337,
      "备": 2338,
      "変": 2339,
      "复": 2340,
      "夏": 2341,
      "夕": 2342,
      "外": 2343,
      "多": 2344,
      "夜": 2345,
      "够": 2346,
      "夢": 2347,
      "大": 2348,
      "天": 2349,
      "太": 2350,
      "夫": 2351,
      "央": 2352,
      "失": 2353,
      "头": 2354,
      "夷": 2355,
      "夹": 2356,
      "夺": 2357,
      "奇": 2358,
      "奈": 2359,
      "奉": 2360,
      "奏": 2361,
      "契": 2362,
      "奔": 2363,
      "套": 2364,
      "奢": 2365,
      "奥": 2366,
      "奧": 2367,
      "奨": 2368,
      "奮": 2369,
      "女": 2370,
      "奴": 2371,
      "奶": 2372,
      "她": 2373,
      "好": 2374,
      "如": 2375,
      "妈": 2376,
      "妙": 2377,
      "妥": 2378,
      "妨": 2379,
      "妮": 2380,
      "妹": 2381,
      "妻": 2382,
      "姆": 2383,
      "姉": 2384,
      "始": 2385,
      "姓": 2386,
      "委": 2387,
      "姪": 2388,
      "姫": 2389,
      "姬": 2390,
      "姿": 2391,
      "威": 2392,
      "娃": 2393,
      "娅": 2394,
      "娑": 2395,
      "娘": 2396,
      "娲": 2397,
      "娴": 2398,
      "婆": 2399,
      "婉": 2400,
      "婦": 2401,
      "婪": 2402,
      "婷": 2403,
      "媒": 2404,
      "嫩": 2405,
      "子": 2406,
      "孕": 2407,
      "字": 2408,
      "存": 2409,
      "孙": 2410,
      "孝": 2411,
      "孟": 2412,
      "季": 2413,
      "孤": 2414,
      "学": 2415,
      "孪": 2416,
      "孫": 2417,
      "學": 2418,
      "宁": 2419,
      "它": 2420,
      "宅": 2421,
      "宇": 2422,
      "守": 2423,
      "安": 2424,
      "完": 2425,
      "宏": 2426,
      "宕": 2427,
      "宗": 2428,
      "官": 2429,
      "宙": 2430,
      "定": 2431,
      "宝": 2432,
      "实": 2433,
      "実": 2434,
      "审": 2435,
      "客": 2436,
      "宣": 2437,
      "室": 2438,
      "宪": 2439,
      "宮": 2440,
      "害": 2441,
      "家": 2442,
      "容": 2443,
      "宽": 2444,
      "宾": 2445,
      "宿": 2446,
      "寂": 2447,
      "寄": 2448,
      "密": 2449,
      "寇": 2450,
      "富": 2451,
      "寒": 2452,
      "察": 2453,
      "寡": 2454,
      "實": 2455,
      "寨": 2456,
      "寫": 2457,
      "寶": 2458,
      "寸": 2459,
      "对": 2460,
      "寺": 2461,
      "寻": 2462,
      "导": 2463,
      "対": 2464,
      "寿": 2465,
      "封": 2466,
      "専": 2467,
      "射": 2468,
      "将": 2469,
      "尊": 2470,
      "尋": 2471,
      "對": 2472,
      "導": 2473,
      "小": 2474,
      "少": 2475,
      "尔": 2476,
      "尖": 2477,
      "尚": 2478,
      "尝": 2479,
      "尤": 2480,
      "就": 2481,
      "尺": 2482,
      "尼": 2483,
      "尽": 2484,
      "尾": 2485,
      "局": 2486,
      "层": 2487,
      "居": 2488,
      "届": 2489,
      "屋": 2490,
      "屏": 2491,
      "展": 2492,
      "属": 2493,
      "層": 2494,
      "履": 2495,
      "山": 2496,
      "岁": 2497,
      "岐": 2498,
      "岗": 2499,
      "岛": 2500,
      "岡": 2501,
      "岩": 2502,
      "岳": 2503,
      "岸": 2504,
      "峨": 2505,
      "峰": 2506,
      "島": 2507,
      "崩": 2508,
      "嵌": 2509,
      "嶽": 2510,
      "川": 2511,
      "州": 2512,
      "巣": 2513,
      "工": 2514,
      "左": 2515,
      "巧": 2516,
      "巨": 2517,
      "巫": 2518,
      "差": 2519,
      "己": 2520,
      "已": 2521,
      "巴": 2522,
      "巻": 2523,
      "巽": 2524,
      "币": 2525,
      "市": 2526,
      "布": 2527,
      "师": 2528,
      "希": 2529,
      "帐": 2530,
      "帕": 2531,
      "帘": 2532,
      "帝": 2533,
      "带": 2534,
      "帧": 2535,
      "師": 2536,
      "席": 2537,
      "帮": 2538,
      "帯": 2539,
      "帰": 2540,
      "帳": 2541,
      "帶": 2542,
      "常": 2543,
      "幂": 2544,
      "幅": 2545,
      "幌": 2546,
      "幕": 2547,
      "干": 2548,
      "平": 2549,
      "年": 2550,
      "并": 2551,
      "幸": 2552,
      "幹": 2553,
      "幻": 2554,
      "幼": 2555,
      "幾": 2556,
      "广": 2557,
      "庁": 2558,
      "広": 2559,
      "庆": 2560,
      "庇": 2561,
      "序": 2562,
      "库": 2563,
      "应": 2564,
      "底": 2565,
      "店": 2566,
      "庙": 2567,
      "庚": 2568,
      "府": 2569,
      "庞": 2570,
      "废": 2571,
      "度": 2572,
      "座": 2573,
      "庫": 2574,
      "庭": 2575,
      "康": 2576,
      "庸": 2577,
      "廉": 2578,
      "廟": 2579,
      "廣": 2580,
      "延": 2581,
      "建": 2582,
      "开": 2583,
      "弁": 2584,
      "异": 2585,
      "弃": 2586,
      "弈": 2587,
      "式": 2588,
      "弓": 2589,
      "引": 2590,
      "弗": 2591,
      "弟": 2592,
      "张": 2593,
      "弥": 2594,
      "弦": 2595,
      "弧": 2596,
      "弯": 2597,
      "弱": 2598,
      "張": 2599,
      "強": 2600,
      "弹": 2601,
      "强": 2602,
      "彌": 2603,
      "归": 2604,
      "当": 2605,
      "录": 2606,
      "彙": 2607,
      "彝": 2608,
      "形": 2609,
      "彦": 2610,
      "彩": 2611,
      "影": 2612,
      "役": 2613,
      "往": 2614,
      "征": 2615,
      "径": 2616,
      "待": 2617,
      "很": 2618,
      "律": 2619,
      "後": 2620,
      "徐": 2621,
      "徒": 2622,
      "従": 2623,
      "得": 2624,
      "從": 2625,
      "御": 2626,
      "復": 2627,
      "循": 2628,
      "微": 2629,
      "徳": 2630,
      "徴": 2631,
      "德": 2632,
      "心": 2633,
      "必": 2634,
      "忍": 2635,
      "志": 2636,
      "忘": 2637,
      "忙": 2638,
      "応": 2639,
      "忠": 2640,
      "忧": 2641,
      "快": 2642,
      "念": 2643,
      "忽": 2644,
      "怀": 2645,
      "态": 2646,
      "怎": 2647,
      "怖": 2648,
      "怛": 2649,
      "怜": 2650,
      "思": 2651,
      "怠": 2652,
      "急": 2653,
      "性": 2654,
      "怪": 2655,
      "怯": 2656,
      "总": 2657,
      "恐": 2658,
      "恒": 2659,
      "恢": 2660,
      "恤": 2661,
      "恩": 2662,
      "息": 2663,
      "恰": 2664,
      "恵": 2665,
      "恶": 2666,
      "悄": 2667,
      "悉": 2668,
      "悟": 2669,
      "您": 2670,
      "悪": 2671,
      "悬": 2672,
      "悲": 2673,
      "情": 2674,
      "惊": 2675,
      "惜": 2676,
      "惠": 2677,
      "惯": 2678,
      "想": 2679,
      "愍": 2680,
      "意": 2681,
      "愛": 2682,
      "感": 2683,
      "愤": 2684,
      "愿": 2685,
      "慈": 2686,
      "態": 2687,
      "慎": 2688,
      "慘": 2689,
      "慢": 2690,
      "慣": 2691,
      "慧": 2692,
      "慮": 2693,
      "憂": 2694,
      "憑": 2695,
      "憲": 2696,
      "憾": 2697,
      "應": 2698,
      "懒": 2699,
      "戊": 2700,
      "戌": 2701,
      "戏": 2702,
      "成": 2703,
      "我": 2704,
      "或": 2705,
      "战": 2706,
      "戦": 2707,
      "截": 2708,
      "戳": 2709,
      "户": 2710,
      "戸": 2711,
      "戻": 2712,
      "房": 2713,
      "所": 2714,
      "手": 2715,
      "才": 2716,
      "扎": 2717,
      "打": 2718,
      "払": 2719,
      "托": 2720,
      "扣": 2721,
      "执": 2722,
      "扩": 2723,
      "扫": 2724,
      "扭": 2725,
      "扰": 2726,
      "扱": 2727,
      "批": 2728,
      "找": 2729,
      "承": 2730,
      "技": 2731,
      "抄": 2732,
      "把": 2733,
      "抑": 2734,
      "抓": 2735,
      "投": 2736,
      "抖": 2737,
      "抗": 2738,
      "折": 2739,
      "択": 2740,
      "护": 2741,
      "报": 2742,
      "披": 2743,
      "抱": 2744,
      "抵": 2745,
      "抹": 2746,
      "押": 2747,
      "抽": 2748,
      "担": 2749,
      "拆": 2750,
      "拉": 2751,
      "拍": 2752,
      "拒": 2753,
      "拓": 2754,
      "拖": 2755,
      "拙": 2756,
      "招": 2757,
      "拝": 2758,
      "拟": 2759,
      "拠": 2760,
      "拡": 2761,
      "拥": 2762,
      "拦": 2763,
      "拨": 2764,
      "择": 2765,
      "括": 2766,
      "拷": 2767,
      "拼": 2768,
      "拽": 2769,
      "拾": 2770,
      "拿": 2771,
      "持": 2772,
      "挂": 2773,
      "指": 2774,
      "按": 2775,
      "挑": 2776,
      "挖": 2777,
      "挙": 2778,
      "挝": 2779,
      "挡": 2780,
      "挤": 2781,
      "挥": 2782,
      "挫": 2783,
      "振": 2784,
      "挺": 2785,
      "挿": 2786,
      "捉": 2787,
      "捍": 2788,
      "捐": 2789,
      "捕": 2790,
      "捗": 2791,
      "损": 2792,
      "换": 2793,
      "捨": 2794,
      "据": 2795,
      "捷": 2796,
      "掀": 2797,
      "授": 2798,
      "掉": 2799,
      "掌": 2800,
      "排": 2801,
      "掘": 2802,
      "掛": 2803,
      "採": 2804,
      "探": 2805,
      "接": 2806,
      "控": 2807,
      "推": 2808,
      "掩": 2809,
      "揃": 2810,
      "描": 2811,
      "提": 2812,
      "插": 2813,
      "換": 2814,
      "握": 2815,
      "揭": 2816,
      "揮": 2817,
      "援": 2818,
      "損": 2819,
      "搜": 2820,
      "搞": 2821,
      "搬": 2822,
      "搭": 2823,
      "携": 2824,
      "摄": 2825,
      "摆": 2826,
      "摘": 2827,
      "摩": 2828,
      "撃": 2829,
      "撑": 2830,
      "撒": 2831,
      "撤": 2832,
      "播": 2833,
      "撰": 2834,
      "撸": 2835,
      "擇": 2836,
      "擊": 2837,
      "操": 2838,
      "擎": 2839,
      "據": 2840,
      "擲": 2841,
      "擴": 2842,
      "攥": 2843,
      "攫": 2844,
      "支": 2845,
      "收": 2846,
      "改": 2847,
      "攻": 2848,
      "放": 2849,
      "政": 2850,
      "故": 2851,
      "效": 2852,
      "敏": 2853,
      "救": 2854,
      "敗": 2855,
      "教": 2856,
      "敢": 2857,
      "散": 2858,
      "敦": 2859,
      "敬": 2860,
      "数": 2861,
      "敲": 2862,
      "整": 2863,
      "敵": 2864,
      "數": 2865,
      "文": 2866,
      "斐": 2867,
      "斗": 2868,
      "料": 2869,
      "斟": 2870,
      "斥": 2871,
      "断": 2872,
      "斯": 2873,
      "新": 2874,
      "斷": 2875,
      "方": 2876,
      "於": 2877,
      "施": 2878,
      "旁": 2879,
      "旅": 2880,
      "旋": 2881,
      "族": 2882,
      "旗": 2883,
      "无": 2884,
      "既": 2885,
      "日": 2886,
      "旦": 2887,
      "旧": 2888,
      "旨": 2889,
      "早": 2890,
      "时": 2891,
      "昆": 2892,
      "昌": 2893,
      "明": 2894,
      "易": 2895,
      "昔": 2896,
      "星": 2897,
      "映": 2898,
      "春": 2899,
      "昨": 2900,
      "昭": 2901,
      "是": 2902,
      "昵": 2903,
      "昼": 2904,
      "显": 2905,
      "時": 2906,
      "晒": 2907,
      "晓": 2908,
      "晚": 2909,
      "晨": 2910,
      "晩": 2911,
      "普": 2912,
      "景": 2913,
      "晰": 2914,
      "晴": 2915,
      "晶": 2916,
      "智": 2917,
      "暂": 2918,
      "暑": 2919,
      "暖": 2920,
      "暗": 2921,
      "暮": 2922,
      "暴": 2923,
      "曆": 2924,
      "曜": 2925,
      "曰": 2926,
      "曲": 2927,
      "曳": 2928,
      "更": 2929,
      "書": 2930,
      "曼": 2931,
      "曾": 2932,
      "替": 2933,
      "最": 2934,
      "會": 2935,
      "月": 2936,
      "有": 2937,
      "朋": 2938,
      "服": 2939,
      "朗": 2940,
      "望": 2941,
      "朝": 2942,
      "期": 2943,
      "木": 2944,
      "未": 2945,
      "末": 2946,
      "本": 2947,
      "札": 2948,
      "术": 2949,
      "朴": 2950,
      "机": 2951,
      "朽": 2952,
      "杀": 2953,
      "杂": 2954,
      "权": 2955,
      "杉": 2956,
      "李": 2957,
      "材": 2958,
      "村": 2959,
      "杜": 2960,
      "杞": 2961,
      "束": 2962,
      "杠": 2963,
      "条": 2964,
      "来": 2965,
      "杭": 2966,
      "杯": 2967,
      "杰": 2968,
      "東": 2969,
      "松": 2970,
      "板": 2971,
      "极": 2972,
      "构": 2973,
      "析": 2974,
      "林": 2975,
      "枚": 2976,
      "果": 2977,
      "枝": 2978,
      "枪": 2979,
      "架": 2980,
      "枸": 2981,
      "柄": 2982,
      "某": 2983,
      "染": 2984,
      "柔": 2985,
      "查": 2986,
      "柯": 2987,
      "柱": 2988,
      "査": 2989,
      "栄": 2990,
      "栅": 2991,
      "标": 2992,
      "栈": 2993,
      "栏": 2994,
      "树": 2995,
      "栗": 2996,
      "校": 2997,
      "株": 2998,
      "样": 2999,
      "核": 3000,
      "根": 3001,
      "格": 3002,
      "桁": 3003,
      "桃": 3004,
      "框": 3005,
      "案": 3006,
      "桌": 3007,
      "桑": 3008,
      "桜": 3009,
      "档": 3010,
      "桥": 3011,
      "梁": 3012,
      "梅": 3013,
      "條": 3014,
      "梦": 3015,
      "梨": 3016,
      "梭": 3017,
      "梯": 3018,
      "械": 3019,
      "梵": 3020,
      "检": 3021,
      "棉": 3022,
      "棋": 3023,
      "棒": 3024,
      "棕": 3025,
      "棘": 3026,
      "棚": 3027,
      "森": 3028,
      "棵": 3029,
      "植": 3030,
      "検": 3031,
      "椭": 3032,
      "楚": 3033,
      "楞": 3034,
      "業": 3035,
      "極": 3036,
      "楼": 3037,
      "楽": 3038,
      "概": 3039,
      "榨": 3040,
      "槃": 3041,
      "構": 3042,
      "様": 3043,
      "槛": 3044,
      "槽": 3045,
      "樂": 3046,
      "樓": 3047,
      "標": 3048,
      "模": 3049,
      "樣": 3050,
      "権": 3051,
      "横": 3052,
      "樹": 3053,
      "橋": 3054,
      "機": 3055,
      "檢": 3056,
      "欄": 3057,
      "權": 3058,
      "欠": 3059,
      "次": 3060,
      "欢": 3061,
      "欣": 3062,
      "欧": 3063,
      "欲": 3064,
      "欺": 3065,
      "款": 3066,
      "歇": 3067,
      "歉": 3068,
      "歌": 3069,
      "歐": 3070,
      "歡": 3071,
      "止": 3072,
      "正": 3073,
      "此": 3074,
      "步": 3075,
      "武": 3076,
      "歧": 3077,
      "歩": 3078,
      "歯": 3079,
      "歴": 3080,
      "歷": 3081,
      "死": 3082,
      "殃": 3083,
      "殊": 3084,
      "残": 3085,
      "殴": 3086,
      "段": 3087,
      "殺": 3088,
      "殿": 3089,
      "毁": 3090,
      "母": 3091,
      "毎": 3092,
      "每": 3093,
      "毒": 3094,
      "比": 3095,
      "毕": 3096,
      "毘": 3097,
      "毛": 3098,
      "毫": 3099,
      "氏": 3100,
      "民": 3101,
      "气": 3102,
      "気": 3103,
      "水": 3104,
      "氷": 3105,
      "永": 3106,
      "求": 3107,
      "汇": 3108,
      "汉": 3109,
      "汎": 3110,
      "江": 3111,
      "池": 3112,
      "汤": 3113,
      "決": 3114,
      "汽": 3115,
      "沉": 3116,
      "沌": 3117,
      "沐": 3118,
      "沒": 3119,
      "沙": 3120,
      "沟": 3121,
      "没": 3122,
      "沪": 3123,
      "河": 3124,
      "油": 3125,
      "治": 3126,
      "沿": 3127,
      "況": 3128,
      "泄": 3129,
      "泉": 3130,
      "泊": 3131,
      "法": 3132,
      "泛": 3133,
      "波": 3134,
      "泣": 3135,
      "注": 3136,
      "泰": 3137,
      "泳": 3138,
      "洁": 3139,
      "洋": 3140,
      "洗": 3141,
      "洛": 3142,
      "洞": 3143,
      "津": 3144,
      "洪": 3145,
      "洲": 3146,
      "活": 3147,
      "派": 3148,
      "流": 3149,
      "浅": 3150,
      "浆": 3151,
      "测": 3152,
      "济": 3153,
      "浏": 3154,
      "浙": 3155,
      "浜": 3156,
      "浦": 3157,
      "浩": 3158,
      "浪": 3159,
      "浮": 3160,
      "浴": 3161,
      "海": 3162,
      "涅": 3163,
      "消": 3164,
      "涉": 3165,
      "润": 3166,
      "涧": 3167,
      "涨": 3168,
      "液": 3169,
      "涵": 3170,
      "涼": 3171,
      "淆": 3172,
      "淑": 3173,
      "淘": 3174,
      "淚": 3175,
      "淡": 3176,
      "深": 3177,
      "混": 3178,
      "添": 3179,
      "清": 3180,
      "済": 3181,
      "渋": 3182,
      "渐": 3183,
      "渗": 3184,
      "減": 3185,
      "渡": 3186,
      "温": 3187,
      "測": 3188,
      "港": 3189,
      "渲": 3190,
      "渴": 3191,
      "游": 3192,
      "湖": 3193,
      "湯": 3194,
      "湾": 3195,
      "満": 3196,
      "溃": 3197,
      "源": 3198,
      "準": 3199,
      "溜": 3200,
      "溝": 3201,
      "溢": 3202,
      "溫": 3203,
      "溯": 3204,
      "滅": 3205,
      "滑": 3206,
      "滚": 3207,
      "滞": 3208,
      "满": 3209,
      "滤": 3210,
      "滥": 3211,
      "滴": 3212,
      "漁": 3213,
      "漂": 3214,
      "演": 3215,
      "漠": 3216,
      "漢": 3217,
      "漫": 3218,
      "潔": 3219,
      "潜": 3220,
      "潮": 3221,
      "澗": 3222,
      "澜": 3223,
      "澤": 3224,
      "澳": 3225,
      "激": 3226,
      "濁": 3227,
      "濯": 3228,
      "灣": 3229,
      "火": 3230,
      "灭": 3231,
      "灯": 3232,
      "灰": 3233,
      "灵": 3234,
      "災": 3235,
      "灾": 3236,
      "炎": 3237,
      "炭": 3238,
      "点": 3239,
      "為": 3240,
      "烁": 3241,
      "烏": 3242,
      "烛": 3243,
      "烟": 3244,
      "烦": 3245,
      "热": 3246,
      "無": 3247,
      "焦": 3248,
      "焰": 3249,
      "然": 3250,
      "焼": 3251,
      "照": 3252,
      "煩": 3253,
      "熊": 3254,
      "熙": 3255,
      "熟": 3256,
      "熱": 3257,
      "燃": 3258,
      "營": 3259,
      "燥": 3260,
      "燭": 3261,
      "爆": 3262,
      "爍": 3263,
      "爪": 3264,
      "爬": 3265,
      "爱": 3266,
      "父": 3267,
      "爾": 3268,
      "片": 3269,
      "版": 3270,
      "牌": 3271,
      "牙": 3272,
      "牛": 3273,
      "牟": 3274,
      "牧": 3275,
      "物": 3276,
      "牵": 3277,
      "特": 3278,
      "犀": 3279,
      "犬": 3280,
      "犯": 3281,
      "状": 3282,
      "犹": 3283,
      "狂": 3284,
      "狄": 3285,
      "狐": 3286,
      "狗": 3287,
      "独": 3288,
      "狮": 3289,
      "狸": 3290,
      "狼": 3291,
      "猜": 3292,
      "猪": 3293,
      "猫": 3294,
      "献": 3295,
      "猴": 3296,
      "猶": 3297,
      "獻": 3298,
      "玄": 3299,
      "率": 3300,
      "玉": 3301,
      "王": 3302,
      "玩": 3303,
      "环": 3304,
      "现": 3305,
      "珠": 3306,
      "班": 3307,
      "現": 3308,
      "球": 3309,
      "理": 3310,
      "琉": 3311,
      "琐": 3312,
      "琴": 3313,
      "瑞": 3314,
      "瑟": 3315,
      "瑶": 3316,
      "璃": 3317,
      "環": 3318,
      "瓜": 3319,
      "瓣": 3320,
      "瓦": 3321,
      "瓶": 3322,
      "甘": 3323,
      "甚": 3324,
      "生": 3325,
      "產": 3326,
      "産": 3327,
      "用": 3328,
      "甩": 3329,
      "田": 3330,
      "由": 3331,
      "甲": 3332,
      "申": 3333,
      "电": 3334,
      "男": 3335,
      "甸": 3336,
      "町": 3337,
      "画": 3338,
      "界": 3339,
      "畑": 3340,
      "留": 3341,
      "略": 3342,
      "番": 3343,
      "畫": 3344,
      "異": 3345,
      "畴": 3346,
      "畵": 3347,
      "當": 3348,
      "疆": 3349,
      "疑": 3350,
      "疗": 3351,
      "疫": 3352,
      "疯": 3353,
      "疲": 3354,
      "疾": 3355,
      "病": 3356,
      "痛": 3357,
      "痪": 3358,
      "瘫": 3359,
      "療": 3360,
      "発": 3361,
      "登": 3362,
      "發": 3363,
      "白": 3364,
      "百": 3365,
      "皂": 3366,
      "的": 3367,
      "皆": 3368,
      "皇": 3369,
      "皤": 3370,
      "皮": 3371,
      "皿": 3372,
      "盈": 3373,
      "益": 3374,
      "监": 3375,
      "盒": 3376,
      "盖": 3377,
      "盘": 3378,
      "盛": 3379,
      "盜": 3380,
      "盟": 3381,
      "盡": 3382,
      "監": 3383,
      "盤": 3384,
      "盧": 3385,
      "目": 3386,
      "盲": 3387,
      "直": 3388,
      "相": 3389,
      "盾": 3390,
      "省": 3391,
      "眉": 3392,
      "看": 3393,
      "県": 3394,
      "真": 3395,
      "眠": 3396,
      "眼": 3397,
      "眾": 3398,
      "着": 3399,
      "督": 3400,
      "瞥": 3401,
      "瞬": 3402,
      "矛": 3403,
      "矢": 3404,
      "知": 3405,
      "矩": 3406,
      "短": 3407,
      "石": 3408,
      "矶": 3409,
      "码": 3410,
      "砂": 3411,
      "研": 3412,
      "砖": 3413,
      "破": 3414,
      "础": 3415,
      "硕": 3416,
      "硬": 3417,
      "确": 3418,
      "碁": 3419,
      "碎": 3420,
      "碟": 3421,
      "碰": 3422,
      "確": 3423,
      "碼": 3424,
      "碾": 3425,
      "磁": 3426,
      "磋": 3427,
      "磨": 3428,
      "礎": 3429,
      "礙": 3430,
      "示": 3431,
      "礼": 3432,
      "社": 3433,
      "祇": 3434,
      "祐": 3435,
      "祖": 3436,
      "祗": 3437,
      "祝": 3438,
      "神": 3439,
      "祥": 3440,
      "票": 3441,
      "祭": 3442,
      "禁": 3443,
      "禍": 3444,
      "福": 3445,
      "离": 3446,
      "禾": 3447,
      "秀": 3448,
      "私": 3449,
      "秋": 3450,
      "种": 3451,
      "科": 3452,
      "秒": 3453,
      "秘": 3454,
      "租": 3455,
      "秭": 3456,
      "积": 3457,
      "称": 3458,
      "移": 3459,
      "程": 3460,
      "税": 3461,
      "種": 3462,
      "稱": 3463,
      "稳": 3464,
      "稼": 3465,
      "稿": 3466,
      "穀": 3467,
      "穆": 3468,
      "積": 3469,
      "穩": 3470,
      "穰": 3471,
      "穴": 3472,
      "究": 3473,
      "穷": 3474,
      "空": 3475,
      "穿": 3476,
      "突": 3477,
      "窃": 3478,
      "窄": 3479,
      "窓": 3480,
      "窗": 3481,
      "立": 3482,
      "竖": 3483,
      "站": 3484,
      "竞": 3485,
      "竟": 3486,
      "章": 3487,
      "童": 3488,
      "竭": 3489,
      "端": 3490,
      "競": 3491,
      "竹": 3492,
      "竺": 3493,
      "笑": 3494,
      "笔": 3495,
      "笛": 3496,
      "符": 3497,
      "笨": 3498,
      "第": 3499,
      "笹": 3500,
      "筆": 3501,
      "等": 3502,
      "筋": 3503,
      "答": 3504,
      "策": 3505,
      "筛": 3506,
      "签": 3507,
      "简": 3508,
      "算": 3509,
      "管": 3510,
      "箭": 3511,
      "箱": 3512,
      "節": 3513,
      "範": 3514,
      "篇": 3515,
      "築": 3516,
      "篡": 3517,
      "簡": 3518,
      "簿": 3519,
      "籍": 3520,
      "籤": 3521,
      "米": 3522,
      "类": 3523,
      "粉": 3524,
      "粒": 3525,
      "粗": 3526,
      "粘": 3527,
      "粟": 3528,
      "粵": 3529,
      "粹": 3530,
      "精": 3531,
      "糖": 3532,
      "糸": 3533,
      "系": 3534,
      "紀": 3535,
      "約": 3536,
      "紅": 3537,
      "納": 3538,
      "紐": 3539,
      "純": 3540,
      "紙": 3541,
      "級": 3542,
      "素": 3543,
      "索": 3544,
      "紧": 3545,
      "紫": 3546,
      "累": 3547,
      "細": 3548,
      "紹": 3549,
      "終": 3550,
      "組": 3551,
      "経": 3552,
      "結": 3553,
      "絞": 3554,
      "絡": 3555,
      "給": 3556,
      "統": 3557,
      "絵": 3558,
      "絶": 3559,
      "絹": 3560,
      "綁": 3561,
      "続": 3562,
      "維": 3563,
      "網": 3564,
      "綻": 3565,
      "綿": 3566,
      "総": 3567,
      "緑": 3568,
      "緒": 3569,
      "線": 3570,
      "締": 3571,
      "編": 3572,
      "練": 3573,
      "縦": 3574,
      "縮": 3575,
      "績": 3576,
      "繁": 3577,
      "織": 3578,
      "繰": 3579,
      "纠": 3580,
      "红": 3581,
      "约": 3582,
      "级": 3583,
      "纪": 3584,
      "纬": 3585,
      "纯": 3586,
      "纱": 3587,
      "纳": 3588,
      "纵": 3589,
      "纷": 3590,
      "纸": 3591,
      "纹": 3592,
      "纽": 3593,
      "线": 3594,
      "练": 3595,
      "组": 3596,
      "细": 3597,
      "织": 3598,
      "终": 3599,
      "绊": 3600,
      "绍": 3601,
      "经": 3602,
      "绑": 3603,
      "结": 3604,
      "绕": 3605,
      "绘": 3606,
      "给": 3607,
      "络": 3608,
      "绝": 3609,
      "统": 3610,
      "继": 3611,
      "绩": 3612,
      "绪": 3613,
      "续": 3614,
      "维": 3615,
      "综": 3616,
      "缀": 3617,
      "缅": 3618,
      "缓": 3619,
      "编": 3620,
      "缘": 3621,
      "缝": 3622,
      "缩": 3623,
      "缺": 3624,
      "缽": 3625,
      "网": 3626,
      "罗": 3627,
      "罚": 3628,
      "罨": 3629,
      "罪": 3630,
      "置": 3631,
      "罰": 3632,
      "署": 3633,
      "羅": 3634,
      "羊": 3635,
      "美": 3636,
      "群": 3637,
      "義": 3638,
      "羯": 3639,
      "羲": 3640,
      "羽": 3641,
      "翌": 3642,
      "習": 3643,
      "翠": 3644,
      "翰": 3645,
      "翻": 3646,
      "翼": 3647,
      "老": 3648,
      "考": 3649,
      "者": 3650,
      "而": 3651,
      "耐": 3652,
      "耕": 3653,
      "耗": 3654,
      "耦": 3655,
      "耨": 3656,
      "耳": 3657,
      "耶": 3658,
      "聊": 3659,
      "职": 3660,
      "联": 3661,
      "聖": 3662,
      "聚": 3663,
      "聞": 3664,
      "職": 3665,
      "肃": 3666,
      "肅": 3667,
      "肆": 3668,
      "肉": 3669,
      "肖": 3670,
      "股": 3671,
      "肥": 3672,
      "肯": 3673,
      "育": 3674,
      "肺": 3675,
      "胀": 3676,
      "胁": 3677,
      "胃": 3678,
      "背": 3679,
      "胜": 3680,
      "胞": 3681,
      "胧": 3682,
      "胸": 3683,
      "能": 3684,
      "脂": 3685,
      "脇": 3686,
      "脈": 3687,
      "脏": 3688,
      "脑": 3689,
      "脖": 3690,
      "脚": 3691,
      "脱": 3692,
      "脳": 3693,
      "腊": 3694,
      "腐": 3695,
      "腸": 3696,
      "腹": 3697,
      "腻": 3698,
      "腾": 3699,
      "膨": 3700,
      "臓": 3701,
      "臘": 3702,
      "臣": 3703,
      "臨": 3704,
      "自": 3705,
      "臭": 3706,
      "至": 3707,
      "致": 3708,
      "臺": 3709,
      "舆": 3710,
      "與": 3711,
      "興": 3712,
      "舌": 3713,
      "舍": 3714,
      "舎": 3715,
      "舟": 3716,
      "航": 3717,
      "般": 3718,
      "船": 3719,
      "良": 3720,
      "色": 3721,
      "艺": 3722,
      "节": 3723,
      "芝": 3724,
      "芯": 3725,
      "花": 3726,
      "芸": 3727,
      "芽": 3728,
      "苏": 3729,
      "若": 3730,
      "苦": 3731,
      "英": 3732,
      "范": 3733,
      "茶": 3734,
      "荀": 3735,
      "荆": 3736,
      "草": 3737,
      "荐": 3738,
      "荣": 3739,
      "荧": 3740,
      "药": 3741,
      "荷": 3742,
      "莉": 3743,
      "莊": 3744,
      "莫": 3745,
      "获": 3746,
      "莹": 3747,
      "菁": 3748,
      "菜": 3749,
      "菩": 3750,
      "華": 3751,
      "菱": 3752,
      "萌": 3753,
      "萍": 3754,
      "营": 3755,
      "萦": 3756,
      "萨": 3757,
      "萬": 3758,
      "萱": 3759,
      "落": 3760,
      "葉": 3761,
      "著": 3762,
      "董": 3763,
      "葩": 3764,
      "蒙": 3765,
      "蒸": 3766,
      "蓝": 3767,
      "蔵": 3768,
      "蔽": 3769,
      "蕾": 3770,
      "薄": 3771,
      "薩": 3772,
      "薫": 3773,
      "薬": 3774,
      "藏": 3775,
      "藐": 3776,
      "藝": 3777,
      "蘇": 3778,
      "虎": 3779,
      "虑": 3780,
      "處": 3781,
      "虚": 3782,
      "號": 3783,
      "虫": 3784,
      "虽": 3785,
      "蚍": 3786,
      "蚕": 3787,
      "蛇": 3788,
      "蛩": 3789,
      "蜂": 3790,
      "蜉": 3791,
      "蜜": 3792,
      "蝶": 3793,
      "螃": 3794,
      "融": 3795,
      "蟹": 3796,
      "血": 3797,
      "衆": 3798,
      "行": 3799,
      "衍": 3800,
      "術": 3801,
      "衔": 3802,
      "街": 3803,
      "衛": 3804,
      "衡": 3805,
      "衣": 3806,
      "补": 3807,
      "表": 3808,
      "衰": 3809,
      "衷": 3810,
      "袋": 3811,
      "被": 3812,
      "袭": 3813,
      "裁": 3814,
      "裂": 3815,
      "装": 3816,
      "裏": 3817,
      "補": 3818,
      "裝": 3819,
      "裸": 3820,
      "裹": 3821,
      "製": 3822,
      "複": 3823,
      "褒": 3824,
      "襲": 3825,
      "西": 3826,
      "要": 3827,
      "覆": 3828,
      "見": 3829,
      "規": 3830,
      "視": 3831,
      "覚": 3832,
      "覧": 3833,
      "親": 3834,
      "観": 3835,
      "覺": 3836,
      "见": 3837,
      "观": 3838,
      "规": 3839,
      "觅": 3840,
      "视": 3841,
      "览": 3842,
      "觉": 3843,
      "角": 3844,
      "解": 3845,
      "触": 3846,
      "言": 3847,
      "計": 3848,
      "訊": 3849,
      "討": 3850,
      "訓": 3851,
      "記": 3852,
      "訪": 3853,
      "設": 3854,
      "許": 3855,
      "訳": 3856,
      "訴": 3857,
      "訶": 3858,
      "註": 3859,
      "証": 3860,
      "評": 3861,
      "詞": 3862,
      "詢": 3863,
      "試": 3864,
      "詩": 3865,
      "話": 3866,
      "該": 3867,
      "詳": 3868,
      "誉": 3869,
      "誌": 3870,
      "認": 3871,
      "誒": 3872,
      "誕": 3873,
      "誘": 3874,
      "語": 3875,
      "誠": 3876,
      "誤": 3877,
      "說": 3878,
      "説": 3879,
      "読": 3880,
      "誰": 3881,
      "課": 3882,
      "調": 3883,
      "談": 3884,
      "請": 3885,
      "論": 3886,
      "諦": 3887,
      "諳": 3888,
      "諸": 3889,
      "講": 3890,
      "謝": 3891,
      "謹": 3892,
      "證": 3893,
      "識": 3894,
      "譜": 3895,
      "警": 3896,
      "譯": 3897,
      "議": 3898,
      "護": 3899,
      "變": 3900,
      "讓": 3901,
      "计": 3902,
      "订": 3903,
      "认": 3904,
      "讨": 3905,
      "让": 3906,
      "训": 3907,
      "议": 3908,
      "讯": 3909,
      "记": 3910,
      "讲": 3911,
      "许": 3912,
      "论": 3913,
      "设": 3914,
      "访": 3915,
      "证": 3916,
      "诃": 3917,
      "评": 3918,
      "识": 3919,
      "诉": 3920,
      "诊": 3921,
      "词": 3922,
      "译": 3923,
      "试": 3924,
      "诚": 3925,
      "话": 3926,
      "诞": 3927,
      "询": 3928,
      "该": 3929,
      "详": 3930,
      "语": 3931,
      "误": 3932,
      "诱": 3933,
      "说": 3934,
      "诵": 3935,
      "请": 3936,
      "诸": 3937,
      "诺": 3938,
      "读": 3939,
      "课": 3940,
      "谁": 3941,
      "调": 3942,
      "谐": 3943,
      "谓": 3944,
      "谛": 3945,
      "谢": 3946,
      "谨": 3947,
      "谱": 3948,
      "谴": 3949,
      "谷": 3950,
      "豆": 3951,
      "豊": 3952,
      "象": 3953,
      "豪": 3954,
      "貓": 3955,
      "貝": 3956,
      "負": 3957,
      "財": 3958,
      "貢": 3959,
      "貧": 3960,
      "貨": 3961,
      "責": 3962,
      "貯": 3963,
      "貳": 3964,
      "貴": 3965,
      "買": 3966,
      "貸": 3967,
      "費": 3968,
      "貿": 3969,
      "賀": 3970,
      "賃": 3971,
      "資": 3972,
      "賛": 3973,
      "賞": 3974,
      "賢": 3975,
      "質": 3976,
      "賴": 3977,
      "購": 3978,
      "贝": 3979,
      "贞": 3980,
      "负": 3981,
      "贡": 3982,
      "财": 3983,
      "责": 3984,
      "败": 3985,
      "账": 3986,
      "货": 3987,
      "质": 3988,
      "贪": 3989,
      "贫": 3990,
      "购": 3991,
      "贰": 3992,
      "贴": 3993,
      "贵": 3994,
      "贷": 3995,
      "贸": 3996,
      "费": 3997,
      "资": 3998,
      "赋": 3999,
      "赖": 4000,
      "赚": 4001,
      "赛": 4002,
      "赞": 4003,
      "赠": 4004,
      "赤": 4005,
      "走": 4006,
      "赴": 4007,
      "起": 4008,
      "超": 4009,
      "越": 4010,
      "趋": 4011,
      "趣": 4012,
      "趨": 4013,
      "足": 4014,
      "跃": 4015,
      "跋": 4016,
      "跌": 4017,
      "跑": 4018,
      "距": 4019,
      "跟": 4020,
      "跡": 4021,
      "跨": 4022,
      "路": 4023,
      "跳": 4024,
      "践": 4025,
      "踊": 4026,
      "踏": 4027,
      "踢": 4028,
      "踩": 4029,
      "踪": 4030,
      "身": 4031,
      "躺": 4032,
      "車": 4033,
      "軍": 4034,
      "軟": 4035,
      "転": 4036,
      "軸": 4037,
      "軽": 4038,
      "較": 4039,
      "載": 4040,
      "輔": 4041,
      "輩": 4042,
      "輪": 4043,
      "輸": 4044,
      "轉": 4045,
      "车": 4046,
      "转": 4047,
      "轮": 4048,
      "软": 4049,
      "轴": 4050,
      "轻": 4051,
      "载": 4052,
      "较": 4053,
      "辅": 4054,
      "辑": 4055,
      "输": 4056,
      "辛": 4057,
      "辞": 4058,
      "辨": 4059,
      "辩": 4060,
      "辰": 4061,
      "農": 4062,
      "边": 4063,
      "辺": 4064,
      "込": 4065,
      "达": 4066,
      "迁": 4067,
      "迂": 4068,
      "迅": 4069,
      "过": 4070,
      "迎": 4071,
      "运": 4072,
      "近": 4073,
      "返": 4074,
      "还": 4075,
      "这": 4076,
      "进": 4077,
      "远": 4078,
      "违": 4079,
      "连": 4080,
      "迟": 4081,
      "迦": 4082,
      "迫": 4083,
      "迭": 4084,
      "述": 4085,
      "迷": 4086,
      "追": 4087,
      "退": 4088,
      "送": 4089,
      "适": 4090,
      "逃": 4091,
      "逆": 4092,
      "选": 4093,
      "逊": 4094,
      "透": 4095,
      "逐": 4096,
      "递": 4097,
      "途": 4098,
      "逗": 4099,
      "這": 4100,
      "通": 4101,
      "逝": 4102,
      "速": 4103,
      "造": 4104,
      "連": 4105,
      "週": 4106,
      "進": 4107,
      "逸": 4108,
      "逻": 4109,
      "逼": 4110,
      "遇": 4111,
      "遊": 4112,
      "運": 4113,
      "遍": 4114,
      "過": 4115,
      "遐": 4116,
      "道": 4117,
      "達": 4118,
      "違": 4119,
      "遗": 4120,
      "遠": 4121,
      "適": 4122,
      "遭": 4123,
      "遮": 4124,
      "遵": 4125,
      "選": 4126,
      "遺": 4127,
      "避": 4128,
      "邀": 4129,
      "邊": 4130,
      "那": 4131,
      "邦": 4132,
      "邮": 4133,
      "邸": 4134,
      "邻": 4135,
      "郎": 4136,
      "郡": 4137,
      "部": 4138,
      "郵": 4139,
      "郷": 4140,
      "都": 4141,
      "酉": 4142,
      "酌": 4143,
      "配": 4144,
      "酒": 4145,
      "酷": 4146,
      "酸": 4147,
      "醒": 4148,
      "醯": 4149,
      "采": 4150,
      "释": 4151,
      "里": 4152,
      "重": 4153,
      "野": 4154,
      "量": 4155,
      "金": 4156,
      "釘": 4157,
      "針": 4158,
      "鈴": 4159,
      "鉄": 4160,
      "鉱": 4161,
      "鉴": 4162,
      "銀": 4163,
      "銅": 4164,
      "銭": 4165,
      "鋪": 4166,
      "鋼": 4167,
      "錄": 4168,
      "錆": 4169,
      "錢": 4170,
      "錯": 4171,
      "録": 4172,
      "鍵": 4173,
      "鏡": 4174,
      "针": 4175,
      "钉": 4176,
      "钞": 4177,
      "钟": 4178,
      "钢": 4179,
      "钥": 4180,
      "钮": 4181,
      "钱": 4182,
      "铁": 4183,
      "银": 4184,
      "链": 4185,
      "销": 4186,
      "锁": 4187,
      "锐": 4188,
      "错": 4189,
      "锚": 4190,
      "锡": 4191,
      "键": 4192,
      "镑": 4193,
      "镜": 4194,
      "長": 4195,
      "长": 4196,
      "門": 4197,
      "閉": 4198,
      "開": 4199,
      "間": 4200,
      "関": 4201,
      "閣": 4202,
      "閲": 4203,
      "闍": 4204,
      "關": 4205,
      "门": 4206,
      "闪": 4207,
      "闭": 4208,
      "问": 4209,
      "闯": 4210,
      "闲": 4211,
      "间": 4212,
      "闻": 4213,
      "阅": 4214,
      "阐": 4215,
      "队": 4216,
      "阪": 4217,
      "阱": 4218,
      "防": 4219,
      "阳": 4220,
      "阴": 4221,
      "阵": 4222,
      "阶": 4223,
      "阻": 4224,
      "阿": 4225,
      "陀": 4226,
      "附": 4227,
      "际": 4228,
      "陆": 4229,
      "陈": 4230,
      "陋": 4231,
      "陌": 4232,
      "降": 4233,
      "限": 4234,
      "陛": 4235,
      "院": 4236,
      "陣": 4237,
      "除": 4238,
      "险": 4239,
      "陰": 4240,
      "陵": 4241,
      "陷": 4242,
      "陸": 4243,
      "険": 4244,
      "陽": 4245,
      "隆": 4246,
      "隊": 4247,
      "階": 4248,
      "随": 4249,
      "隐": 4250,
      "隔": 4251,
      "隙": 4252,
      "際": 4253,
      "障": 4254,
      "隣": 4255,
      "隧": 4256,
      "隶": 4257,
      "隸": 4258,
      "隻": 4259,
      "难": 4260,
      "雀": 4261,
      "雅": 4262,
      "集": 4263,
      "雇": 4264,
      "雑": 4265,
      "雛": 4266,
      "雜": 4267,
      "離": 4268,
      "難": 4269,
      "雨": 4270,
      "雪": 4271,
      "雲": 4272,
      "零": 4273,
      "雷": 4274,
      "電": 4275,
      "雾": 4276,
      "需": 4277,
      "霍": 4278,
      "霧": 4279,
      "露": 4280,
      "霸": 4281,
      "青": 4282,
      "静": 4283,
      "非": 4284,
      "靠": 4285,
      "面": 4286,
      "革": 4287,
      "靴": 4288,
      "韓": 4289,
      "韩": 4290,
      "音": 4291,
      "頂": 4292,
      "頃": 4293,
      "項": 4294,
      "順": 4295,
      "須": 4296,
      "預": 4297,
      "領": 4298,
      "頡": 4299,
      "頭": 4300,
      "頻": 4301,
      "頼": 4302,
      "題": 4303,
      "額": 4304,
      "顔": 4305,
      "願": 4306,
      "顛": 4307,
      "類": 4308,
      "页": 4309,
      "顶": 4310,
      "项": 4311,
      "顺": 4312,
      "须": 4313,
      "顾": 4314,
      "顿": 4315,
      "预": 4316,
      "领": 4317,
      "颈": 4318,
      "颉": 4319,
      "频": 4320,
      "颖": 4321,
      "颗": 4322,
      "题": 4323,
      "颜": 4324,
      "额": 4325,
      "颠": 4326,
      "風": 4327,
      "风": 4328,
      "飛": 4329,
      "飞": 4330,
      "食": 4331,
      "飯": 4332,
      "飲": 4333,
      "飼": 4334,
      "養": 4335,
      "餐": 4336,
      "館": 4337,
      "饰": 4338,
      "饶": 4339,
      "饿": 4340,
      "馆": 4341,
      "馈": 4342,
      "首": 4343,
      "香": 4344,
      "馬": 4345,
      "駅": 4346,
      "駒": 4347,
      "駕": 4348,
      "験": 4349,
      "马": 4350,
      "驱": 4351,
      "驶": 4352,
      "驼": 4353,
      "驾": 4354,
      "骂": 4355,
      "验": 4356,
      "骑": 4357,
      "骗": 4358,
      "骤": 4359,
      "骨": 4360,
      "骰": 4361,
      "體": 4362,
      "高": 4363,
      "鬱": 4364,
      "魔": 4365,
      "魚": 4366,
      "鱼": 4367,
      "鲁": 4368,
      "鲜": 4369,
      "鳥": 4370,
      "鳴": 4371,
      "鸟": 4372,
      "鸡": 4373,
      "鸣": 4374,
      "鹿": 4375,
      "麗": 4376,
      "麦": 4377,
      "麻": 4378,
      "麼": 4379,
      "麽": 4380,
      "黄": 4381,
      "黎": 4382,
      "黑": 4383,
      "黒": 4384,
      "默": 4385,
      "黙": 4386,
      "鼓": 4387,
      "鼠": 4388,
      "鼻": 4389,
      "齐": 4390,
      "龄": 4391,
      "龍": 4392,
      "龙": 4393,
      "龜": 4394,
      "ꈍ": 4395,
      "꒳": 4396,
      "ꙮ": 4397,
      "ꜱ": 4398,
      "ꞁ": 4399,
      "꣖": 4400,
      "꤂": 4401,
      "꩗": 4402,
      "ꮰ": 4403,
      "﫴": 4404,
      "ﬁ": 4405,
      "ﬂ": 4406,
      "ﬄ": 4407,
      "ﱘ": 4408,
      "ﴃ": 4409,
      "ﷺ": 4410,
      "︙": 4411,
      "︱": 4412,
      "︲": 4413,
      "︵": 4414,
      "﹁": 4415,
      "﹄": 4416,
      "﹘": 4417,
      "﹣": 4418,
      "ﻌ": 4419,
      "！": 4420,
      "＂": 4421,
      "＃": 4422,
      "＆": 4423,
      "＇": 4424,
      "（": 4425,
      "）": 4426,
      "＋": 4427,
      "，": 4428,
      "－": 4429,
      "．": 4430,
      "／": 4431,
      "０": 4432,
      "１": 4433,
      "２": 4434,
      "３": 4435,
      "４": 4436,
      "６": 4437,
      "７": 4438,
      "：": 4439,
      "；": 4440,
      "＜": 4441,
      "＞": 4442,
      "？": 4443,
      "＠": 4444,
      "＼": 4445,
      "＾": 4446,
      "＿": 4447,
      "｀": 4448,
      "ａ": 4449,
      "ｂ": 4450,
      "ｃ": 4451,
      "ｄ": 4452,
      "ｅ": 4453,
      "ｆ": 4454,
      "ｇ": 4455,
      "ｈ": 4456,
      "ｉ": 4457,
      "ｌ": 4458,
      "ｍ": 4459,
      "ｎ": 4460,
      "ｏ": 4461,
      "ｐ": 4462,
      "ｒ": 4463,
      "ｓ": 4464,
      "ｔ": 4465,
      "ｕ": 4466,
      "ｖ": 4467,
      "ｗ": 4468,
      "ｙ": 4469,
      "｜": 4470,
      "～": 4471,
      "｡": 4472,
      "｢": 4473,
      "｣": 4474,
      "､": 4475,
      "･": 4476,
      "ｪ": 4477,
      "ｬ": 4478,
      "ｮ": 4479,
      "ｱ": 4480,
      "ｲ": 4481,
      "ｳ": 4482,
      "ｴ": 4483,
      "ｵ": 4484,
      "ｶ": 4485,
      "ｸ": 4486,
      "ｼ": 4487,
      "ﾀ": 4488,
      "ﾂ": 4489,
      "ﾃ": 4490,
      "ﾅ": 4491,
      "ﾉ": 4492,
      "ﾊ": 4493,
      "ﾌ": 4494,
      "ﾏ": 4495,
      "ﾔ": 4496,
      "ﾙ": 4497,
      "ﾝ": 4498,
      "ﾞ": 4499,
      "ﾟ": 4500,
      "￥": 4501,
      "￼": 4502,
      "𐁄": 4503,
      "𐄂": 4504,
      "𐺭": 4505,
      "𑃰": 4506,
      "𑃶": 4507,
      "𒀝": 4508,
      "𒀭": 4509,
      "𓁐": 4510,
      "𓋇": 4511,
      "𓏏": 4512,
      "𝆤": 4513,
      "𝈉": 4514,
      "𝌆": 4515,
      "𝍸": 4516,
      "𝐁": 4517,
      "𝐄": 4518,
      "𝐇": 4519,
      "𝐌": 4520,
      "𝐛": 4521,
      "𝐝": 4522,
      "𝐥": 4523,
      "𝐨": 4524,
      "𝐴": 4525,
      "𝐵": 4526,
      "𝐶": 4527,
      "𝐷": 4528,
      "𝐼": 4529,
      "𝑀": 4530,
      "𝑁": 4531,
      "𝑉": 4532,
      "𝑋": 4533,
      "𝑎": 4534,
      "𝑐": 4535,
      "𝑒": 4536,
      "𝑖": 4537,
      "𝑙": 4538,
      "𝑚": 4539,
      "𝑛": 4540,
      "𝑝": 4541,
      "𝑟": 4542,
      "𝑡": 4543,
      "𝑥": 4544,
      "𝑩": 4545,
      "𝑰": 4546,
      "𝒂": 4547,
      "𝒃": 4548,
      "𝒄": 4549,
      "𝒅": 4550,
      "𝒊": 4551,
      "𝒍": 4552,
      "𝒐": 4553,
      "𝒕": 4554,
      "𝒸": 4555,
      "𝒾": 4556,
      "𝓅": 4557,
      "𝓇": 4558,
      "𝓈": 4559,
      "𝓉": 4560,
      "𝓝": 4561,
      "𝓣": 4562,
      "𝓫": 4563,
      "𝓬": 4564,
      "𝓭": 4565,
      "𝓮": 4566,
      "𝓲": 4567,
      "𝓳": 4568,
      "𝓵": 4569,
      "𝓷": 4570,
      "𝓸": 4571,
      "𝓹": 4572,
      "𝓻": 4573,
      "𝓼": 4574,
      "𝓽": 4575,
      "𝔂": 4576,
      "𝔞": 4577,
      "𝔟": 4578,
      "𝔢": 4579,
      "𝔣": 4580,
      "𝔨": 4581,
      "𝔩": 4582,
      "𝔪": 4583,
      "𝔬": 4584,
      "𝔭": 4585,
      "𝔯": 4586,
      "𝔰": 4587,
      "𝔱": 4588,
      "𝔲": 4589,
      "𝔵": 4590,
      "𝔶": 4591,
      "𝔻": 4592,
      "𝔼": 4593,
      "𝔽": 4594,
      "𝔾": 4595,
      "𝕃": 4596,
      "𝕆": 4597,
      "𝕊": 4598,
      "𝕌": 4599,
      "𝕏": 4600,
      "𝕓": 4601,
      "𝕔": 4602,
      "𝕕": 4603,
      "𝕖": 4604,
      "𝕜": 4605,
      "𝕝": 4606,
      "𝕠": 4607,
      "𝕡": 4608,
      "𝕣": 4609,
      "𝕤": 4610,
      "𝕥": 4611,
      "𝕦": 4612,
      "𝖆": 4613,
      "𝖇": 4614,
      "𝖉": 4615,
      "𝖋": 4616,
      "𝖐": 4617,
      "𝖑": 4618,
      "𝖔": 4619,
      "𝖗": 4620,
      "𝖙": 4621,
      "𝖚": 4622,
      "𝖺": 4623,
      "𝖾": 4624,
      "𝖿": 4625,
      "𝗂": 4626,
      "𝗇": 4627,
      "𝗋": 4628,
      "𝗌": 4629,
      "𝗮": 4630,
      "𝗯": 4631,
      "𝗱": 4632,
      "𝗲": 4633,
      "𝗳": 4634,
      "𝗶": 4635,
      "𝗹": 4636,
      "𝗻": 4637,
      "𝗼": 4638,
      "𝗿": 4639,
      "𝘀": 4640,
      "𝘢": 4641,
      "𝘤": 4642,
      "𝘦": 4643,
      "𝘧": 4644,
      "𝘪": 4645,
      "𝘭": 4646,
      "𝘯": 4647,
      "𝘳": 4648,
      "𝘴": 4649,
      "𝘵": 4650,
      "𝙖": 4651,
      "𝙗": 4652,
      "𝙘": 4653,
      "𝙙": 4654,
      "𝙚": 4655,
      "𝙛": 4656,
      "𝙞": 4657,
      "𝙠": 4658,
      "𝙡": 4659,
      "𝙢": 4660,
      "𝙣": 4661,
      "𝙤": 4662,
      "𝙦": 4663,
      "𝙧": 4664,
      "𝙨": 4665,
      "𝙩": 4666,
      "𝙪": 4667,
      "𝙮": 4668,
      "𝚊": 4669,
      "𝚌": 4670,
      "𝚎": 4671,
      "𝚖": 4672,
      "𝚗": 4673,
      "𝚘": 4674,
      "𝚙": 4675,
      "𝚜": 4676,
      "𝛆": 4677,
      "𝛼": 4678,
      "𝛿": 4679,
      "𝜋": 4680,
      "𝜑": 4681,
      "𝝗": 4682,
      "𝝨": 4683,
      "𝝰": 4684,
      "𝝳": 4685,
      "𝝴": 4686,
      "𝝸": 4687,
      "𝝺": 4688,
      "𝝼": 4689,
      "𝝾": 4690,
      "𝞀": 4691,
      "𝞂": 4692,
      "𝞅": 4693,
      "𝟘": 4694,
      "𝟙": 4695,
      "𝟚": 4696,
      "𝟛": 4697,
      "𝟽": 4698,
      "🀽": 4699,
      "🁫": 4700,
      "🃞": 4701,
      "🃪": 4702,
      "🅐": 4703,
      "🅑": 4704,
      "🅒": 4705,
      "🅰": 4706,
      "🅱": 4707,
      "🅿": 4708,
      "🆎": 4709,
      "🆒": 4710,
      "🆕": 4711,
      "🆗": 4712,
      "🆙": 4713,
      "🇦": 4714,
      "🇧": 4715,
      "🇨": 4716,
      "🇩": 4717,
      "🇪": 4718,
      "🇫": 4719,
      "🇬": 4720,
      "🇭": 4721,
      "🇮": 4722,
      "🇯": 4723,
      "🇰": 4724,
      "🇱": 4725,
      "🇲": 4726,
      "🇳": 4727,
      "🇵": 4728,
      "🇶": 4729,
      "🇷": 4730,
      "🇸": 4731,
      "🇹": 4732,
      "🇺": 4733,
      "🇻": 4734,
      "🇼": 4735,
      "🇿": 4736,
      "🌀": 4737,
      "🌂": 4738,
      "🌅": 4739,
      "🌆": 4740,
      "🌇": 4741,
      "🌈": 4742,
      "🌊": 4743,
      "🌋": 4744,
      "🌌": 4745,
      "🌍": 4746,
      "🌎": 4747,
      "🌏": 4748,
      "🌐": 4749,
      "🌑": 4750,
      "🌕": 4751,
      "🌖": 4752,
      "🌗": 4753,
      "🌘": 4754,
      "🌙": 4755,
      "🌚": 4756,
      "🌞": 4757,
      "🌟": 4758,
      "🌠": 4759,
      "🌡": 4760,
      "🌤": 4761,
      "🌧": 4762,
      "🌫": 4763,
      "🌭": 4764,
      "🌱": 4765,
      "🌲": 4766,
      "🌳": 4767,
      "🌴": 4768,
      "🌵": 4769,
      "🌶": 4770,
      "🌸": 4771,
      "🌹": 4772,
      "🌻": 4773,
      "🌼": 4774,
      "🌽": 4775,
      "🌾": 4776,
      "🌿": 4777,
      "🍀": 4778,
      "🍁": 4779,
      "🍃": 4780,
      "🍄": 4781,
      "🍅": 4782,
      "🍆": 4783,
      "🍇": 4784,
      "🍊": 4785,
      "🍍": 4786,
      "🍎": 4787,
      "🍏": 4788,
      "🍑": 4789,
      "🍒": 4790,
      "🍓": 4791,
      "🍕": 4792,
      "🍗": 4793,
      "🍜": 4794,
      "🍞": 4795,
      "🍟": 4796,
      "🍣": 4797,
      "🍤": 4798,
      "🍩": 4799,
      "🍪": 4800,
      "🍫": 4801,
      "🍬": 4802,
      "🍭": 4803,
      "🍯": 4804,
      "🍱": 4805,
      "🍲": 4806,
      "🍳": 4807,
      "🍴": 4808,
      "🍵": 4809,
      "🍷": 4810,
      "🍺": 4811,
      "🍻": 4812,
      "🍼": 4813,
      "🍿": 4814,
      "🎀": 4815,
      "🎁": 4816,
      "🎂": 4817,
      "🎃": 4818,
      "🎄": 4819,
      "🎆": 4820,
      "🎇": 4821,
      "🎈": 4822,
      "🎉": 4823,
      "🎊": 4824,
      "🎓": 4825,
      "🎙": 4826,
      "🎚": 4827,
      "🎛": 4828,
      "🎞": 4829,
      "🎡": 4830,
      "🎢": 4831,
      "🎤": 4832,
      "🎥": 4833,
      "🎨": 4834,
      "🎩": 4835,
      "🎪": 4836,
      "🎫": 4837,
      "🎬": 4838,
      "🎭": 4839,
      "🎮": 4840,
      "🎯": 4841,
      "🎱": 4842,
      "🎲": 4843,
      "🎳": 4844,
      "🎴": 4845,
      "🎵": 4846,
      "🎶": 4847,
      "🎷": 4848,
      "🎸": 4849,
      "🎹": 4850,
      "🎺": 4851,
      "🎻": 4852,
      "🎼": 4853,
      "🏀": 4854,
      "🏁": 4855,
      "🏃": 4856,
      "🏄": 4857,
      "🏆": 4858,
      "🏇": 4859,
      "🏋": 4860,
      "🏍": 4861,
      "🏎": 4862,
      "🏏": 4863,
      "🏓": 4864,
      "🏔": 4865,
      "🏕": 4866,
      "🏖": 4867,
      "🏗": 4868,
      "🏘": 4869,
      "🏛": 4870,
      "🏝": 4871,
      "🏞": 4872,
      "🏟": 4873,
      "🏠": 4874,
      "🏣": 4875,
      "🏥": 4876,
      "🏦": 4877,
      "🏨": 4878,
      "🏪": 4879,
      "🏫": 4880,
      "🏭": 4881,
      "🏰": 4882,
      "🏳": 4883,
      "🏴": 4884,
      "🏷": 4885,
      "🏹": 4886,
      "🏻": 4887,
      "🏼": 4888,
      "🏽": 4889,
      "🏾": 4890,
      "🏿": 4891,
      "🐀": 4892,
      "🐄": 4893,
      "🐅": 4894,
      "🐆": 4895,
      "🐇": 4896,
      "🐈": 4897,
      "🐉": 4898,
      "🐊": 4899,
      "🐋": 4900,
      "🐌": 4901,
      "🐍": 4902,
      "🐎": 4903,
      "🐏": 4904,
      "🐑": 4905,
      "🐓": 4906,
      "🐔": 4907,
      "🐕": 4908,
      "🐗": 4909,
      "🐘": 4910,
      "🐙": 4911,
      "🐚": 4912,
      "🐛": 4913,
      "🐜": 4914,
      "🐝": 4915,
      "🐟": 4916,
      "🐠": 4917,
      "🐡": 4918,
      "🐢": 4919,
      "🐣": 4920,
      "🐤": 4921,
      "🐥": 4922,
      "🐦": 4923,
      "🐧": 4924,
      "🐨": 4925,
      "🐩": 4926,
      "🐪": 4927,
      "🐫": 4928,
      "🐬": 4929,
      "🐮": 4930,
      "🐰": 4931,
      "🐱": 4932,
      "🐲": 4933,
      "🐳": 4934,
      "🐴": 4935,
      "🐵": 4936,
      "🐶": 4937,
      "🐺": 4938,
      "🐻": 4939,
      "🐼": 4940,
      "🐾": 4941,
      "🐿": 4942,
      "👀": 4943,
      "👁": 4944,
      "👂": 4945,
      "👃": 4946,
      "👄": 4947,
      "👆": 4948,
      "👇": 4949,
      "👈": 4950,
      "👉": 4951,
      "👊": 4952,
      "👋": 4953,
      "👌": 4954,
      "👍": 4955,
      "👎": 4956,
      "👏": 4957,
      "👐": 4958,
      "👑": 4959,
      "👔": 4960,
      "👜": 4961,
      "👣": 4962,
      "👤": 4963,
      "👥": 4964,
      "👦": 4965,
      "👧": 4966,
      "👨": 4967,
      "👩": 4968,
      "👪": 4969,
      "👫": 4970,
      "👭": 4971,
      "👮": 4972,
      "👯": 4973,
      "👲": 4974,
      "👷": 4975,
      "👻": 4976,
      "👽": 4977,
      "👾": 4978,
      "💀": 4979,
      "💁": 4980,
      "💃": 4981,
      "💄": 4982,
      "💅": 4983,
      "💉": 4984,
      "💊": 4985,
      "💋": 4986,
      "💌": 4987,
      "💍": 4988,
      "💎": 4989,
      "💐": 4990,
      "💓": 4991,
      "💔": 4992,
      "💕": 4993,
      "💖": 4994,
      "💗": 4995,
      "💘": 4996,
      "💙": 4997,
      "💚": 4998,
      "💛": 4999,
      "💜": 5000,
      "💝": 5001,
      "💟": 5002,
      "💠": 5003,
      "💡": 5004,
      "💢": 5005,
      "💣": 5006,
      "💤": 5007,
      "💥": 5008,
      "💦": 5009,
      "💧": 5010,
      "💨": 5011,
      "💩": 5012,
      "💪": 5013,
      "💫": 5014,
      "💬": 5015,
      "💭": 5016,
      "💯": 5017,
      "💱": 5018,
      "💲": 5019,
      "💳": 5020,
      "💴": 5021,
      "💵": 5022,
      "💶": 5023,
      "💷": 5024,
      "💸": 5025,
      "💹": 5026,
      "💻": 5027,
      "💼": 5028,
      "💽": 5029,
      "💾": 5030,
      "💿": 5031,
      "📀": 5032,
      "📁": 5033,
      "📂": 5034,
      "📃": 5035,
      "📄": 5036,
      "📅": 5037,
      "📆": 5038,
      "📇": 5039,
      "📈": 5040,
      "📊": 5041,
      "📋": 5042,
      "📌": 5043,
      "📍": 5044,
      "📎": 5045,
      "📏": 5046,
      "📐": 5047,
      "📑": 5048,
      "📒": 5049,
      "📓": 5050,
      "📔": 5051,
      "📕": 5052,
      "📖": 5053,
      "📗": 5054,
      "📘": 5055,
      "📙": 5056,
      "📚": 5057,
      "📜": 5058,
      "📝": 5059,
      "📟": 5060,
      "📠": 5061,
      "📡": 5062,
      "📢": 5063,
      "📣": 5064,
      "📤": 5065,
      "📥": 5066,
      "📦": 5067,
      "📧": 5068,
      "📨": 5069,
      "📩": 5070,
      "📫": 5071,
      "📭": 5072,
      "📰": 5073,
      "📱": 5074,
      "📲": 5075,
      "📶": 5076,
      "📷": 5077,
      "📸": 5078,
      "📹": 5079,
      "📺": 5080,
      "🔀": 5081,
      "🔁": 5082,
      "🔂": 5083,
      "🔃": 5084,
      "🔄": 5085,
      "🔆": 5086,
      "🔈": 5087,
      "🔊": 5088,
      "🔋": 5089,
      "🔌": 5090,
      "🔍": 5091,
      "🔎": 5092,
      "🔏": 5093,
      "🔐": 5094,
      "🔑": 5095,
      "🔒": 5096,
      "🔓": 5097,
      "🔔": 5098,
      "🔖": 5099,
      "🔗": 5100,
      "🔘": 5101,
      "🔜": 5102,
      "🔠": 5103,
      "🔢": 5104,
      "🔣": 5105,
      "🔤": 5106,
      "🔥": 5107,
      "🔦": 5108,
      "🔧": 5109,
      "🔨": 5110,
      "🔩": 5111,
      "🔪": 5112,
      "🔫": 5113,
      "🔬": 5114,
      "🔭": 5115,
      "🔮": 5116,
      "🔰": 5117,
      "🔱": 5118,
      "🔲": 5119,
      "🔳": 5120,
      "🔴": 5121,
      "🔵": 5122,
      "🔶": 5123,
      "🔸": 5124,
      "🔹": 5125,
      "🔺": 5126,
      "🔼": 5127,
      "🔽": 5128,
      "🕊": 5129,
      "🕐": 5130,
      "🕑": 5131,
      "🕒": 5132,
      "🕘": 5133,
      "🕙": 5134,
      "🕛": 5135,
      "🕜": 5136,
      "🕝": 5137,
      "🕥": 5138,
      "🕧": 5139,
      "🕮": 5140,
      "🕯": 5141,
      "🕴": 5142,
      "🕵": 5143,
      "🕶": 5144,
      "🕷": 5145,
      "🕸": 5146,
      "🕹": 5147,
      "🕺": 5148,
      "🖋": 5149,
      "🖌": 5150,
      "🖖": 5151,
      "🖤": 5152,
      "🖥": 5153,
      "🖨": 5154,
      "🖱": 5155,
      "🖼": 5156,
      "🗂": 5157,
      "🗃": 5158,
      "🗄": 5159,
      "🗎": 5160,
      "🗑": 5161,
      "🗒": 5162,
      "🗓": 5163,
      "🗙": 5164,
      "🗜": 5165,
      "🗝": 5166,
      "🗠": 5167,
      "🗡": 5168,
      "🗣": 5169,
      "🗨": 5170,
      "🗩": 5171,
      "🗲": 5172,
      "🗸": 5173,
      "🗺": 5174,
      "🗼": 5175,
      "🗽": 5176,
      "😀": 5177,
      "😁": 5178,
      "😂": 5179,
      "😃": 5180,
      "😄": 5181,
      "😅": 5182,
      "😆": 5183,
      "😇": 5184,
      "😈": 5185,
      "😉": 5186,
      "😊": 5187,
      "😋": 5188,
      "😌": 5189,
      "😍": 5190,
      "😎": 5191,
      "😏": 5192,
      "😐": 5193,
      "😒": 5194,
      "😓": 5195,
      "😔": 5196,
      "😕": 5197,
      "😖": 5198,
      "😗": 5199,
      "😘": 5200,
      "😚": 5201,
      "😛": 5202,
      "😜": 5203,
      "😝": 5204,
      "😞": 5205,
      "😡": 5206,
      "😢": 5207,
      "😥": 5208,
      "😧": 5209,
      "😨": 5210,
      "😩": 5211,
      "😫": 5212,
      "😬": 5213,
      "😭": 5214,
      "😮": 5215,
      "😯": 5216,
      "😱": 5217,
      "😲": 5218,
      "😳": 5219,
      "😴": 5220,
      "😵": 5221,
      "😶": 5222,
      "😺": 5223,
      "😻": 5224,
      "😼": 5225,
      "🙁": 5226,
      "🙂": 5227,
      "🙃": 5228,
      "🙄": 5229,
      "🙆": 5230,
      "🙇": 5231,
      "🙈": 5232,
      "🙉": 5233,
      "🙋": 5234,
      "🙌": 5235,
      "🙏": 5236,
      "🚀": 5237,
      "🚁": 5238,
      "🚂": 5239,
      "🚄": 5240,
      "🚇": 5241,
      "🚉": 5242,
      "🚋": 5243,
      "🚍": 5244,
      "🚑": 5245,
      "🚕": 5246,
      "🚗": 5247,
      "🚚": 5248,
      "🚡": 5249,
      "🚢": 5250,
      "🚣": 5251,
      "🚥": 5252,
      "🚦": 5253,
      "🚧": 5254,
      "🚨": 5255,
      "🚩": 5256,
      "🚪": 5257,
      "🚫": 5258,
      "🚲": 5259,
      "🚴": 5260,
      "🚶": 5261,
      "🚸": 5262,
      "🚽": 5263,
      "🛈": 5264,
      "🛌": 5265,
      "🛎": 5266,
      "🛑": 5267,
      "🛠": 5268,
      "🛡": 5269,
      "🛢": 5270,
      "🛤": 5271,
      "🛩": 5272,
      "🛫": 5273,
      "🛬": 5274,
      "🛰": 5275,
      "🛳": 5276,
      "🛸": 5277,
      "🛹": 5278,
      "🞂": 5279,
      "🞅": 5280,
      "🞈": 5281,
      "🟊": 5282,
      "🟠": 5283,
      "🟡": 5284,
      "🟢": 5285,
      "🟣": 5286,
      "🟥": 5287,
      "🟦": 5288,
      "🟧": 5289,
      "🟨": 5290,
      "🟩": 5291,
      "🟪": 5292,
      "🟫": 5293,
      "🠕": 5294,
      "🠗": 5295,
      "🢅": 5296,
      "🢒": 5297,
      "🤌": 5298,
      "🤏": 5299,
      "🤐": 5300,
      "🤑": 5301,
      "🤓": 5302,
      "🤔": 5303,
      "🤖": 5304,
      "🤗": 5305,
      "🤘": 5306,
      "🤙": 5307,
      "🤚": 5308,
      "🤛": 5309,
      "🤜": 5310,
      "🤝": 5311,
      "🤞": 5312,
      "🤟": 5313,
      "🤠": 5314,
      "🤢": 5315,
      "🤣": 5316,
      "🤤": 5317,
      "🤦": 5318,
      "🤨": 5319,
      "🤩": 5320,
      "🤪": 5321,
      "🤫": 5322,
      "🤬": 5323,
      "🤭": 5324,
      "🤯": 5325,
      "🤲": 5326,
      "🤳": 5327,
      "🤷": 5328,
      "🤸": 5329,
      "🤹": 5330,
      "🤿": 5331,
      "🥁": 5332,
      "🥂": 5333,
      "🥇": 5334,
      "🥐": 5335,
      "🥒": 5336,
      "🥓": 5337,
      "🥖": 5338,
      "🥗": 5339,
      "🥘": 5340,
      "🥚": 5341,
      "🥞": 5342,
      "🥠": 5343,
      "🥣": 5344,
      "🥧": 5345,
      "🥩": 5346,
      "🥪": 5347,
      "🥬": 5348,
      "🥯": 5349,
      "🥲": 5350,
      "🥳": 5351,
      "🥷": 5352,
      "🥸": 5353,
      "🥺": 5354,
      "🥼": 5355,
      "🥽": 5356,
      "🦀": 5357,
      "🦃": 5358,
      "🦄": 5359,
      "🦅": 5360,
      "🦆": 5361,
      "🦈": 5362,
      "🦉": 5363,
      "🦊": 5364,
      "🦋": 5365,
      "🦌": 5366,
      "🦎": 5367,
      "🦐": 5368,
      "🦑": 5369,
      "🦔": 5370,
      "🦕": 5371,
      "🦖": 5372,
      "🦘": 5373,
      "🦙": 5374,
      "🦚": 5375,
      "🦜": 5376,
      "🦝": 5377,
      "🦞": 5378,
      "🦢": 5379,
      "🦤": 5380,
      "🦥": 5381,
      "🦦": 5382,
      "🦫": 5383,
      "🦮": 5384,
      "🦯": 5385,
      "🦲": 5386,
      "🦸": 5387,
      "🦺": 5388,
      "🦾": 5389,
      "🧀": 5390,
      "🧂": 5391,
      "🧃": 5392,
      "🧅": 5393,
      "🧊": 5394,
      "🧋": 5395,
      "🧍": 5396,
      "🧐": 5397,
      "🧑": 5398,
      "🧔": 5399,
      "🧙": 5400,
      "🧛": 5401,
      "🧞": 5402,
      "🧟": 5403,
      "🧠": 5404,
      "🧡": 5405,
      "🧢": 5406,
      "🧣": 5407,
      "🧦": 5408,
      "🧨": 5409,
      "🧩": 5410,
      "🧪": 5411,
      "🧬": 5412,
      "🧭": 5413,
      "🧮": 5414,
      "🧰": 5415,
      "🧱": 5416,
      "🧲": 5417,
      "🧵": 5418,
      "🧶": 5419,
      "🧷": 5420,
      "🧸": 5421,
      "🧹": 5422,
      "🧼": 5423,
      "🧾": 5424,
      "🩳": 5425,
      "🩸": 5426,
      "🩹": 5427,
      "🩺": 5428,
      "🪀": 5429,
      "🪂": 5430,
      "🪃": 5431,
      "🪄": 5432,
      "🪆": 5433,
      "🪐": 5434,
      "🪓": 5435,
      "🪙": 5436,
      "🪛": 5437,
      "🪜": 5438,
      "🪟": 5439,
      "🪦": 5440,
      "🪧": 5441,
      "🪪": 5442,
      "🪲": 5443,
      "🪳": 5444,
      "🪶": 5445,
      "🪸": 5446,
      "🫀": 5447,
      "🫂": 5448,
      "🫡": 5449,
      "##l": 5450,
      "##e": 5451,
      "##r": 5452,
      "##i": 5453,
      "##n": 5454,
      "##g": 5455,
      "##b": 5456,
      "##ま": 5457,
      "##く": 5458,
      "##ロ": 5459,
      "##ク": 5460,
      "##を": 5461,
      "##o": 5462,
      "##d": 5463,
      "##f": 5464,
      "##s": 5465,
      "##t": 5466,
      "##a": 5467,
      "##c": 5468,
      "##y": 5469,
      "##k": 5470,
      "##h": 5471,
      "##v": 5472,
      "##u": 5473,
      "##w": 5474,
      "##1": 5475,
      "##m": 5476,
      "##p": 5477,
      "##x": 5478,
      "##ァ": 5479,
      "##イ": 5480,
      "##ル": 5481,
      "##な": 5482,
      "##と": 5483,
      "##0": 5484,
      "##4": 5485,
      "##7": 5486,
      "##6": 5487,
      "##3": 5488,
      "##9": 5489,
      "##8": 5490,
      "##2": 5491,
      "##5": 5492,
      "##j": 5493,
      "##z": 5494,
      "##ว": 5495,
      "##ส": 5496,
      "##ด": 5497,
      "##ค": 5498,
      "##ร": 5499,
      "##บ": 5500,
      "##µ": 5501,
      "##q": 5502,
      "##き": 5503,
      "##い": 5504,
      "##て": 5505,
      "##は": 5506,
      "##×": 5507,
      "##ч": 5508,
      "##а": 5509,
      "##с": 5510,
      "##т": 5511,
      "##и": 5512,
      "##е": 5513,
      "##р": 5514,
      "##м": 5515,
      "##ю": 5516,
      "##⣿": 5517,
      "##⡇": 5518,
      "##🔑": 5519,
      "##ᅡ": 5520,
      "##ᆫ": 5521,
      "##ᄉ": 5522,
      "##ᅮ": 5523,
      "##л": 5524,
      "##ц": 5525,
      "##ы": 5526,
      "##→": 5527,
      "##х": 5528,
      "##о": 5529,
      "##д": 5530,
      "##я": 5531,
      "##щ": 5532,
      "##🍕": 5533,
      "##⣞": 5534,
      "##⢽": 5535,
      "##⢪": 5536,
      "##⢣": 5537,
      "##⢫": 5538,
      "##⡺": 5539,
      "##⡵": 5540,
      "##⣝": 5541,
      "##⡮": 5542,
      "##⣗": 5543,
      "##⢷": 5544,
      "##⣮": 5545,
      "##⡷": 5546,
      "##⡽": 5547,
      "##⣜": 5548,
      "##⢮": 5549,
      "##⢺": 5550,
      "##⢝": 5551,
      "##せ": 5552,
      "##る": 5553,
      "##た": 5554,
      "##め": 5555,
      "##の": 5556,
      "##н": 5557,
      "##б": 5558,
      "##フ": 5559,
      "##ラ": 5560,
      "##в": 5561,
      "##⠀": 5562,
      "##⣠": 5563,
      "##⣾": 5564,
      "##⣦": 5565,
      "##⡀": 5566,
      "##к": 5567,
      "##ム": 5568,
      "##に": 5569,
      "##よ": 5570,
      "##っ": 5571,
      "##ж": 5572,
      "##ス": 5573,
      "##コ": 5574,
      "##ウ": 5575,
      "##あ": 5576,
      "##お": 5577,
      "##ア": 5578,
      "##ᆯ": 5579,
      "##ᄋ": 5580,
      "##ᅵ": 5581,
      "##ᅣ": 5582,
      "##─": 5583,
      "##┐": 5584,
      "##╔": 5585,
      "##サ": 5586,
      "##ヘ": 5587,
      "##ー": 5588,
      "##シ": 5589,
      "##か": 5590,
      "##┬": 5591,
      "##│": 5592,
      "##з": 5593,
      "##²": 5594,
      "##ф": 5595,
      "##ш": 5596,
      "##ь": 5597,
      "##ω": 5598,
      "##ρ": 5599,
      "##ο": 5600,
      "##☝": 5601,
      "##█": 5602,
      "##┼": 5603,
      "##┤": 5604,
      "##こ": 5605,
      "##═": 5606,
      "##╩": 5607,
      "##╣": 5608,
      "##ｅ": 5609,
      "##ｓ": 5610,
      "##ｔ": 5611,
      "##ｈ": 5612,
      "##ｉ": 5613,
      "##ｃ": 5614,
      "##れ": 5615,
      "##カ": 5616,
      "##ン": 5617,
      "##ト": 5618,
      "##さ": 5619,
      "##╬": 5620,
      "##ᅥ": 5621,
      "##ᄇ": 5622,
      "##つ": 5623,
      "##ａ": 5624,
      "##ｒ": 5625,
      "##リ": 5626,
      "##す": 5627,
      "##╯": 5628,
      "##░": 5629,
      "##▒": 5630,
      "##🐾": 5631,
      "##╮": 5632,
      "##λ": 5633,
      "##║": 5634,
      "##╗": 5635,
      "##₂": 5636,
      "##ᅧ": 5637,
      "##ᄅ": 5638,
      "##у": 5639,
      "##¢": 5640,
      "##ｏ": 5641,
      "##ｌ": 5642,
      "##🇻": 5643,
      "##ょ": 5644,
      "##う": 5645,
      "##ん": 5646,
      "##ね": 5647,
      "##テ": 5648,
      "##™": 5649,
      "##⣀": 5650,
      "##⠤": 5651,
      "##⠖": 5652,
      "##⠷": 5653,
      "##り": 5654,
      "##⠉": 5655,
      "##⢹": 5656,
      "##┴": 5657,
      "##г": 5658,
      "##ᄌ": 5659,
      "##も": 5660,
      "##╝": 5661,
      "##¹": 5662,
      "##ケ": 5663,
      "##┘": 5664,
      "##ᅭ": 5665,
      "##ᆼ": 5666,
      "##ᄒ": 5667,
      "##ᄀ": 5668,
      "##ᅩ": 5669,
      "##タ": 5670,
      "##ᄃ": 5671,
      "##レ": 5672,
      "##ヒ": 5673,
      "##า": 5674,
      "##ษ": 5675,
      "##ไ": 5676,
      "##ท": 5677,
      "##ย": 5678,
      "##ง": 5679,
      "##น": 5680,
      "##เ": 5681,
      "##み": 5682,
      "##ィ": 5683,
      "##п": 5684,
      "##▀": 5685,
      "##ホ": 5686,
      "##ハ": 5687,
      "##і": 5688,
      "##ユ": 5689,
      "##し": 5690,
      "##♭": 5691,
      "##ˈ": 5692,
      "##ᆸ": 5693,
      "##ᅢ": 5694,
      "##ำ": 5695,
      "##ภ": 5696,
      "##ใ": 5697,
      "##ช": 5698,
      "##พ": 5699,
      "##อ": 5700,
      "##ะ": 5701,
      "##ก": 5702,
      "##ม": 5703,
      "##ฤ": 5704,
      "##ネ": 5705,
      "##ッ": 5706,
      "##ノ": 5707,
      "##ォ": 5708,
      "##マ": 5709,
      "##┌": 5710,
      "##ら": 5711,
      "##ȝ": 5712,
      "##╦": 5713,
      "##ː": 5714,
      "##🇹": 5715,
      "##😱": 5716,
      "##ｎ": 5717,
      "##ち": 5718,
      "##け": 5719,
      "##キ": 5720,
      "##ャ": 5721,
      "##ュ": 5722,
      "##ᅪ": 5723,
      "##●": 5724,
      "##⣆": 5725,
      "##₀": 5726,
      "##ﾉ": 5727,
      "##🌹": 5728,
      "##ß": 5729,
      "##ｗ": 5730,
      "##°": 5731,
      "##🔴": 5732,
      "##♣": 5733,
      "##💪": 5734,
      "##ᄆ": 5735,
      "##æ": 5736,
      "##₄": 5737,
      "##ソ": 5738,
      "##₁": 5739,
      "##ᄂ": 5740,
      "##ᅳ": 5741,
      "##±": 5742,
      "##ѵ": 5743,
      "##🌠": 5744,
      "##ᆹ": 5745,
      "##⣈": 5746,
      "##⠁": 5747,
      "##ᄎ": 5748,
      "##¬": 5749,
      "##½": 5750,
      "##¼": 5751,
      "##ᆨ": 5752,
      "##ふ": 5753,
      "##わ": 5754,
      "##へ": 5755,
      "##ᄏ": 5756,
      "##↓": 5757,
      "##ε": 5758,
      "##🏫": 5759,
      "##╢": 5760,
      "##⠼": 5761,
      "##⠛": 5762,
      "##や": 5763,
      "##®": 5764,
      "##▄": 5765,
      "##🏎": 5766,
      "##₅": 5767,
      "##ᆷ": 5768,
      "##⡆": 5769,
      "##⡄": 5770,
      "##⣴": 5771,
      "##⣄": 5772,
      "##⡜": 5773,
      "##⠂": 5774,
      "##ₓ": 5775,
      "##ひ": 5776,
      "##𝔯": 5777,
      "##𝔞": 5778,
      "##𝔨": 5779,
      "##𝔱": 5780,
      "##𝔲": 5781,
      "##⃣": 5782,
      "##🟥": 5783,
      "##⁄": 5784,
      "##ᅦ": 5785,
      "##ᄑ": 5786,
      "##ナ": 5787,
      "##▎": 5788,
      "##ᅨ": 5789,
      "##ミ": 5790,
      "##👨": 5791,
      "##👧": 5792,
      "##👦": 5793,
      "##🌶": 5794,
      "##⬛": 5795,
      "##🟩": 5796,
      "##🟨": 5797,
      "##ᄐ": 5798,
      "##▖": 5799,
      "##▌": 5800,
      "##ᛅ": 5801,
      "##ᛒ": 5802,
      "##ᛋ": 5803,
      "##ᛏ": 5804,
      "##ᚦ": 5805,
      "##ᛁ": 5806,
      "##ᚠ": 5807,
      "##ᚴ": 5808,
      "##ᚼ": 5809,
      "##ᛚ": 5810,
      "##ᛘ": 5811,
      "##ᚾ": 5812,
      "##ᚢ": 5813,
      "##ᚱ": 5814,
      "##ˆ": 5815,
      "##⁻": 5816,
      "##σ": 5817,
      "##ø": 5818,
      "##⠒": 5819,
      "##⠴": 5820,
      "##⠲": 5821,
      "##⠶": 5822,
      "##⡤": 5823,
      "##⠟": 5824,
      "##⠿": 5825,
      "##⠧": 5826,
      "##⠋": 5827,
      "##⠓": 5828,
      "##ᅬ": 5829,
      "##ᆻ": 5830,
      "##▓": 5831,
      "##ℏ": 5832,
      "##ъ": 5833,
      "##メ": 5834,
      "##セ": 5835,
      "##╰": 5836,
      "##♂": 5837,
      "##ɪ": 5838,
      "##╤": 5839,
      "##チ": 5840,
      "##´": 5841,
      "##£": 5842,
      "##💤": 5843,
      "##μ": 5844,
      "##🚨": 5845,
      "##π": 5846,
      "##τ": 5847,
      "##ι": 5848,
      "##ν": 5849,
      "##⣭": 5850,
      "##⣅": 5851,
      "##ₙ": 5852,
      "##þ": 5853,
      "##³": 5854,
      "##⋅": 5855,
      "##⣖": 5856,
      "##⣷": 5857,
      "##ₗ": 5858,
      "##ₑ": 5859,
      "##꣖": 5860,
      "##ョ": 5861,
      "##┈": 5862,
      "##⚠": 5863,
      "##ᛞ": 5864,
      "##ᛖ": 5865,
      "##ᅴ": 5866,
      "##ŀ": 5867,
      "##ⁿ": 5868,
      "##δ": 5869,
      "##⠽": 5870,
      "##☠": 5871,
      "##ツ": 5872,
      "##🏻": 5873,
      "##ᅲ": 5874,
      "##ェ": 5875,
      "##╌": 5876,
      "##╚": 5877,
      "##🇺": 5878,
      "##🌖": 5879,
      "##🌗": 5880,
      "##🌘": 5881,
      "##🌑": 5882,
      "##ㅋ": 5883,
      "##⠃": 5884,
      "##ⵊ": 5885,
      "##ⴷ": 5886,
      "##ⵍ": 5887,
      "##ⴼ": 5888,
      "##œ": 5889,
      "##ı": 5890,
      "##゜": 5891,
      "##ᅱ": 5892,
      "##🤭": 5893,
      "##𝔶": 5894,
      "##₊": 5895,
      "##🇪": 5896,
      "##🇱": 5897,
      "##₃": 5898,
      "##🏾": 5899,
      "##🤝": 5900,
      "##🏿": 5901,
      "##κ": 5902,
      "##α": 5903,
      "##ς": 5904,
      "##✚": 5905,
      "##⣤": 5906,
      "##⣽": 5907,
      "##⣶": 5908,
      "##👈": 5909,
      "##💖": 5910,
      "##✨": 5911,
      "##🥺": 5912,
      "##ס": 5913,
      "##ל": 5914,
      "##ו": 5915,
      "##♟": 5916,
      "##▂": 5917,
      "##▆": 5918,
      "##▇": 5919,
      "##▁": 5920,
      "##モ": 5921,
      "##υ": 5922,
      "##💩": 5923,
      "##⢤": 5924,
      "##⣬": 5925,
      "##⣧": 5926,
      "##⢀": 5927,
      "##⡠": 5928,
      "##ต": 5929,
      "##━": 5930,
      "##┓": 5931,
      "##え": 5932,
      "##∎": 5933,
      "##🐛": 5934,
      "##🦋": 5935,
      "##⢄": 5936,
      "##र": 5937,
      "##ो": 5938,
      "##ड": 5939,
      "##♦": 5940,
      "##💀": 5941,
      "##ɑ": 5942,
      "##ʁ": 5943,
      "##⠈": 5944,
      "##ᆺ": 5945,
      "##⠱": 5946,
      "##╪": 5947,
      "##ⱼ": 5948,
      "##∈": 5949,
      "##ͳ": 5950,
      "##ᐟ": 5951,
      "##ѕ": 5952,
      "##ј": 5953,
      "##₉": 5954,
      "##🏀": 5955,
      "##♠": 5956,
      "##ヤ": 5957,
      "##エ": 5958,
      "##┛": 5959,
      "##η": 5960,
      "##゛": 5961,
      "##␛": 5962,
      "##├": 5963,
      "##🌾": 5964,
      "##ゃ": 5965,
      "##▍": 5966,
      "##╫": 5967,
      "##¥": 5968,
      "##€": 5969,
      "##ə": 5970,
      "##♀": 5971,
      "##ͱ": 5972,
      "##╭": 5973,
      "##ক": 5974,
      "##ত": 5975,
      "##ব": 5976,
      "##র": 5977,
      "##ণ": 5978,
      "##ে": 5979,
      "##ᅯ": 5980,
      "##╧": 5981,
      "##╟": 5982,
      "##म": 5983,
      "##ᵣ": 5984,
      "##♥": 5985,
      "##ᵢ": 5986,
      "##ძ": 5987,
      "##ი": 5988,
      "##ჷ": 5989,
      "##🚀": 5990,
      "##💨": 5991,
      "##ᚻ": 5992,
      "##ᚷ": 5993,
      "##ᇁ": 5994,
      "##🎶": 5995,
      "##┗": 5996,
      "##¯": 5997,
      "##⣸": 5998,
      "##⡿": 5999,
      "##⢿": 6000,
      "##⣇": 6001,
      "##⣏": 6002,
      "##📈": 6003,
      "##╴": 6004,
      "##⢇": 6005,
      "##▅": 6006,
      "##そ": 6007,
      "##😳": 6008,
      "##ð": 6009,
      "##𝕌": 6010,
      "##ℕ": 6011,
      "##ｙ": 6012,
      "##₽": 6013,
      "##😩": 6014,
      "##╡": 6015,
      "##⢙": 6016,
      "##⡯": 6017,
      "##⁴": 6018,
      "##⁵": 6019,
      "##⢸": 6020,
      "##⢻": 6021,
      "##▊": 6022,
      "##⢠": 6023,
      "##⠊": 6024,
      "##ʀ": 6025,
      "##┃": 6026,
      "##ł": 6027,
      "##💫": 6028,
      "##😏": 6029,
      "##🎃": 6030,
      "##👻": 6031,
      "##ߙ": 6032,
      "##🏴": 6033,
      "##҉": 6034,
      "##₈": 6035,
      "##￼": 6036,
      "##ল": 6037,
      "##ワ": 6038,
      "##𝔵": 6039,
      "##𝔭": 6040,
      "##𝔬": 6041,
      "##►": 6042,
      "##օ": 6043,
      "##և": 6044,
      "##э": 6045,
      "##प": 6046,
      "##त": 6047,
      "##▐": 6048,
      "##©": 6049,
      "##ⓔ": 6050,
      "##ⓐ": 6051,
      "##ⓛ": 6052,
      "##❤": 6053,
      "##▼": 6054,
      "##↵": 6055,
      "##▏": 6056,
      "##🤙": 6057,
      "##↨": 6058,
      "##↑": 6059,
      "##←": 6060,
      "##∟": 6061,
      "##↔": 6062,
      "##▲": 6063,
      "##⢛": 6064,
      "##⡔": 6065,
      "##🚚": 6066,
      "##₇": 6067,
      "##ⵃ": 6068,
      "##ⴺ": 6069,
      "##ʊ": 6070,
      "##💻": 6071,
      "##└": 6072,
      "##ᆽ": 6073,
      "##🌈": 6074,
      "##✅": 6075,
      "##🔜": 6076,
      "##ₜ": 6077,
      "##ｂ": 6078,
      "##１": 6079,
      "##２": 6080,
      "##３": 6081,
      "##⠄": 6082,
      "##🦄": 6083,
      "##ݱ": 6084,
      "##ݶ": 6085,
      "##ݷ": 6086,
      "##ݸ": 6087,
      "##ݹ": 6088,
      "##ݺ": 6089,
      "##ⵜ": 6090,
      "##ⵙ": 6091,
      "##▶": 6092,
      "##ʒ": 6093,
      "##ᚨ": 6094,
      "##ᛉ": 6095,
      "##♢": 6096,
      "##♤": 6097,
      "##♧": 6098,
      "##★": 6099,
      "##○": 6100,
      "##■": 6101,
      "##☆": 6102,
      "##◇": 6103,
      "##♡": 6104,
      "##⚐": 6105,
      "##◀": 6106,
      "##◁": 6107,
      "##⢚": 6108,
      "##⠇": 6109,
      "##⡅": 6110,
      "##ㅅ": 6111,
      "##ㅇ": 6112,
      "##☮": 6113,
      "##ד": 6114,
      "##ר": 6115,
      "##א": 6116,
      "##🖥": 6117,
      "##⢁": 6118,
      "##⠆": 6119,
      "##👉": 6120,
      "##𝔢": 6121,
      "##𝔩": 6122,
      "##γ": 6123,
      "##ｄ": 6124,
      "##📖": 6125,
      "##⎤": 6126,
      "##⎞": 6127,
      "##⢃": 6128,
      "##⣲": 6129,
      "##⣻": 6130,
      "##⢋": 6131,
      "##⡁": 6132,
      "##ｲ": 6133,
      "##ｳ": 6134,
      "##０": 6135,
      "##∅": 6136,
      "##▉": 6137,
      "##ন": 6138,
      "##ি": 6139,
      "##𒀝": 6140,
      "##⠙": 6141,
      "##⠑": 6142,
      "##ข": 6143,
      "##▗": 6144,
      "##ש": 6145,
      "##י": 6146,
      "##𝗲": 6147,
      "##𝗿": 6148,
      "##𝗶": 6149,
      "##𝗳": 6150,
      "##┻": 6151,
      "##🛹": 6152,
      "##🐶": 6153,
      "##و": 6154,
      "##ف": 6155,
      "##ي": 6156,
      "##ا": 6157,
      "##ذ": 6158,
      "##ل": 6159,
      "##ك": 6160,
      "##م": 6161,
      "##ر": 6162,
      "##ة": 6163,
      "##ن": 6164,
      "##ت": 6165,
      "##ب": 6166,
      "##خ": 6167,
      "##ص": 6168,
      "##ه": 6169,
      "##ع": 6170,
      "##ض": 6171,
      "##ق": 6172,
      "##د": 6173,
      "##ش": 6174,
      "##ء": 6175,
      "##🦀": 6176,
      "##џ": 6177,
      "##ₖ": 6178,
      "##⡶": 6179,
      "##⢟": 6180,
      "##□": 6181,
      "##🇭": 6182,
      "##⁷": 6183,
      "##🔗": 6184,
      "##🇦": 6185,
      "##🇬": 6186,
      "##♪": 6187,
      "##₆": 6188,
      "##🇸": 6189,
      "##𝘢": 6190,
      "##𝘯": 6191,
      "##𝘴": 6192,
      "##⬇": 6193,
      "##🇿": 6194,
      "##−": 6195,
      "##👆": 6196,
      "##🏄": 6197,
      "##ᆮ": 6198,
      "##▽": 6199,
      "##｀": 6200,
      "##💡": 6201,
      "##⏤": 6202,
      "##ɐ": 6203,
      "##🚫": 6204,
      "##⠻": 6205,
      "##ₛ": 6206,
      "##ｕ": 6207,
      "##⁶": 6208,
      "##ल": 6209,
      "##ौ": 6210,
      "##ट": 6211,
      "##♨": 6212,
      "##⣛": 6213,
      "##⡛": 6214,
      "##╥": 6215,
      "##╙": 6216,
      "##╘": 6217,
      "##╒": 6218,
      "##╓": 6219,
      "##⚙": 6220,
      "##⠢": 6221,
      "##🔧": 6222,
      "##☕": 6223,
      "##º": 6224,
      "##⋯": 6225,
      "##⡎": 6226,
      "##፻": 6227,
      "##፼": 6228,
      "##ᚩ": 6229,
      "##🇧": 6230,
      "##╼": 6231,
      "##オ": 6232,
      "##ほ": 6233,
      "##✝": 6234,
      "##😝": 6235,
      "##🤩": 6236,
      "##😁": 6237,
      "##◙": 6238,
      "##♫": 6239,
      "##☼": 6240,
      "##𝗼": 6241,
      "##𝗹": 6242,
      "##𝗱": 6243,
      "##ᆲ": 6244,
      "##𝓷": 6245,
      "##𝓳": 6246,
      "##𝓸": 6247,
      "##𝔂": 6248,
      "##𝓮": 6249,
      "##𝓻": 6250,
      "##◟": 6251,
      "##௫": 6252,
      "##⠏": 6253,
      "##ɹ": 6254,
      "##ⓡ": 6255,
      "##✈": 6256,
      "##◓": 6257,
      "##┆": 6258,
      "##┶": 6259,
      "##◑": 6260,
      "##◉": 6261,
      "##┨": 6262,
      "##ჳ": 6263,
      "##ϟ": 6264,
      "##⣎": 6265,
      "##⡫": 6266,
      "##⡳": 6267,
      "##⣟": 6268,
      "##⣋": 6269,
      "##｜": 6270,
      "##⡂": 6271,
      "##ㅌ": 6272,
      "##ㄴ": 6273,
      "##ㄷ": 6274,
      "##🔒": 6275,
      "##া": 6276,
      "##ষ": 6277,
      "##😎": 6278,
      "##🗨": 6279,
      "##🎨": 6280,
      "##ब": 6281,
      "##⠝": 6282,
      "##⠞": 6283,
      "##⠎": 6284,
      "##⠥": 6285,
      "##⠕": 6286,
      "##⠺": 6287,
      "##⠗": 6288,
      "##😨": 6289,
      "##⣰": 6290,
      "##√": 6291,
      "##ｱ": 6292,
      "##ᆿ": 6293,
      "##क": 6294,
      "##स": 6295,
      "##س": 6296,
      "##⚖": 6297,
      "##🇰": 6298,
      "##🥗": 6299,
      "##🦔": 6300,
      "##🕶": 6301,
      "##🤳": 6302,
      "##🎮": 6303,
      "##🧶": 6304,
      "##⠠": 6305,
      "##⠐": 6306,
      "##⡥": 6307,
      "##ⴌ": 6308,
      "##ろ": 6309,
      "##📸": 6310,
      "##፰": 6311,
      "##▝": 6312,
      "##▟": 6313,
      "##▘": 6314,
      "##ߏ": 6315,
      "##ߡ": 6316,
      "##ߎ": 6317,
      "##⡟": 6318,
      "##⡾": 6319,
      "##⢵": 6320,
      "##⣼": 6321,
      "##⣘": 6322,
      "##🤛": 6323,
      "##◳": 6324,
      "##▥": 6325,
      "##◱": 6326,
      "##◛": 6327,
      "##◆": 6328,
      "##◽": 6329,
      "##👩": 6330,
      "##▙": 6331,
      "##🔦": 6332,
      "##🔥": 6333,
      "##🎲": 6334,
      "##🐬": 6335,
      "##🍀": 6336,
      "##🍟": 6337,
      "##🔋": 6338,
      "##🎁": 6339,
      "##💧": 6340,
      "##👂": 6341,
      "##🚪": 6342,
      "##🚗": 6343,
      "##👣": 6344,
      "##🌍": 6345,
      "##🍤": 6346,
      "##🐗": 6347,
      "##💠": 6348,
      "##ヽ": 6349,
      "##📺": 6350,
      "##🇵": 6351,
      "##ߚ": 6352,
      "##ߌ": 6353,
      "##ⴘ": 6354,
      "##🇩": 6355,
      "##𝒸": 6356,
      "##𝓇": 6357,
      "##𝒾": 6358,
      "##𝓅": 6359,
      "##𝓉": 6360,
      "##🇳": 6361,
      "##ߋ": 6362,
      "##⋆": 6363,
      "##┫": 6364,
      "##⁰": 6365,
      "##💼": 6366,
      "##🕧": 6367,
      "##🕐": 6368,
      "##🕜": 6369,
      "##🕑": 6370,
      "##🕝": 6371,
      "##🕒": 6372,
      "##⢼": 6373,
      "##ᅰ": 6374,
      "##າ": 6375,
      "##ສ": 6376,
      "##ລ": 6377,
      "##ວ": 6378,
      "##ມ": 6379,
      "##ჯ": 6380,
      "##🏼": 6381,
      "##𝙤": 6382,
      "##⡃": 6383,
      "##⢕": 6384,
      "##⢏": 6385,
      "##⢎": 6386,
      "##⢆": 6387,
      "##⢑": 6388,
      "##ぁ": 6389,
      "##ヨ": 6390,
      "##đ": 6391,
      "##🔱": 6392,
      "##𝒐": 6393,
      "##𝒍": 6394,
      "##𝒅": 6395,
      "##⡼": 6396,
      "##⠹": 6397,
      "##⡻": 6398,
      "##⡌": 6399,
      "##🛌": 6400,
      "##ぬ": 6401,
      "##ა": 6402,
      "##მ": 6403,
      "##რ": 6404,
      "##ო": 6405,
      "##ბ": 6406,
      "##ᄍ": 6407,
      "##ᄁ": 6408,
      "##ᇀ": 6409,
      "##😅": 6410,
      "##ᵤ": 6411,
      "##ﾟ": 6412,
      "##ﾝ": 6413,
      "##ﾌ": 6414,
      "##𝙩": 6415,
      "##𝙖": 6416,
      "##𝙡": 6417,
      "##𝙞": 6418,
      "##𝙘": 6419,
      "##🧋": 6420,
      "##🐙": 6421,
      "##፪": 6422,
      "##⏱": 6423,
      "##⠚": 6424,
      "##⠸": 6425,
      "##ニ": 6426,
      "##ʍ": 6427,
      "##ซ": 6428,
      "##🍏": 6429,
      "##🧦": 6430,
      "##ħ": 6431,
      "##ĳ": 6432,
      "##ĸ": 6433,
      "##¤": 6434,
      "##ŋ": 6435,
      "##ŧ": 6436,
      "##ſ": 6437,
      "##ɲ": 6438,
      "##ŉ": 6439,
      "##◯": 6440,
      "##፲": 6441,
      "##፩": 6442,
      "##🦺": 6443,
      "##ြ": 6444,
      "##န": 6445,
      "##မ": 6446,
      "##ာ": 6447,
      "##ᄈ": 6448,
      "##ᅤ": 6449,
      "##👷": 6450,
      "##🏛": 6451,
      "##⠅": 6452,
      "##🤣": 6453,
      "##ᇂ": 6454,
      "##🐉": 6455,
      "##ป": 6456,
      "##ɱ": 6457,
      "##ƥ": 6458,
      "##ى": 6459,
      "##⡰": 6460,
      "##⢱": 6461,
      "##ゑ": 6462,
      "##🍑": 6463,
      "##ₘ": 6464,
      "##🐈": 6465,
      "##ƴ": 6466,
      "##🎤": 6467,
      "##ߊ": 6468,
      "##💙": 6469,
      "##┳": 6470,
      "##╕": 6471,
      "##ᵧ": 6472,
      "##ج": 6473,
      "##ث": 6474,
      "##ح": 6475,
      "##⎦": 6476,
      "##⎠": 6477,
      "##🕸": 6478,
      "##ɥ": 6479,
      "##ʇ": 6480,
      "##ᆾ": 6481,
      "##φ": 6482,
      "##𝑡": 6483,
      "##𝑎": 6484,
      "##𝑙": 6485,
      "##𝑖": 6486,
      "##𝑐": 6487,
      "##┯": 6488,
      "##😵": 6489,
      "##𝐷": 6490,
      "##๐": 6491,
      "##ⵝ": 6492,
      "##ɒ": 6493,
      "##⠡": 6494,
      "##⠩": 6495,
      "##⣒": 6496,
      "##ʎ": 6497,
      "##ב": 6498,
      "##🌌": 6499,
      "##✧": 6500,
      "##ད": 6501,
      "##😘": 6502,
      "##✋": 6503,
      "##😭": 6504,
      "##😚": 6505,
      "##🤟": 6506,
      "##💦": 6507,
      "##𝓵": 6508,
      "##𝓭": 6509,
      "##⣳": 6510,
      "##⣫": 6511,
      "##⣵": 6512,
      "##⡱": 6513,
      "##⡡": 6514,
      "##⢜": 6515,
      "##⡝": 6516,
      "##⚡": 6517,
      "##🟦": 6518,
      "##╛": 6519,
      "##⎺": 6520,
      "##⏋": 6521,
      "##⎾": 6522,
      "##ᛆ": 6523,
      "##ᚽ": 6524,
      "##ם": 6525,
      "##∨": 6526,
      "##🧸": 6527,
      "##ª": 6528,
      "##▪": 6529,
      "##ㅗ": 6530,
      "##₧": 6531,
      "##ƒ": 6532,
      "##🤚": 6533,
      "##ং": 6534,
      "##য": 6535,
      "##◄": 6536,
      "##🏽": 6537,
      "##👇": 6538,
      "##ˌ": 6539,
      "##ᅫ": 6540,
      "##ᆶ": 6541,
      "##⊕": 6542,
      "##⡦": 6543,
      "##⠔": 6544,
      "##ᆭ": 6545,
      "##ⓝ": 6546,
      "##⌨": 6547,
      "##🖱": 6548,
      "##🔬": 6549,
      "##㎞": 6550,
      "##𝙠": 6551,
      "##🏃": 6552,
      "##▋": 6553,
      "##🧨": 6554,
      "##⠵": 6555,
      "##߄": 6556,
      "##🐵": 6557,
      "##💔": 6558,
      "##⚛": 6559,
      "##ই": 6560,
      "##٣": 6561,
      "##ℓ": 6562,
      "##⠮": 6563,
      "##⣉": 6564,
      "##⣯": 6565,
      "##🦯": 6566,
      "##ｖ": 6567,
      "##▾": 6568,
      "##˘": 6569,
      "##ԫ": 6570,
      "##ן": 6571,
      "##∗": 6572,
      "##♖": 6573,
      "##♗": 6574,
      "##♘": 6575,
      "##♙": 6576,
      "##♚": 6577,
      "##⡑": 6578,
      "##⢌": 6579,
      "##⠪": 6580,
      "##⡢": 6581,
      "##⡣": 6582,
      "##⣣": 6583,
      "##┷": 6584,
      "##⌘": 6585,
      "##🤗": 6586,
      "##▹": 6587,
      "##◨": 6588,
      "##┒": 6589,
      "##┟": 6590,
      "##┰": 6591,
      "##ᛊ": 6592,
      "##🫂": 6593,
      "##ㅂ": 6594,
      "##▃": 6595,
      "##ﾀ": 6596,
      "##ｶ": 6597,
      "##ﾅ": 6598,
      "##ǝ": 6599,
      "##𝍸": 6600,
      "##ɯ": 6601,
      "##⡬": 6602,
      "##🟪": 6603,
      "##⠘": 6604,
      "##⠫": 6605,
      "##↕": 6606,
      "##֍": 6607,
      "##֏": 6608,
      "##׹": 6609,
      "##ط": 6610,
      "##¾": 6611,
      "##θ": 6612,
      "##🤪": 6613,
      "##𓏏": 6614,
      "##𓁐": 6615,
      "##ɣ": 6616,
      "##ز": 6617,
      "##፷": 6618,
      "##፮": 6619,
      "##ी": 6620,
      "##न": 6621,
      "##ゅ": 6622,
      "##∞": 6623,
      "##႔": 6624,
      "##˚": 6625,
      "##🧑": 6626,
      "##𝛆": 6627,
      "##⥪": 6628,
      "##⥭": 6629,
      "##⢊": 6630,
      "##😺": 6631,
      "##⡏": 6632,
      "##⚧": 6633,
      "##🇮": 6634,
      "##🇫": 6635,
      "##🇷": 6636,
      "##💓": 6637,
      "##ט": 6638,
      "##ｸ": 6639,
      "##𝙚": 6640,
      "##𝙧": 6641,
      "##𝙛": 6642,
      "##🌏": 6643,
      "##ㅓ": 6644,
      "##ㅏ": 6645,
      "##ㄹ": 6646,
      "##💯": 6647,
      "##➡": 6648,
      "##ᚲ": 6649,
      "##①": 6650,
      "##گ": 6651,
      "##ی": 6652,
      "##ठ": 6653,
      "##⤵": 6654,
      "##₋": 6655,
      "##𝖔": 6656,
      "##𝖑": 6657,
      "##𝖉": 6658,
      "##≈": 6659,
      "##🌼": 6660,
      "##🍄": 6661,
      "##🌿": 6662,
      "##✓": 6663,
      "##⠦": 6664,
      "##⢒": 6665,
      "##𝖗": 6666,
      "##𝖆": 6667,
      "##𝖐": 6668,
      "##𝖙": 6669,
      "##𝖚": 6670,
      "##ᴀ": 6671,
      "##ʟ": 6672,
      "##ᴛ": 6673,
      "##😲": 6674,
      "##ᛌ": 6675,
      "##ᛐ": 6676,
      "##ᚿ": 6677,
      "##χ": 6678,
      "##⣁": 6679,
      "##👎": 6680,
      "##ﾞ": 6681,
      "##ｼ": 6682,
      "##ｮ": 6683,
      "##🔔": 6684,
      "##ᚵ": 6685,
      "##⎥": 6686,
      "##⎟": 6687,
      "##𝙣": 6688,
      "##𝙨": 6689,
      "##❄": 6690,
      "##☣": 6691,
      "##ȥ": 6692,
      "##ґ": 6693,
      "##⣊": 6694,
      "##⣥": 6695,
      "##🍆": 6696,
      "##ˏ": 6697,
      "##⌒": 6698,
      "##🥘": 6699,
      "##🍲": 6700,
      "##🚩": 6701,
      "##🏁": 6702,
      "##👌": 6703,
      "##👍": 6704,
      "##😍": 6705,
      "##💕": 6706,
      "##ﾙ": 6707,
      "##ɔ": 6708,
      "##ह": 6709,
      "##𝌆": 6710,
      "##≥": 6711,
      "##≤": 6712,
      "##⌠": 6713,
      "##⌡": 6714,
      "##÷": 6715,
      "##∙": 6716,
      "##⁸": 6717,
      "##🌙": 6718,
      "##ᓇ": 6719,
      "##😀": 6720,
      "##😃": 6721,
      "##😄": 6722,
      "##😆": 6723,
      "##य": 6724,
      "##🤔": 6725,
      "##ₚ": 6726,
      "##ψ": 6727,
      "##𝕆": 6728,
      "##ℂ": 6729,
      "##ℍ": 6730,
      "##𝔼": 6731,
      "##𝕊": 6732,
      "##🦆": 6733,
      "##𝖺": 6734,
      "##𝗇": 6735,
      "##𝗌": 6736,
      "##ᴥ": 6737,
      "##❍": 6738,
      "##⋃": 6739,
      "##７": 6740,
      "##ე": 6741,
      "##😈": 6742,
      "##ｇ": 6743,
      "##ヌ": 6744,
      "##⣓": 6745,
      "##⣍": 6746,
      "##⡲": 6747,
      "##⢂": 6748,
      "##⢘": 6749,
      "##∩": 6750,
      "##፴": 6751,
      "##፬": 6752,
      "##ⵎ": 6753,
      "##ⵡ": 6754,
      "##✔": 6755,
      "##⢬": 6756,
      "##⡪": 6757,
      "##⡈": 6758,
      "##⠜": 6759,
      "##⢯": 6760,
      "##⢗": 6761,
      "##⡞": 6762,
      "##🧬": 6763,
      "##᧓": 6764,
      "##⡙": 6765,
      "##⠣": 6766,
      "##⣌": 6767,
      "##𝖾": 6768,
      "##𝗋": 6769,
      "##𝗂": 6770,
      "##𝖿": 6771,
      "##𝙙": 6772,
      "##▛": 6773,
      "##▜": 6774,
      "##ा": 6775,
      "##⢳": 6776,
      "##🏍": 6777,
      "##غ": 6778,
      "##⁹": 6779,
      "##০": 6780,
      "##৭": 6781,
      "##β": 6782,
      "##🤓": 6783,
      "##⠳": 6784,
      "##९": 6785,
      "##५": 6786,
      "##६": 6787,
      "##७": 6788,
      "##८": 6789,
      "##🥩": 6790,
      "##☺": 6791,
      "##☻": 6792,
      "##ғ": 6793,
      "##〵": 6794,
      "##ʌ": 6795,
      "##ถ": 6796,
      "##แ": 6797,
      "##ล": 6798,
      "##ゥ": 6799,
      "##⢞": 6800,
      "##◔": 6801,
      "##۶": 6802,
      "##꩗": 6803,
      "##१": 6804,
      "##௭": 6805,
      "##⌛": 6806,
      "##⡴": 6807,
      "##⢦": 6808,
      "##🚥": 6809,
      "##៧": 6810,
      "##᧗": 6811,
      "##⠨": 6812,
      "##⣺": 6813,
      "##⡕": 6814,
      "##𝓬": 6815,
      "##𝓲": 6816,
      "##𝓹": 6817,
      "##𝓽": 6818,
      "##⢲": 6819,
      "##𝟚": 6820,
      "##𝟛": 6821,
      "##๗": 6822,
      "##⢓": 6823,
      "##׉": 6824,
      "##׊": 6825,
      "##׋": 6826,
      "##፳": 6827,
      "##፫": 6828,
      "##∂": 6829,
      "##∫": 6830,
      "##🇲": 6831,
      "##ｴ": 6832,
      "##ｵ": 6833,
      "##ǆ": 6834,
      "##⢴": 6835,
      "##🦲": 6836,
      "##🧔": 6837,
      "##🛸": 6838,
      "##ⵖ": 6839,
      "##⅓": 6840,
      "##ƨ": 6841,
      "##₥": 6842,
      "##ˉ": 6843,
      "##🌫": 6844,
      "##⢾": 6845,
      "##⣹": 6846,
      "##⢧": 6847,
      "##┖": 6848,
      "##╅": 6849,
      "##┺": 6850,
      "##◫": 6851,
      "##┹": 6852,
      "##◪": 6853,
      "##┲": 6854,
      "##┧": 6855,
      "##┦": 6856,
      "##🏖": 6857,
      "##ɡ": 6858,
      "##〇": 6859,
      "##𝙪": 6860,
      "##𝙮": 6861,
      "##🐕": 6862,
      "##🐧": 6863,
      "##⢡": 6864,
      "##⡍": 6865,
      "##🏭": 6866,
      "##🇼": 6867,
      "##🐳": 6868,
      "##🤫": 6869,
      "##⠭": 6870,
      "##🍺": 6871,
      "##🏟": 6872,
      "##ম": 6873,
      "##ௗ": 6874,
      "##㌀": 6875,
      "##▚": 6876,
      "##🛑": 6877,
      "##⣪": 6878,
      "##𝕥": 6879,
      "##𝕣": 6880,
      "##𝕦": 6881,
      "##𝕔": 6882,
      "##𝕜": 6883,
      "##🎵": 6884,
      "##🎉": 6885,
      "##٩": 6886,
      "##𑃶": 6887,
      "##᱒": 6888,
      "##𝗮": 6889,
      "##𝗻": 6890,
      "##𝘀": 6891,
      "##⡸": 6892,
      "##ख": 6893,
      "##⢰": 6894,
      "##⢶": 6895,
      "##ﾂ": 6896,
      "##ｐ": 6897,
      "##🕹": 6898,
      "##ｪ": 6899,
      "##🔮": 6900,
      "##🌸": 6901,
      "##ᄄ": 6902,
      "##ㅊ": 6903,
      "##ㄱ": 6904,
      "##ᵔ": 6905,
      "##㎨": 6906,
      "##🗠": 6907,
      "##𝓣": 6908,
      "##ɛ": 6909,
      "##⡋": 6910,
      "##⣡": 6911,
      "##𝚘": 6912,
      "##𝚗": 6913,
      "##𝚜": 6914,
      "##𝚙": 6915,
      "##𝚊": 6916,
      "##𝚌": 6917,
      "##𝚎": 6918,
      "##ƭ": 6919,
      "##⡒": 6920,
      "##👲": 6921,
      "##⠍": 6922,
      "##𝕠": 6923,
      "##𝕓": 6924,
      "##𝕝": 6925,
      "##𝕖": 6926,
      "##😂": 6927,
      "##ण": 6928,
      "##ि": 6929,
      "##✗": 6930,
      "##◼": 6931,
      "##ﾊ": 6932,
      "##۰": 6933,
      "##ヮ": 6934,
      "##ݓ": 6935,
      "##ݔ": 6936,
      "##ݕ": 6937,
      "##ݖ": 6938,
      "##ݗ": 6939,
      "##ݙ": 6940,
      "##ݪ": 6941,
      "##⁺": 6942,
      "##ᆰ": 6943,
      "##স": 6944,
      "##୷": 6945,
      "##ས": 6946,
      "##ҕ": 6947,
      "##ၑ": 6948,
      "##ಟ": 6949,
      "##ဖ": 6950,
      "##௴": 6951,
      "##ϳ": 6952,
      "##ӻ": 6953,
      "##आ": 6954,
      "##इ": 6955,
      "##ԛ": 6956,
      "##വ": 6957,
      "##ফ": 6958,
      "##ඤ": 6959,
      "##ળ": 6960,
      "##श": 6961,
      "##ϗ": 6962,
      "##ⴋ": 6963,
      "##ॳ": 6964,
      "##۹": 6965,
      "##ঙ": 6966,
      "##ఓ": 6967,
      "##ց": 6968,
      "##ʮ": 6969,
      "##ര": 6970,
      "##ౡ": 6971,
      "##ଣ": 6972,
      "##ౙ": 6973,
      "##ഗ": 6974,
      "##૩": 6975,
      "##ໜ": 6976,
      "##ໝ": 6977,
      "##औ": 6978,
      "##ཀ": 6979,
      "##ඨ": 6980,
      "##ɉ": 6981,
      "##ઉ": 6982,
      "##ທ": 6983,
      "##ઠ": 6984,
      "##ග": 6985,
      "##ऽ": 6986,
      "##ƽ": 6987,
      "##೪": 6988,
      "##ⴡ": 6989,
      "##ಔ": 6990,
      "##ດ": 6991,
      "##ѱ": 6992,
      "##ॺ": 6993,
      "##ଅ": 6994,
      "##ի": 6995,
      "##ଢ": 6996,
      "##྾": 6997,
      "##ვ": 6998,
      "##ʭ": 6999,
      "##ମ": 7000,
      "##ԙ": 7001,
      "##उ": 7002,
      "##ଥ": 7003,
      "##ও": 7004,
      "##ϧ": 7005,
      "##ၺ": 7006,
      "##ழ": 7007,
      "##ဃ": 7008,
      "##൰": 7009,
      "##১": 7010,
      "##ⴍ": 7011,
      "##𝘦": 7012,
      "##𝘳": 7013,
      "##𝘪": 7014,
      "##𝘧": 7015,
      "##↴": 7016,
      "##⠰": 7017,
      "##ゐ": 7018,
      "##⎜": 7019,
      "##⎢": 7020,
      "##ᴗ": 7021,
      "##ꈍ": 7022,
      "##⠯": 7023,
      "##⢍": 7024,
      "##⎡": 7025,
      "##４": 7026,
      "##ծ": 7027,
      "##ആ": 7028,
      "##ԍ": 7029,
      "##ཪ": 7030,
      "##ɖ": 7031,
      "##ⴕ": 7032,
      "##ష": 7033,
      "##ϡ": 7034,
      "##ဏ": 7035,
      "##ၾ": 7036,
      "##ഓ": 7037,
      "##ఇ": 7038,
      "##૪": 7039,
      "##൦": 7040,
      "##ⴏ": 7041,
      "##⢈": 7042,
      "##⣂": 7043,
      "##🗡": 7044,
      "##⬜": 7045,
      "##𝘵": 7046,
      "##𝘭": 7047,
      "##𝘤": 7048,
      "##ज": 7049,
      "##ʲ": 7050,
      "##👮": 7051,
      "##🌟": 7052,
      "##ʷ": 7053,
      "##⢢": 7054,
      "##🕷": 7055,
      "##ᚮ": 7056,
      "##𝔰": 7057,
      "##𝑟": 7058,
      "##𝑒": 7059,
      "##𝑚": 7060,
      "##𝑝": 7061,
      "##🚧": 7062,
      "##ϰ": 7063,
      "##𝒕": 7064,
      "##𝒂": 7065,
      "##𝒊": 7066,
      "##𝒄": 7067,
      "##👁": 7068,
      "##⃤": 7069,
      "##𝐨": 7070,
      "##𝐥": 7071,
      "##𝐝": 7072,
      "##๑": 7073,
      "##＾": 7074,
      "##∧": 7075,
      "##𝐶": 7076,
      "##😴": 7077,
      "##╖": 7078,
      "##╜": 7079,
      "##ᚳ": 7080,
      "##６": 7081,
      "##ៅ": 7082,
      "##ក": 7083,
      "##ន": 7084,
      "##ង": 7085,
      "##ា": 7086,
      "##រ": 7087,
      "##ប": 7088,
      "##អ": 7089,
      "##ជ": 7090,
      "##វ": 7091,
      "##ម": 7092,
      "##⣨": 7093,
      "##🙂": 7094,
      "##𝝴": 7095,
      "##𝞀": 7096,
      "##𝝸": 7097,
      "##𝞅": 7098,
      "##⎣": 7099,
      "##🎓": 7100,
      "##🐚": 7101,
      "##▞": 7102,
      "##ա": 7103,
      "##ր": 7104,
      "##ե": 7105,
      "##վ": 7106,
      "##ک": 7107,
      "##✌": 7108,
      "##😜": 7109,
      "##┭": 7110,
      "##◷": 7111,
      "##▱": 7112,
      "##◌": 7113,
      "##𝝾": 7114,
      "##𝝺": 7115,
      "##𝝳": 7116,
      "##📦": 7117,
      "##ᛃ": 7118,
      "##む": 7119,
      "##𝑉": 7120,
      "##＜": 7121,
      "##🟧": 7122,
      "##🐔": 7123,
      "##🐓": 7124,
      "##🐣": 7125,
      "##🐤": 7126,
      "##🐥": 7127,
      "##🐦": 7128,
      "##🕊": 7129,
      "##🦅": 7130,
      "##🦢": 7131,
      "##🦉": 7132,
      "##🦚": 7133,
      "##🦜": 7134,
      "##🌭": 7135,
      "##🚶": 7136,
      "##◶": 7137,
      "##◞": 7138,
      "##▰": 7139,
      "##┞": 7140,
      "##╳": 7141,
      "##╋": 7142,
      "##▩": 7143,
      "##╞": 7144,
      "##╠": 7145,
      "##🖖": 7146,
      "##𝝰": 7147,
      "##𝝼": 7148,
      "##𝞂": 7149,
      "##℃": 7150,
      "##ゆ": 7151,
      "##ϛ": 7152,
      "##┄": 7153,
      "##ꜱ": 7154,
      "##🛠": 7155,
      "##➤": 7156,
      "##၅": 7157,
      "##er": 7158,
      "th": 7159,
      "##at": 7160,
      "##on": 7161,
      "##in": 7162,
      "##es": 7163,
      "##en": 7164,
      "##or": 7165,
      "the": 7166,
      "##it": 7167,
      "##ed": 7168,
      "##ion": 7169,
      "##le": 7170,
      "in": 7171,
      "##ing": 7172,
      "##st": 7173,
      "to": 7174,
      "##ar": 7175,
      "##al": 7176,
      "##an": 7177,
      "##et": 7178,
      "##ou": 7179,
      "##ic": 7180,
      "an": 7181,
      "##om": 7182,
      "##se": 7183,
      "##re": 7184,
      "##ct": 7185,
      "##ent": 7186,
      "##il": 7187,
      "##ut": 7188,
      "for": 7189,
      "st": 7190,
      "##ro": 7191,
      "re": 7192,
      "and": 7193,
      "##am": 7194,
      "##is": 7195,
      "of": 7196,
      "is": 7197,
      "##ation": 7198,
      "##ac": 7199,
      "##el": 7200,
      "con": 7201,
      "you": 7202,
      "##ate": 7203,
      "de": 7204,
      "##ith": 7205,
      "ex": 7206,
      "##as": 7207,
      "##od": 7208,
      "ru": 7209,
      "pro": 7210,
      "##oc": 7211,
      "as": 7212,
      "##ag": 7213,
      "##ow": 7214,
      "##ly": 7215,
      "##ol": 7216,
      "us": 7217,
      "##ul": 7218,
      "##ur": 7219,
      "##ot": 7220,
      "##ib": 7221,
      "##ec": 7222,
      "##im": 7223,
      "al": 7224,
      "com": 7225,
      "##ple": 7226,
      "##ment": 7227,
      "this": 7228,
      "##ad": 7229,
      "it": 7230,
      "be": 7231,
      "on": 7232,
      "with": 7233,
      "##ers": 7234,
      "##ig": 7235,
      "or": 7236,
      "##ab": 7237,
      "##id": 7238,
      "##ap": 7239,
      "##est": 7240,
      "##ch": 7241,
      "ap": 7242,
      "use": 7243,
      "##ve": 7244,
      "##pl": 7245,
      "su": 7246,
      "cr": 7247,
      "##ess": 7248,
      "##icen": 7249,
      "un": 7250,
      "en": 7251,
      "licen": 7252,
      "##ect": 7253,
      "let": 7254,
      "##pt": 7255,
      "wh": 7256,
      "rust": 7257,
      "##ce": 7258,
      "##ter": 7259,
      "##age": 7260,
      "fi": 7261,
      "fr": 7262,
      "can": 7263,
      "str": 7264,
      "##ver": 7265,
      "##all": 7266,
      "ne": 7267,
      "##ort": 7268,
      "##ay": 7269,
      "im": 7270,
      "##ult": 7271,
      "bu": 7272,
      "by": 7273,
      "that": 7274,
      "ch": 7275,
      "##em": 7276,
      "##ain": 7277,
      "cl": 7278,
      "##ist": 7279,
      "tr": 7280,
      "##if": 7281,
      "##and": 7282,
      "all": 7283,
      "##ions": 7284,
      "cont": 7285,
      "ad": 7286,
      "##end": 7287,
      "##um": 7288,
      "##ary": 7289,
      "from": 7290,
      "##ode": 7291,
      "##00": 7292,
      "are": 7293,
      "license": 7294,
      "pr": 7295,
      "##ame": 7296,
      "not": 7297,
      "##yp": 7298,
      "##able": 7299,
      "lib": 7300,
      "##ill": 7301,
      "inst": 7302,
      "par": 7303,
      "##ir": 7304,
      "##tt": 7305,
      "se": 7306,
      "##iz": 7307,
      "##qu": 7308,
      "res": 7309,
      "##ild": 7310,
      "##port": 7311,
      "add": 7312,
      "exam": 7313,
      "crate": 7314,
      "sh": 7315,
      "your": 7316,
      "##arg": 7317,
      "##os": 7318,
      "##ach": 7319,
      "##th": 7320,
      "##un": 7321,
      "##ue": 7322,
      "##ub": 7323,
      "##int": 7324,
      "def": 7325,
      "##ore": 7326,
      "##us": 7327,
      "ser": 7328,
      "##ies": 7329,
      "if": 7330,
      "##ke": 7331,
      "##ure": 7332,
      "##ack": 7333,
      "doc": 7334,
      "dat": 7335,
      "vers": 7336,
      "typ": 7337,
      "int": 7338,
      "build": 7339,
      "file": 7340,
      "run": 7341,
      "will": 7342,
      "sp": 7343,
      "libr": 7344,
      "ar": 7345,
      "##op": 7346,
      "fe": 7347,
      "##ex": 7348,
      "##uct": 7349,
      "##ase": 7350,
      "##ject": 7351,
      "##ork": 7352,
      "##ere": 7353,
      "##rap": 7354,
      "val": 7355,
      "##ind": 7356,
      "##ser": 7357,
      "comp": 7358,
      "##oun": 7359,
      "##ttp": 7360,
      "get": 7361,
      "test": 7362,
      "http": 7363,
      "new": 7364,
      "we": 7365,
      "##ang": 7366,
      "##og": 7367,
      "library": 7368,
      "version": 7369,
      "##mentation": 7370,
      "lin": 7371,
      "out": 7372,
      "##ive": 7373,
      "##ust": 7374,
      "##orm": 7375,
      "##iv": 7376,
      "##act": 7377,
      "##ant": 7378,
      "##ial": 7379,
      "##ome": 7380,
      "sup": 7381,
      "##der": 7382,
      "gen": 7383,
      "op": 7384,
      "comm": 7385,
      "##ates": 7386,
      "##igh": 7387,
      "example": 7388,
      "##rib": 7389,
      "install": 7390,
      "imple": 7391,
      "##ld": 7392,
      "sy": 7393,
      "data": 7394,
      "gener": 7395,
      "##form": 7396,
      "feat": 7397,
      "opt": 7398,
      "cli": 7399,
      "##ity": 7400,
      "##ail": 7401,
      "##argo": 7402,
      "support": 7403,
      "er": 7404,
      "cargo": 7405,
      "##put": 7406,
      "##lo": 7407,
      "##out": 7408,
      "##ault": 7409,
      "at": 7410,
      "set": 7411,
      "id": 7412,
      "##ime": 7413,
      "any": 7414,
      "string": 7415,
      "##ated": 7416,
      "using": 7417,
      "##ire": 7418,
      "default": 7419,
      "##ally": 7420,
      "requ": 7421,
      "##ory": 7422,
      "err": 7423,
      "##our": 7424,
      "##ribut": 7425,
      "##gr": 7426,
      "ke": 7427,
      "pl": 7428,
      "##vid": 7429,
      "do": 7430,
      "api": 7431,
      "##enc": 7432,
      "cre": 7433,
      "print": 7434,
      "##ures": 7435,
      "work": 7436,
      "ab": 7437,
      "##ost": 7438,
      "code": 7439,
      "ma": 7440,
      "fun": 7441,
      "##ri": 7442,
      "##ations": 7443,
      "mut": 7444,
      "pat": 7445,
      "##ait": 7446,
      "##ich": 7447,
      "name": 7448,
      "##fer": 7449,
      "project": 7450,
      "provid": 7451,
      "##sert": 7452,
      "##cl": 7453,
      "##low": 7454,
      "conf": 7455,
      "sim": 7456,
      "ac": 7457,
      "some": 7458,
      "##oo": 7459,
      "##pend": 7460,
      "##ip": 7461,
      "which": 7462,
      "##ave": 7463,
      "inter": 7464,
      "fn": 7465,
      "fil": 7466,
      "##ight": 7467,
      "##ction": 7468,
      "##ock": 7469,
      "##ache": 7470,
      "hel": 7471,
      "sc": 7472,
      "##ace": 7473,
      "##──": 7474,
      "struct": 7475,
      "##rit": 7476,
      "type": 7477,
      "up": 7478,
      "##ize": 7479,
      "key": 7480,
      "config": 7481,
      "##ould": 7482,
      "fol": 7483,
      "##one": 7484,
      "docu": 7485,
      "error": 7486,
      "read": 7487,
      "stat": 7488,
      "##ice": 7489,
      "list": 7490,
      "##eth": 7491,
      "has": 7492,
      "##ud": 7493,
      "mod": 7494,
      "##ther": 7495,
      "des": 7496,
      "col": 7497,
      "licens": 7498,
      "##ard": 7499,
      "##plic": 7500,
      "##cess": 7501,
      "rs": 7502,
      "depend": 7503,
      "exp": 7504,
      "qu": 7505,
      "##erm": 7506,
      "##ine": 7507,
      "##ens": 7508,
      "le": 7509,
      "dev": 7510,
      "sub": 7511,
      "aut": 7512,
      "##ast": 7513,
      "used": 7514,
      "so": 7515,
      "mit": 7516,
      "io": 7517,
      "crates": 7518,
      "see": 7519,
      "have": 7520,
      "vec": 7521,
      "spec": 7522,
      "main": 7523,
      "assert": 7524,
      "writ": 7525,
      "##art": 7526,
      "command": 7527,
      "##so": 7528,
      "apache": 7529,
      "but": 7530,
      "other": 7531,
      "##ans": 7532,
      "value": 7533,
      "li": 7534,
      "##ments": 7535,
      "##ext": 7536,
      "more": 7537,
      "pub": 7538,
      "result": 7539,
      "client": 7540,
      "usage": 7541,
      "unw": 7542,
      "##irect": 7543,
      "##yn": 7544,
      "form": 7545,
      "rep": 7546,
      "into": 7547,
      "https": 7548,
      "cur": 7549,
      "time": 7550,
      "mac": 7551,
      "path": 7552,
      "unwrap": 7553,
      "##ign": 7554,
      "##ord": 7555,
      "man": 7556,
      "num": 7557,
      "##32": 7558,
      "features": 7559,
      "js": 7560,
      "documentation": 7561,
      "bas": 7562,
      "##ource": 7563,
      "##ound": 7564,
      "only": 7565,
      "dependenc": 7566,
      "aw": 7567,
      "##ile": 7568,
      "loc": 7569,
      "direct": 7570,
      "follow": 7571,
      "contribut": 7572,
      "pre": 7573,
      "##own": 7574,
      "need": 7575,
      "var": 7576,
      "create": 7577,
      "##ass": 7578,
      "under": 7579,
      "##lease": 7580,
      "files": 7581,
      "call": 7582,
      "implementation": 7583,
      "log": 7584,
      "dis": 7585,
      "ev": 7586,
      "ret": 7587,
      "one": 7588,
      "no": 7589,
      "##stem": 7590,
      "option": 7591,
      "##ff": 7592,
      "mat": 7593,
      "##ition": 7594,
      "also": 7595,
      "##ug": 7596,
      "##ings": 7597,
      "##ator": 7598,
      "##ks": 7599,
      "specif": 7600,
      "like": 7601,
      "eq": 7602,
      "user": 7603,
      "##av": 7604,
      "output": 7605,
      "bl": 7606,
      "std": 7607,
      "##ree": 7608,
      "help": 7609,
      "0x": 7610,
      "##ress": 7611,
      "per": 7612,
      "json": 7613,
      "function": 7614,
      "sec": 7615,
      "incl": 7616,
      "##ell": 7617,
      "when": 7618,
      "##ount": 7619,
      "app": 7620,
      "##rent": 7621,
      "##ry": 7622,
      "tok": 7623,
      "go": 7624,
      "##urn": 7625,
      "format": 7626,
      "##ml": 7627,
      "##ript": 7628,
      "20": 7629,
      "##ples": 7630,
      "##ln": 7631,
      "alloc": 7632,
      "progr": 7633,
      "gith": 7634,
      "bin": 7635,
      "github": 7636,
      "##are": 7637,
      "tool": 7638,
      "##ead": 7639,
      "##ber": 7640,
      "##ows": 7641,
      "macro": 7642,
      "my": 7643,
      "##ove": 7644,
      "chang": 7645,
      "part": 7646,
      "##ance": 7647,
      "po": 7648,
      "status": 7649,
      "mess": 7650,
      "##ethod": 7651,
      "fl": 7652,
      "system": 7653,
      "##tern": 7654,
      "println": 7655,
      "##io": 7656,
      "##af": 7657,
      "was": 7658,
      "##abl": 7659,
      "method": 7660,
      "vari": 7661,
      "##te": 7662,
      "server": 7663,
      "act": 7664,
      "##elf": 7665,
      "current": 7666,
      "types": 7667,
      "##ues": 7668,
      "em": 7669,
      "request": 7670,
      "##ix": 7671,
      "web": 7672,
      "state": 7673,
      "how": 7674,
      "##eld": 7675,
      "start": 7676,
      "following": 7677,
      "env": 7678,
      "##ia": 7679,
      "ind": 7680,
      "self": 7681,
      "simple": 7682,
      "examples": 7683,
      "ob": 7684,
      "contain": 7685,
      "chec": 7686,
      "av": 7687,
      "10": 7688,
      "##per": 7689,
      "##read": 7690,
      "trait": 7691,
      "##formation": 7692,
      "licensed": 7693,
      "dependencies": 7694,
      "term": 7695,
      "##ide": 7696,
      "there": 7697,
      "##ages": 7698,
      "pack": 7699,
      "node": 7700,
      "##ery": 7701,
      "hand": 7702,
      "applic": 7703,
      "##ie": 7704,
      "org": 7705,
      "input": 7706,
      "may": 7707,
      "line": 7708,
      "gr": 7709,
      "rec": 7710,
      "##wn": 7711,
      "asyn": 7712,
      "information": 7713,
      "##ual": 7714,
      "enc": 7715,
      "##str": 7716,
      "serv": 7717,
      "##lect": 7718,
      "##ible": 7719,
      "##64": 7720,
      "arg": 7721,
      "should": 7722,
      "program": 7723,
      "me": 7724,
      "det": 7725,
      "trans": 7726,
      "return": 7727,
      "##ook": 7728,
      "min": 7729,
      "##res": 7730,
      "feature": 7731,
      "oper": 7732,
      "over": 7733,
      "reg": 7734,
      "bind": 7735,
      "then": 7736,
      "iter": 7737,
      "make": 7738,
      "##tr": 7739,
      "git": 7740,
      "bo": 7741,
      "##ak": 7742,
      "##ous": 7743,
      "defin": 7744,
      "without": 7745,
      "text": 7746,
      "##ence": 7747,
      "open": 7748,
      "check": 7749,
      "##ull": 7750,
      "##ating": 7751,
      "##pon": 7752,
      "docs": 7753,
      "includ": 7754,
      "implement": 7755,
      "##ning": 7756,
      "der": 7757,
      "pos": 7758,
      "dec": 7759,
      "##ge": 7760,
      "##etw": 7761,
      "want": 7762,
      "exec": 7763,
      "auth": 7764,
      "number": 7765,
      "12": 7766,
      "##ely": 7767,
      "##ese": 7768,
      "provides": 7769,
      "mult": 7770,
      "##load": 7771,
      "back": 7772,
      "##her": 7773,
      "source": 7774,
      "fir": 7775,
      "##uration": 7776,
      "##ux": 7777,
      "field": 7778,
      "##up": 7779,
      "upd": 7780,
      "bit": 7781,
      "async": 7782,
      "directory": 7783,
      "lang": 7784,
      "here": 7785,
      "map": 7786,
      "pass": 7787,
      "ok": 7788,
      "##de": 7789,
      "##ents": 7790,
      "##gh": 7791,
      "ut": 7792,
      "dif": 7793,
      "##0000": 7794,
      "each": 7795,
      "##arget": 7796,
      "##ite": 7797,
      "await": 7798,
      "##sp": 7799,
      "##ft": 7800,
      "##ied": 7801,
      "lo": 7802,
      "##ep": 7803,
      "iss": 7804,
      "does": 7805,
      "target": 7806,
      "these": 7807,
      "first": 7808,
      "match": 7809,
      "execut": 7810,
      "mem": 7811,
      "ro": 7812,
      "##ting": 7813,
      "requir": 7814,
      "##ose": 7815,
      "devel": 7816,
      "##ong": 7817,
      "##nect": 7818,
      "##ream": 7819,
      "deb": 7820,
      "based": 7821,
      "down": 7822,
      "tw": 7823,
      "rem": 7824,
      "wind": 7825,
      "##ise": 7826,
      "##ough": 7827,
      "acc": 7828,
      "develop": 7829,
      "##con": 7830,
      "prot": 7831,
      "publ": 7832,
      "message": 7833,
      "##xt": 7834,
      "##ility": 7835,
      "##raph": 7836,
      "them": 7837,
      "inf": 7838,
      "link": 7839,
      "##ish": 7840,
      "##ark": 7841,
      "att": 7842,
      "block": 7843,
      "cop": 7844,
      "##cript": 7845,
      "##dit": 7846,
      "sign": 7847,
      "##ors": 7848,
      "end": 7849,
      "process": 7850,
      "##vel": 7851,
      "avail": 7852,
      "##ither": 7853,
      "##ically": 7854,
      "##ick": 7855,
      "access": 7856,
      "own": 7857,
      "##inal": 7858,
      "syn": 7859,
      "##ustom": 7860,
      "derive": 7861,
      "cons": 7862,
      "lat": 7863,
      "ass": 7864,
      "note": 7865,
      "release": 7866,
      "values": 7867,
      "supported": 7868,
      "eas": 7869,
      "available": 7870,
      "sm": 7871,
      "##────": 7872,
      "##ret": 7873,
      "about": 7874,
      "custom": 7875,
      "addition": 7876,
      "either": 7877,
      "compil": 7878,
      "connect": 7879,
      "application": 7880,
      "##imit": 7881,
      "write": 7882,
      "multi": 7883,
      "flag": 7884,
      "gu": 7885,
      "just": 7886,
      "object": 7887,
      "##ful": 7888,
      "ben": 7889,
      "options": 7890,
      "langu": 7891,
      "##ted": 7892,
      "binary": 7893,
      "hash": 7894,
      "where": 7895,
      "##arch": 7896,
      "debug": 7897,
      "level": 7898,
      "ag": 7899,
      "its": 7900,
      "thread": 7901,
      "ur": 7902,
      "br": 7903,
      "licenses": 7904,
      "linux": 7905,
      "##ctions": 7906,
      "way": 7907,
      "tests": 7908,
      "##ices": 7909,
      "##iew": 7910,
      "##ication": 7911,
      "##use": 7912,
      "perform": 7913,
      "##aw": 7914,
      "what": 7915,
      "contribution": 7916,
      "co": 7917,
      "am": 7918,
      "##tes": 7919,
      "please": 7920,
      "than": 7921,
      "functions": 7922,
      "##ule": 7923,
      "##ten": 7924,
      "interf": 7925,
      "refer": 7926,
      "dist": 7927,
      "inte": 7928,
      "differ": 7929,
      "same": 7930,
      "##ics": 7931,
      "bindings": 7932,
      "red": 7933,
      "serial": 7934,
      "ext": 7935,
      "init": 7936,
      "comple": 7937,
      "dele": 7938,
      "wrap": 7939,
      "bot": 7940,
      "stor": 7941,
      "##ware": 7942,
      "local": 7943,
      "bench": 7944,
      "##ss": 7945,
      "extern": 7946,
      "ver": 7947,
      "##ative": 7948,
      "##ization": 7949,
      "most": 7950,
      "high": 7951,
      "##ql": 7952,
      "##ables": 7953,
      "token": 7954,
      "size": 7955,
      "fut": 7956,
      "##ake": 7957,
      "url": 7958,
      "copy": 7959,
      "send": 7960,
      "##afe": 7961,
      "sl": 7962,
      "##ger": 7963,
      "##ify": 7964,
      "download": 7965,
      "met": 7966,
      "##ized": 7967,
      "##very": 7968,
      "off": 7969,
      "respon": 7970,
      "order": 7971,
      "configuration": 7972,
      "service": 7973,
      "nam": 7974,
      "##ann": 7975,
      "##11": 7976,
      "##lob": 7977,
      "head": 7978,
      "such": 7979,
      "above": 7980,
      "param": 7981,
      "bytes": 7982,
      "##osit": 7983,
      "image": 7984,
      "el": 7985,
      "tem": 7986,
      "generate": 7987,
      "post": 7988,
      "generated": 7989,
      "##══": 7990,
      "point": 7991,
      "they": 7992,
      "ms": 7993,
      "detail": 7994,
      "package": 7995,
      "fast": 7996,
      "ent": 7997,
      "##ets": 7998,
      "port": 7999,
      "two": 8000,
      "##ient": 8001,
      "##com": 8002,
      "##ov": 8003,
      "poss": 8004,
      "##less": 8005,
      "##ces": 8006,
      "sd": 8007,
      "##iron": 8008,
      "find": 8009,
      "currently": 8010,
      "hello": 8011,
      "stand": 8012,
      "clone": 8013,
      "allow": 8014,
      "language": 8015,
      "uses": 8016,
      "##rol": 8017,
      "##ause": 8018,
      "jo": 8019,
      "##ays": 8020,
      "rel": 8021,
      "argu": 8022,
      "environ": 8023,
      "parse": 8024,
      "update": 8025,
      "##ases": 8026,
      "running": 8027,
      "terms": 8028,
      "valid": 8029,
      "reposit": 8030,
      "via": 8031,
      "installation": 8032,
      "giv": 8033,
      "additional": 8034,
      "now": 8035,
      "sing": 8036,
      "would": 8037,
      "defined": 8038,
      "interface": 8039,
      "cor": 8040,
      "##20": 8041,
      "must": 8042,
      "index": 8043,
      "impl": 8044,
      "found": 8045,
      "he": 8046,
      "true": 8047,
      "windows": 8048,
      "module": 8049,
      "##mb": 8050,
      "sch": 8051,
      "prod": 8052,
      "arr": 8053,
      "memory": 8054,
      "enum": 8055,
      "inv": 8056,
      "buf": 8057,
      "info": 8058,
      "query": 8059,
      "sol": 8060,
      "##ms": 8061,
      "event": 8062,
      "expect": 8063,
      "##api": 8064,
      "address": 8065,
      "##ww": 8066,
      "frame": 8067,
      "##iss": 8068,
      "##mit": 8069,
      "tim": 8070,
      "tag": 8071,
      "##ocol": 8072,
      "single": 8073,
      "different": 8074,
      "pars": 8075,
      "every": 8076,
      "none": 8077,
      "stream": 8078,
      "##ical": 8079,
      "wor": 8080,
      "serde": 8081,
      "##time": 8082,
      "core": 8083,
      "char": 8084,
      "##gor": 8085,
      "foo": 8086,
      "##12": 8087,
      "##ities": 8088,
      "www": 8089,
      "load": 8090,
      "##cept": 8091,
      "encod": 8092,
      "af": 8093,
      "graph": 8094,
      "parser": 8095,
      "protocol": 8096,
      "##bu": 8097,
      "len": 8098,
      "look": 8099,
      "operations": 8100,
      "##ps": 8101,
      "##pro": 8102,
      "glob": 8103,
      "##wise": 8104,
      "##les": 8105,
      "##row": 8106,
      "prob": 8107,
      "##ls": 8108,
      "tree": 8109,
      "tas": 8110,
      "search": 8111,
      "case": 8112,
      "collect": 8113,
      "autom": 8114,
      "##ular": 8115,
      "##atch": 8116,
      "color": 8117,
      "bec": 8118,
      "repository": 8119,
      "standard": 8120,
      "##uc": 8121,
      "script": 8122,
      "count": 8123,
      "100": 8124,
      "wasm": 8125,
      "00": 8126,
      "ele": 8127,
      "##ond": 8128,
      "minim": 8129,
      "plat": 8130,
      "##tain": 8131,
      "change": 8132,
      "fail": 8133,
      "##bo": 8134,
      "##ier": 8135,
      "##par": 8136,
      "##plicit": 8137,
      "platform": 8138,
      "const": 8139,
      "##ash": 8140,
      "rand": 8141,
      "environment": 8142,
      "provided": 8143,
      "##56": 8144,
      "allows": 8145,
      "provide": 8146,
      "possible": 8147,
      "conver": 8148,
      "given": 8149,
      "ht": 8150,
      "world": 8151,
      "##ention": 8152,
      "##ker": 8153,
      "non": 8154,
      "##ilt": 8155,
      "otherwise": 8156,
      "multiple": 8157,
      "contains": 8158,
      "##etwork": 8159,
      "item": 8160,
      "repres": 8161,
      "##fore": 8162,
      "details": 8163,
      "##ually": 8164,
      "##een": 8165,
      "##aries": 8166,
      "limit": 8167,
      "py": 8168,
      "methods": 8169,
      "free": 8170,
      "16": 8171,
      "instead": 8172,
      "##do": 8173,
      "kn": 8174,
      "opens": 8175,
      "##╌╌": 8176,
      "datab": 8177,
      "##ax": 8178,
      "##gorith": 8179,
      "public": 8180,
      "network": 8181,
      "sdk": 8182,
      "##ender": 8183,
      "required": 8184,
      "both": 8185,
      "thr": 8186,
      "##sc": 8187,
      "algorith": 8188,
      "optional": 8189,
      "issue": 8190,
      "##map": 8191,
      "##etween": 8192,
      "regist": 8193,
      "try": 8194,
      "dr": 8195,
      "account": 8196,
      "after": 8197,
      "##erial": 8198,
      "between": 8199,
      "root": 8200,
      "supports": 8201,
      "their": 8202,
      "context": 8203,
      "descript": 8204,
      "rest": 8205,
      "written": 8206,
      "##ron": 8207,
      "##az": 8208,
      "##55": 8209,
      "explicit": 8210,
      "enable": 8211,
      "response": 8212,
      "secret": 8213,
      "global": 8214,
      "tokio": 8215,
      "ip": 8216,
      "submit": 8217,
      "specific": 8218,
      "don": 8219,
      "latest": 8220,
      "##ata": 8221,
      "toml": 8222,
      "##work": 8223,
      "##db": 8224,
      "next": 8225,
      "##16": 8226,
      "##ugin": 8227,
      "soft": 8228,
      "##ade": 8229,
      "model": 8230,
      "full": 8231,
      "##ict": 8232,
      "##action": 8233,
      "html": 8234,
      "insert": 8235,
      "import": 8236,
      "future": 8237,
      "delete": 8238,
      "distribut": 8239,
      "##plo": 8240,
      "unless": 8241,
      "handl": 8242,
      "fal": 8243,
      "conv": 8244,
      "##word": 8245,
      "paramet": 8246,
      "macros": 8247,
      "eng": 8248,
      "built": 8249,
      "table": 8250,
      "very": 8251,
      "##ily": 8252,
      "##sh": 8253,
      "##rypt": 8254,
      "our": 8255,
      "false": 8256,
      "mak": 8257,
      "control": 8258,
      "##ope": 8259,
      "compon": 8260,
      "##abled": 8261,
      "##ush": 8262,
      "runtime": 8263,
      "well": 8264,
      "represent": 8265,
      "mark": 8266,
      "sam": 8267,
      "static": 8268,
      "dyn": 8269,
      "while": 8270,
      "compile": 8271,
      "max": 8272,
      "##ditions": 8273,
      "select": 8274,
      "##play": 8275,
      "##its": 8276,
      "##annel": 8277,
      "11": 8278,
      "database": 8279,
      "ident": 8280,
      "##ty": 8281,
      "pers": 8282,
      "dependency": 8283,
      "mode": 8284,
      "store": 8285,
      "disc": 8286,
      "##po": 8287,
      "through": 8288,
      "exist": 8289,
      "##file": 8290,
      "ref": 8291,
      "##tc": 8292,
      "conditions": 8293,
      "software": 8294,
      "##rc": 8295,
      "##ruct": 8296,
      "small": 8297,
      "aws": 8298,
      "filter": 8299,
      "##rop": 8300,
      "##not": 8301,
      "u8": 8302,
      "sin": 8303,
      "gre": 8304,
      "host": 8305,
      "cap": 8306,
      "second": 8307,
      "automat": 8308,
      "locations": 8309,
      "array": 8310,
      "versions": 8311,
      "##usion": 8312,
      "som": 8313,
      "i32": 8314,
      "plugin": 8315,
      "##ange": 8316,
      "require": 8317,
      "##ality": 8318,
      "##ection": 8319,
      "basic": 8320,
      "random": 8321,
      "render": 8322,
      "##sel": 8323,
      "schem": 8324,
      "eff": 8325,
      "explicitly": 8326,
      "sw": 8327,
      "changes": 8328,
      "##99": 8329,
      "easy": 8330,
      "ph": 8331,
      "templ": 8332,
      "linked": 8333,
      "because": 8334,
      "##struct": 8335,
      "grou": 8336,
      "many": 8337,
      "arch": 8338,
      "##ph": 8339,
      "ed": 8340,
      "initial": 8341,
      "channel": 8342,
      "rele": 8343,
      "uns": 8344,
      "builder": 8345,
      "##ng": 8346,
      "requests": 8347,
      "before": 8348,
      "##ential": 8349,
      "flags": 8350,
      "installed": 8351,
      "box": 8352,
      "development": 8353,
      "framework": 8354,
      "handle": 8355,
      "implemented": 8356,
      "##fi": 8357,
      "##ever": 8358,
      "war": 8359,
      "proper": 8360,
      "shall": 8361,
      "attribut": 8362,
      "buffer": 8363,
      "projects": 8364,
      "useful": 8365,
      "##22": 8366,
      "fix": 8367,
      "building": 8368,
      "commands": 8369,
      "##view": 8370,
      "safe": 8371,
      "performance": 8372,
      "orig": 8373,
      "common": 8374,
      "messages": 8375,
      "64": 8376,
      "been": 8377,
      "users": 8378,
      "##ocket": 8379,
      "goog": 8380,
      "deserial": 8381,
      "base": 8382,
      "device": 8383,
      "##pc": 8384,
      "extens": 8385,
      "low": 8386,
      "contributing": 8387,
      "bar": 8388,
      "traits": 8389,
      "ll": 8390,
      "express": 8391,
      "google": 8392,
      "##ont": 8393,
      "dir": 8394,
      "design": 8395,
      "##86": 8396,
      "##19": 8397,
      "names": 8398,
      "##line": 8399,
      "top": 8400,
      "authent": 8401,
      "contr": 8402,
      "##10": 8403,
      "##mp": 8404,
      "##als": 8405,
      "repl": 8406,
      "instance": 8407,
      "tools": 8408,
      "description": 8409,
      "lay": 8410,
      "intention": 8411,
      "dual": 8412,
      "manag": 8413,
      "db": 8414,
      "content": 8415,
      "##lection": 8416,
      "integr": 8417,
      "perm": 8418,
      "##ced": 8419,
      "requires": 8420,
      "wrapper": 8421,
      "##ero": 8422,
      "##air": 8423,
      "comput": 8424,
      "##ended": 8425,
      "game": 8426,
      "include": 8427,
      "page": 8428,
      "##odes": 8429,
      "15": 8430,
      "structure": 8431,
      "export": 8432,
      "play": 8433,
      "##000": 8434,
      "bel": 8435,
      "##ively": 8436,
      "variable": 8437,
      "push": 8438,
      "works": 8439,
      "##ved": 8440,
      "##err": 8441,
      "bet": 8442,
      "submitted": 8443,
      "display": 8444,
      "##back": 8445,
      "inclusion": 8446,
      "docker": 8447,
      "long": 8448,
      "14": 8449,
      "errors": 8450,
      "dust": 8451,
      "benchm": 8452,
      "prints": 8453,
      "emb": 8454,
      "##ner": 8455,
      "intentionally": 8456,
      "cp": 8457,
      "move": 8458,
      "pan": 8459,
      "##ired": 8460,
      "sn": 8461,
      "specify": 8462,
      "report": 8463,
      "cer": 8464,
      "mon": 8465,
      "take": 8466,
      "edit": 8467,
      "word": 8468,
      "##ross": 8469,
      "##xx": 8470,
      "enabled": 8471,
      "##ody": 8472,
      "hub": 8473,
      "wid": 8474,
      "pol": 8475,
      "##80": 8476,
      "charact": 8477,
      "could": 8478,
      "cd": 8479,
      "util": 8480,
      "folder": 8481,
      "##sl": 8482,
      "sty": 8483,
      "task": 8484,
      "extr": 8485,
      "##ern": 8486,
      "contract": 8487,
      "issues": 8488,
      "pe": 8489,
      "reference": 8490,
      "##other": 8491,
      "instruct": 8492,
      "##ci": 8493,
      "ns": 8494,
      "##thing": 8495,
      "cal": 8496,
      "##list": 8497,
      "arguments": 8498,
      "header": 8499,
      "engine": 8500,
      "##pect": 8501,
      "intern": 8502,
      "##bers": 8503,
      "might": 8504,
      "##thon": 8505,
      "opensource": 8506,
      "##cc": 8507,
      "terminal": 8508,
      "keys": 8509,
      "##ways": 8510,
      "##gth": 8511,
      "##ype": 8512,
      "show": 8513,
      "simil": 8514,
      "##uch": 8515,
      "done": 8516,
      "etc": 8517,
      "even": 8518,
      "##ources": 8519,
      "##app": 8520,
      "since": 8521,
      "mach": 8522,
      "13": 8523,
      "class": 8524,
      "view": 8525,
      "##flow": 8526,
      "directly": 8527,
      "##ian": 8528,
      "rece": 8529,
      "similar": 8530,
      "##alle": 8531,
      "bre": 8532,
      "##ific": 8533,
      "compat": 8534,
      "still": 8535,
      "right": 8536,
      "automatically": 8537,
      "specified": 8538,
      "convert": 8539,
      "hyp": 8540,
      "parsing": 8541,
      "another": 8542,
      "synt": 8543,
      "put": 8544,
      "password": 8545,
      "implements": 8546,
      "inc": 8547,
      "##ns": 8548,
      "##aces": 8549,
      "interact": 8550,
      "##ging": 8551,
      "always": 8552,
      "started": 8553,
      "sql": 8554,
      "md": 8555,
      "32": 8556,
      "##34": 8557,
      "dem": 8558,
      "returns": 8559,
      "means": 8560,
      "##cp": 8561,
      "listen": 8562,
      "python": 8563,
      "however": 8564,
      "embed": 8565,
      "optim": 8566,
      "##ution": 8567,
      "os": 8568,
      "##ared": 8569,
      "##ik": 8570,
      "kv": 8571,
      "mer": 8572,
      "del": 8573,
      "##bb": 8574,
      "##gen": 8575,
      "##ward": 8576,
      "testing": 8577,
      "pull": 8578,
      "##aa": 8579,
      "document": 8580,
      "##ink": 8581,
      "algorithm": 8582,
      "pattern": 8583,
      "##ider": 8584,
      "tak": 8585,
      "fields": 8586,
      "raw": 8587,
      "working": 8588,
      "length": 8589,
      "##────────": 8590,
      "##oto": 8591,
      "scope": 8592,
      "storage": 8593,
      "##old": 8594,
      "home": 8595,
      "##ote": 8596,
      "##set": 8597,
      "##ude": 8598,
      "##cu": 8599,
      "##fix": 8600,
      "below": 8601,
      "generator": 8602,
      "u32": 8603,
      "syntax": 8604,
      "backend": 8605,
      "body": 8606,
      "##ale": 8607,
      "once": 8608,
      "19": 8609,
      "publish": 8610,
      "##me": 8611,
      "##ives": 8612,
      "src": 8613,
      "##ightly": 8614,
      "##ences": 8615,
      "created": 8616,
      "##eed": 8617,
      "##ether": 8618,
      "stable": 8619,
      "compiler": 8620,
      "author": 8621,
      "##ability": 8622,
      "writing": 8623,
      "##ething": 8624,
      "dom": 8625,
      "##ior": 8626,
      "##ious": 8627,
      "sort": 8628,
      "record": 8629,
      "lock": 8630,
      "called": 8631,
      "commit": 8632,
      "args": 8633,
      "##anch": 8634,
      "##self": 8635,
      "##18": 8636,
      "getting": 8637,
      "group": 8638,
      "desc": 8639,
      "quick": 8640,
      "track": 8641,
      "##ply": 8642,
      "vect": 8643,
      "yet": 8644,
      "cache": 8645,
      "commun": 8646,
      "results": 8647,
      "fin": 8648,
      "step": 8649,
      "##df": 8650,
      "functionality": 8651,
      "something": 8652,
      "##════": 8653,
      "connection": 8654,
      "##ech": 8655,
      "insp": 8656,
      "beh": 8657,
      "programm": 8658,
      "usize": 8659,
      "sys": 8660,
      "##key": 8661,
      "apis": 8662,
      "pur": 8663,
      "else": 8664,
      "##of": 8665,
      "again": 8666,
      "##ature": 8667,
      "##ured": 8668,
      "section": 8669,
      "priv": 8670,
      "being": 8671,
      "date": 8672,
      "##mt": 8673,
      "cle": 8674,
      "variables": 8675,
      "partic": 8676,
      "##comm": 8677,
      "separ": 8678,
      "vis": 8679,
      "aud": 8680,
      "ci": 8681,
      "##val": 8682,
      "general": 8683,
      "sk": 8684,
      "##33": 8685,
      "bug": 8686,
      "##side": 8687,
      "##chain": 8688,
      "encrypt": 8689,
      "distributed": 8690,
      "equ": 8691,
      "hyper": 8692,
      "last": 8693,
      "place": 8694,
      "rus": 8695,
      "product": 8696,
      "te": 8697,
      "collection": 8698,
      "v1": 8699,
      "zero": 8700,
      "##chron": 8701,
      "##sd": 8702,
      "clos": 8703,
      "##fc": 8704,
      "##rect": 8705,
      "lit": 8706,
      "around": 8707,
      "shell": 8708,
      "cry": 8709,
      "##21": 8710,
      "conc": 8711,
      "dynam": 8712,
      "##itle": 8713,
      "##name": 8714,
      "##ok": 8715,
      "variant": 8716,
      "##40": 8717,
      "consider": 8718,
      "added": 8719,
      "those": 8720,
      "ray": 8721,
      "stack": 8722,
      "pool": 8723,
      "##point": 8724,
      "branch": 8725,
      "manage": 8726,
      "txt": 8727,
      "kind": 8728,
      "que": 8729,
      "##icial": 8730,
      "##stream": 8731,
      "made": 8732,
      "libraries": 8733,
      "template": 8734,
      "duration": 8735,
      "register": 8736,
      "sequ": 8737,
      "machine": 8738,
      "##ines": 8739,
      "tls": 8740,
      "decod": 8741,
      "prev": 8742,
      "##gg": 8743,
      "construct": 8744,
      "##ys": 8745,
      "larg": 8746,
      "repo": 8747,
      "##sv": 8748,
      "pip": 8749,
      "strings": 8750,
      "permiss": 8751,
      "including": 8752,
      "##pos": 8753,
      "implementations": 8754,
      "##30": 8755,
      "##ency": 8756,
      "##██": 8757,
      "##ped": 8758,
      "pres": 8759,
      "patch": 8760,
      "doit": 8761,
      "argument": 8762,
      "##command": 8763,
      "short": 8764,
      "byte": 8765,
      "complete": 8766,
      "loop": 8767,
      "execute": 8768,
      "##led": 8769,
      "structures": 8770,
      "crypt": 8771,
      "doesn": 8772,
      "sv": 8773,
      "know": 8774,
      "resource": 8775,
      "cover": 8776,
      "prefix": 8777,
      "lines": 8778,
      "light": 8779,
      "##error": 8780,
      "original": 8781,
      "pow": 8782,
      "lab": 8783,
      "##oud": 8784,
      "proble": 8785,
      "##build": 8786,
      "todo": 8787,
      "rusoto": 8788,
      "##aut": 8789,
      "##be": 8790,
      "best": 8791,
      "calc": 8792,
      "sure": 8793,
      "keep": 8794,
      "##que": 8795,
      "##ons": 8796,
      "##uce": 8797,
      "join": 8798,
      "exper": 8799,
      "remove": 8800,
      "within": 8801,
      "recom": 8802,
      "real": 8803,
      "nightly": 8804,
      "embedd": 8805,
      "window": 8806,
      "style": 8807,
      "webs": 8808,
      "sync": 8809,
      "services": 8810,
      "##pty": 8811,
      "title": 8812,
      "range": 8813,
      "chain": 8814,
      "collections": 8815,
      "30": 8816,
      "##uring": 8817,
      "art": 8818,
      "##vy": 8819,
      "##oid": 8820,
      "structs": 8821,
      "calls": 8822,
      "##ef": 8823,
      "gn": 8824,
      "##xy": 8825,
      "events": 8826,
      "##respon": 8827,
      "compress": 8828,
      "things": 8829,
      "respect": 8830,
      "generic": 8831,
      "##zz": 8832,
      "encoding": 8833,
      "net": 8834,
      "activ": 8835,
      "parameters": 8836,
      "##00000000": 8837,
      "applications": 8838,
      "##etch": 8839,
      "sum": 8840,
      "##come": 8841,
      "msg": 8842,
      "##semb": 8843,
      "sess": 8844,
      "cred": 8845,
      "parent": 8846,
      "setup": 8847,
      "manager": 8848,
      "wel": 8849,
      "much": 8850,
      "##50": 8851,
      "rayon": 8852,
      "element": 8853,
      "anal": 8854,
      "consum": 8855,
      "##bin": 8856,
      "##awn": 8857,
      "##ames": 8858,
      "##gn": 8859,
      "altern": 8860,
      "##ably": 8861,
      "##ler": 8862,
      "##bit": 8863,
      "jav": 8864,
      "macos": 8865,
      "##idd": 8866,
      "subcommand": 8867,
      "##adata": 8868,
      "pay": 8869,
      "creating": 8870,
      "good": 8871,
      "numbers": 8872,
      "native": 8873,
      "images": 8874,
      "parts": 8875,
      "##ified": 8876,
      "lear": 8877,
      "bad": 8878,
      "##ping": 8879,
      "cases": 8880,
      "integer": 8881,
      "component": 8882,
      "sample": 8883,
      "med": 8884,
      "flo": 8885,
      "##pr": 8886,
      "minimum": 8887,
      "sem": 8888,
      "prim": 8889,
      "f64": 8890,
      "empty": 8891,
      "##17": 8892,
      "able": 8893,
      "simply": 8894,
      "correct": 8895,
      "replace": 8896,
      "##ars": 8897,
      "progress": 8898,
      "define": 8899,
      "entry": 8900,
      "mic": 8901,
      "cod": 8902,
      "ide": 8903,
      "17": 8904,
      "gp": 8905,
      "##14": 8906,
      "utility": 8907,
      "##ification": 8908,
      "norm": 8909,
      "makes": 8910,
      "##cast": 8911,
      "schema": 8912,
      "##ural": 8913,
      "serialize": 8914,
      "recomm": 8915,
      "cross": 8916,
      "metadata": 8917,
      "bevy": 8918,
      "accept": 8919,
      "##ision": 8920,
      "scre": 8921,
      "##co": 8922,
      "calcul": 8923,
      "programming": 8924,
      "job": 8925,
      "domain": 8926,
      "needs": 8927,
      "unsafe": 8928,
      "##inter": 8929,
      "official": 8930,
      "dig": 8931,
      "space": 8932,
      "vector": 8933,
      "unit": 8934,
      "##by": 8935,
      "##ploy": 8936,
      "describ": 8937,
      "objects": 8938,
      "minimal": 8939,
      "##right": 8940,
      "items": 8941,
      "##requ": 8942,
      "various": 8943,
      "suc": 8944,
      "break": 8945,
      "req": 8946,
      "##icient": 8947,
      "##24": 8948,
      "##ories": 8949,
      "hard": 8950,
      "##ee": 8951,
      "##╌╌╌╌": 8952,
      "pin": 8953,
      "unt": 8954,
      "systems": 8955,
      "profile": 8956,
      "ec": 8957,
      "deserialize": 8958,
      "ign": 8959,
      "tot": 8960,
      "drop": 8961,
      "reser": 8962,
      "##kn": 8963,
      "resources": 8964,
      "welcome": 8965,
      "tu": 8966,
      "action": 8967,
      "##dr": 8968,
      "needed": 8969,
      "##river": 8970,
      "gl": 8971,
      "rout": 8972,
      "better": 8973,
      "##ecess": 8974,
      "##ounter": 8975,
      "01": 8976,
      "micro": 8977,
      "##ds": 8978,
      "copyright": 8979,
      "24": 8980,
      "why": 8981,
      "ens": 8982,
      "attribute": 8983,
      "##mbol": 8984,
      "instructions": 8985,
      "##arks": 8986,
      "bool": 8987,
      "person": 8988,
      "##ename": 8989,
      "##ooks": 8990,
      "feel": 8991,
      "##ters": 8992,
      "resol": 8993,
      "spawn": 8994,
      "email": 8995,
      "slice": 8996,
      "ffi": 8997,
      "##ready": 8998,
      "##ators": 8999,
      "spl": 9000,
      "##ru": 9001,
      "exact": 9002,
      "adv": 9003,
      "##gb": 9004,
      "colum": 9005,
      "child": 9006,
      "##fs": 9007,
      "panic": 9008,
      "mov": 9009,
      "container": 9010,
      "abstr": 9011,
      "already": 9012,
      "adding": 9013,
      "42": 9014,
      "nodes": 9015,
      "devices": 9016,
      "private": 9017,
      "named": 9018,
      "##chronous": 9019,
      "##box": 9020,
      "impro": 9021,
      "##ibility": 9022,
      "prom": 9023,
      "sent": 9024,
      "particular": 9025,
      "##itions": 9026,
      "icu": 9027,
      "label": 9028,
      "##acing": 9029,
      "##ster": 9030,
      "symbol": 9031,
      "left": 9032,
      "cm": 9033,
      "embedded": 9034,
      "big": 9035,
      "bor": 9036,
      "bound": 9037,
      "reading": 9038,
      "easily": 9039,
      "endpoint": 9040,
      "##ob": 9041,
      "##itch": 9042,
      "##tings": 9043,
      "ge": 9044,
      "##pose": 9045,
      "ech": 9046,
      "rules": 9047,
      "ct": 9048,
      "##ton": 9049,
      "##ules": 9050,
      "fact": 9051,
      "authentication": 9052,
      "lif": 9053,
      "appro": 9054,
      "##vm": 9055,
      "compatible": 9056,
      "##med": 9057,
      "x86": 9058,
      "##izer": 9059,
      "##ived": 9060,
      "##ystem": 9061,
      "tested": 9062,
      "##ipher": 9063,
      "##pload": 9064,
      "pair": 9065,
      "eval": 9066,
      "brow": 9067,
      "maintain": 9068,
      "##to": 9069,
      "guide": 9070,
      "sever": 9071,
      "##auth": 9072,
      "expected": 9073,
      "incre": 9074,
      "determ": 9075,
      "elements": 9076,
      "components": 9077,
      "releases": 9078,
      "##ested": 9079,
      "decl": 9080,
      "operation": 9081,
      "rat": 9082,
      "##amp": 9083,
      "gnu": 9084,
      "upload": 9085,
      "shared": 9086,
      "integration": 9087,
      "000": 9088,
      "##ts": 9089,
      "complex": 9090,
      "times": 9091,
      "session": 9092,
      "location": 9093,
      "##ties": 9094,
      "enables": 9095,
      "##ling": 9096,
      "##board": 9097,
      "##ness": 9098,
      "who": 9099,
      "##get": 9100,
      "50": 9101,
      "contents": 9102,
      "miss": 9103,
      "pod": 9104,
      "18": 9105,
      "solution": 9106,
      "queue": 9107,
      "handling": 9108,
      "few": 9109,
      "position": 9110,
      "##oci": 9111,
      "inside": 9112,
      "driver": 9113,
      "extension": 9114,
      "behav": 9115,
      "cpu": 9116,
      "takes": 9117,
      "polic": 9118,
      "##15": 9119,
      "pop": 9120,
      "##rix": 9121,
      "fixed": 9122,
      "##ck": 9123,
      "cond": 9124,
      "##bd": 9125,
      "##sole": 9126,
      "80": 9127,
      "assum": 9128,
      "extract": 9129,
      "##aml": 9130,
      "echo": 9131,
      "except": 9132,
      "cloud": 9133,
      "##down": 9134,
      "parameter": 9135,
      "127": 9136,
      "cat": 9137,
      "character": 9138,
      "##iment": 9139,
      "everything": 9140,
      "diff": 9141,
      "hex": 9142,
      "generation": 9143,
      "##66": 9144,
      "##lex": 9145,
      "save": 9146,
      "##urity": 9147,
      "remov": 9148,
      "ye": 9149,
      "included": 9150,
      "##urs": 9151,
      "u64": 9152,
      "##37": 9153,
      "power": 9154,
      "pret": 9155,
      "tokens": 9156,
      "tcp": 9157,
      "png": 9158,
      "##sembly": 9159,
      "f32": 9160,
      "necess": 9161,
      "apply": 9162,
      "reader": 9163,
      "convers": 9164,
      "##tle": 9165,
      "remote": 9166,
      "demo": 9167,
      "stored": 9168,
      "dynamic": 9169,
      "auto": 9170,
      "##host": 9171,
      "happ": 9172,
      "##li": 9173,
      "fs": 9174,
      "binaries": 9175,
      "fork": 9176,
      "transaction": 9177,
      "cert": 9178,
      "pk": 9179,
      "##man": 9180,
      "tasks": 9181,
      "deploy": 9182,
      "##ifier": 9183,
      "benchmark": 9184,
      "##builder": 9185,
      "audio": 9186,
      "prel": 9187,
      "existing": 9188,
      "wait": 9189,
      "saf": 9190,
      "##buf": 9191,
      "xml": 9192,
      "fetch": 9193,
      "until": 9194,
      "feed": 9195,
      "notes": 9196,
      "##fil": 9197,
      "##aim": 9198,
      "##met": 9199,
      "hist": 9200,
      "null": 9201,
      "##writ": 9202,
      "whether": 9203,
      "##icate": 9204,
      "associ": 9205,
      "ali": 9206,
      "rustc": 9207,
      "less": 9208,
      "csv": 9209,
      "v0": 9210,
      "##br": 9211,
      "master": 9212,
      "##rod": 9213,
      "##cont": 9214,
      "##conf": 9215,
      "book": 9216,
      "threads": 9217,
      "rev": 9218,
      "proc": 9219,
      "readme": 9220,
      "tre": 9221,
      "success": 9222,
      "##ding": 9223,
      "postgr": 9224,
      "making": 9225,
      "layer": 9226,
      "turn": 9227,
      "##ased": 9228,
      "width": 9229,
      "exit": 9230,
      "developer": 9231,
      "console": 9232,
      "prelude": 9233,
      "expression": 9234,
      "contributions": 9235,
      "failed": 9236,
      "25": 9237,
      "##iate": 9238,
      "40": 9239,
      "utf": 9240,
      "against": 9241,
      "##we": 9242,
      "##84": 9243,
      "bits": 9244,
      "security": 9245,
      "amount": 9246,
      "reas": 9247,
      "bro": 9248,
      "##70": 9249,
      "itself": 9250,
      "properties": 9251,
      "0xf": 9252,
      "total": 9253,
      "several": 9254,
      "contact": 9255,
      "tags": 9256,
      "matrix": 9257,
      "verify": 9258,
      "flow": 9259,
      "##wh": 9260,
      "counter": 9261,
      "postgres": 9262,
      "##uzz": 9263,
      "problem": 9264,
      "compar": 9265,
      "settings": 9266,
      "##ath": 9267,
      "setting": 9268,
      "later": 9269,
      "##ank": 9270,
      "quest": 9271,
      "yes": 9272,
      "##opt": 9273,
      "##type": 9274,
      "experiment": 9275,
      "rfc": 9276,
      "signature": 9277,
      "efficient": 9278,
      "includes": 9279,
      "speed": 9280,
      "##aving": 9281,
      "compiled": 9282,
      "##ble": 9283,
      "##elog": 9284,
      "regex": 9285,
      "futures": 9286,
      "avoid": 9287,
      "special": 9288,
      "##35": 9289,
      "interp": 9290,
      "##fo": 9291,
      "normal": 9292,
      "large": 9293,
      "##ium": 9294,
      "cf": 9295,
      "management": 9296,
      "##red": 9297,
      "##89": 9298,
      "##ances": 9299,
      "worksp": 9300,
      "logging": 9301,
      "##ites": 9302,
      "##ric": 9303,
      "asynchronous": 9304,
      "sudo": 9305,
      "##nd": 9306,
      "##ulation": 9307,
      "ui": 9308,
      "hal": 9309,
      "combin": 9310,
      "designed": 9311,
      "three": 9312,
      "cannot": 9313,
      "div": 9314,
      "probably": 9315,
      "actual": 9316,
      "algorithms": 9317,
      "benchmarks": 9318,
      "lot": 9319,
      "row": 9320,
      "cent": 9321,
      "##igr": 9322,
      "socket": 9323,
      "fur": 9324,
      "##allel": 9325,
      "##amm": 9326,
      "overview": 9327,
      "missing": 9328,
      "great": 9329,
      "handler": 9330,
      "ep": 9331,
      "font": 9332,
      "##fl": 9333,
      "##rs": 9334,
      "simpl": 9335,
      "##ately": 9336,
      "##code": 9337,
      "rule": 9338,
      "purpose": 9339,
      "though": 9340,
      "providing": 9341,
      "utilities": 9342,
      "la": 9343,
      "##bl": 9344,
      "unix": 9345,
      "alph": 9346,
      "desk": 9347,
      "##85": 9348,
      "inspired": 9349,
      "yaml": 9350,
      "modules": 9351,
      "##pg": 9352,
      "##actions": 9353,
      "defaults": 9354,
      "internal": 9355,
      "constant": 9356,
      "side": 9357,
      "sets": 9358,
      "##ground": 9359,
      "##39": 9360,
      "primit": 9361,
      "persist": 9362,
      "too": 9363,
      "temp": 9364,
      "22": 9365,
      "stop": 9366,
      "di": 9367,
      "related": 9368,
      "pi": 9369,
      "draw": 9370,
      "necessary": 9371,
      "##arant": 9372,
      "##cle": 9373,
      "workflow": 9374,
      "decode": 9375,
      "changelog": 9376,
      "pure": 9377,
      "ensure": 9378,
      "##ety": 9379,
      "actions": 9380,
      "owned": 9381,
      "requirements": 9382,
      "200": 9383,
      "proxy": 9384,
      "configure": 9385,
      "##min": 9386,
      "serialization": 9387,
      "further": 9388,
      "reserved": 9389,
      "encode": 9390,
      "##rie": 9391,
      "meas": 9392,
      "ans": 9393,
      "21": 9394,
      "pretty": 9395,
      "2020": 9396,
      "closure": 9397,
      "known": 9398,
      "intended": 9399,
      "expl": 9400,
      "cell": 9401,
      "sens": 9402,
      "##izing": 9403,
      "conven": 9404,
      "##ape": 9405,
      "math": 9406,
      "mean": 9407,
      "did": 9408,
      "linkedlist": 9409,
      "coverage": 9410,
      "runs": 9411,
      "codec": 9412,
      "##77": 9413,
      "representation": 9414,
      "stdout": 9415,
      "executable": 9416,
      "correspon": 9417,
      "##36": 9418,
      "amaz": 9419,
      "passed": 9420,
      "final": 9421,
      "##88": 9422,
      "##itive": 9423,
      "arbit": 9424,
      "contin": 9425,
      "calling": 9426,
      "ful": 9427,
      "##pace": 9428,
      "credential": 9429,
      "present": 9430,
      "##gin": 9431,
      "hashmap": 9432,
      "attributes": 9433,
      "complet": 9434,
      "##m32": 9435,
      "transform": 9436,
      "uni": 9437,
      "previous": 9438,
      "policy": 9439,
      "├──": 9440,
      "implementing": 9441,
      "sequence": 9442,
      "##ored": 9443,
      "helper": 9444,
      "##ged": 9445,
      "##fr": 9446,
      "##ves": 9447,
      "arbitr": 9448,
      "characters": 9449,
      "encoded": 9450,
      "##lib": 9451,
      "formats": 9452,
      "##pm": 9453,
      "dest": 9454,
      "##a2": 9455,
      "vide": 9456,
      "changed": 9457,
      "##net": 9458,
      "addr": 9459,
      "##itter": 9460,
      "win": 9461,
      "##uff": 9462,
      "checks": 9463,
      "##ograph": 9464,
      "retrie": 9465,
      "kern": 9466,
      "headers": 9467,
      "guarant": 9468,
      "specification": 9469,
      "##gate": 9470,
      "evalu": 9471,
      "pix": 9472,
      "bus": 9473,
      "quer": 9474,
      "due": 9475,
      "ear": 9476,
      "imag": 9477,
      "execution": 9478,
      "proced": 9479,
      "borrow": 9480,
      "##ua": 9481,
      "during": 9482,
      "rgb": 9483,
      "##ump": 9484,
      "cy": 9485,
      "migr": 9486,
      "##omic": 9487,
      "kernel": 9488,
      "dot": 9489,
      "foc": 9490,
      "redis": 9491,
      "span": 9492,
      "expos": 9493,
      "lik": 9494,
      "seconds": 9495,
      "links": 9496,
      "split": 9497,
      "##irt": 9498,
      "aim": 9499,
      "modify": 9500,
      "containing": 9501,
      "##uss": 9502,
      "detect": 9503,
      "cir": 9504,
      "produc": 9505,
      "##imes": 9506,
      "iterator": 9507,
      "downloads": 9508,
      "column": 9509,
      "words": 9510,
      "were": 9511,
      "##etime": 9512,
      "blocks": 9513,
      "age": 9514,
      "never": 9515,
      "##esh": 9516,
      "##empt": 9517,
      "localhost": 9518,
      "creates": 9519,
      "platforms": 9520,
      "##known": 9521,
      "generates": 9522,
      "##ui": 9523,
      "##96": 9524,
      "float": 9525,
      "ctx": 9526,
      "returned": 9527,
      "capt": 9528,
      "dep": 9529,
      "associated": 9530,
      "fri": 9531,
      "ca": 9532,
      "##gl": 9533,
      "rustup": 9534,
      "##ift": 9535,
      "timest": 9536,
      "##mod": 9537,
      "mill": 9538,
      "proto": 9539,
      "paths": 9540,
      "ve": 9541,
      "##config": 9542,
      "##2c": 9543,
      "plugins": 9544,
      "usually": 9545,
      "anything": 9546,
      "desired": 9547,
      "unic": 9548,
      "external": 9549,
      "ask": 9550,
      "unknown": 9551,
      "##tk": 9552,
      "primary": 9553,
      "learn": 9554,
      "prior": 9555,
      "super": 9556,
      "focus": 9557,
      "##74": 9558,
      "##older": 9559,
      "##verse": 9560,
      "##iction": 9561,
      "improve": 9562,
      "##ram": 9563,
      "##data": 9564,
      "updates": 9565,
      "##oose": 9566,
      "actix": 9567,
      "##ivid": 9568,
      "##ateg": 9569,
      "chun": 9570,
      "tet": 9571,
      "##lab": 9572,
      "inner": 9573,
      "##lin": 9574,
      "permissions": 9575,
      "cho": 9576,
      "podcast": 9577,
      "arbitrary": 9578,
      "batch": 9579,
      "##uid": 9580,
      "manually": 9581,
      "scripts": 9582,
      "faster": 9583,
      "rpc": 9584,
      "layout": 9585,
      "##ience": 9586,
      "v2": 9587,
      "processing": 9588,
      "browser": 9589,
      "logger": 9590,
      "entity": 9591,
      "consist": 9592,
      "media": 9593,
      "respective": 9594,
      "parallel": 9595,
      "entr": 9596,
      "##54": 9597,
      "smart": 9598,
      "##imal": 9599,
      "switch": 9600,
      "oauth": 9601,
      "amazon": 9602,
      "##rics": 9603,
      "verb": 9604,
      "clust": 9605,
      "dim": 9606,
      "transl": 9607,
      "fuzz": 9608,
      "follows": 9609,
      "tx": 9610,
      "site": 9611,
      "discord": 9612,
      "##atic": 9613,
      "##assembly": 9614,
      "programs": 9615,
      "##gre": 9616,
      "reason": 9617,
      "##core": 9618,
      "mag": 9619,
      "##itect": 9620,
      "2022": 9621,
      "##iddle": 9622,
      "##aced": 9623,
      "individ": 9624,
      "friend": 9625,
      "##igned": 9626,
      "trace": 9627,
      "##cs": 9628,
      "clean": 9629,
      "logic": 9630,
      "generating": 9631,
      "##yz": 9632,
      "introd": 9633,
      "##90": 9634,
      "packages": 9635,
      "mo": 9636,
      "##for": 9637,
      "partial": 9638,
      "##head": 9639,
      "##unch": 9640,
      "signal": 9641,
      "##atively": 9642,
      "##76": 9643,
      "rate": 9644,
      "az": 9645,
      "##ifi": 9646,
      "##coin": 9647,
      "dns": 9648,
      "languages": 9649,
      "toolchain": 9650,
      "##scrib": 9651,
      "rad": 9652,
      "plan": 9653,
      "obtain": 9654,
      "effect": 9655,
      "##cd": 9656,
      "assets": 9657,
      "callback": 9658,
      "poly": 9659,
      "watch": 9660,
      "entire": 9661,
      "fully": 9662,
      "architect": 9663,
      "da": 9664,
      "recommended": 9665,
      "flex": 9666,
      "##js": 9667,
      "2021": 9668,
      "badge": 9669,
      "##pp": 9670,
      "disk": 9671,
      "virt": 9672,
      "##oot": 9673,
      "agent": 9674,
      "certain": 9675,
      "certific": 9676,
      "0xff": 9677,
      "matching": 9678,
      "button": 9679,
      "webassembly": 9680,
      "allowing": 9681,
      "writer": 9682,
      "workspace": 9683,
      "##ird": 9684,
      "least": 9685,
      "##alk": 9686,
      "ready": 9687,
      "higher": 9688,
      "arm": 9689,
      "height": 9690,
      "username": 9691,
      "authentic": 9692,
      "##itor": 9693,
      "23": 9694,
      "##ute": 9695,
      "accord": 9696,
      "goal": 9697,
      "proof": 9698,
      "asci": 9699,
      "shad": 9700,
      "skip": 9701,
      "##pack": 9702,
      "builds": 9703,
      "sur": 9704,
      "actor": 9705,
      "##cons": 9706,
      "maxim": 9707,
      "grant": 9708,
      "attempt": 9709,
      "fill": 9710,
      "rather": 9711,
      "sched": 9712,
      "##log": 9713,
      "cfg": 9714,
      "lam": 9715,
      "scal": 9716,
      "references": 9717,
      "02": 9718,
      "experimental": 9719,
      "recurs": 9720,
      "excl": 9721,
      "##aps": 9722,
      "ax": 9723,
      "directories": 9724,
      "##ll": 9725,
      "chat": 9726,
      "updated": 9727,
      "mock": 9728,
      "##emon": 9729,
      "pointer": 9730,
      "##top": 9731,
      "points": 9732,
      "beta": 9733,
      "enter": 9734,
      "##60": 9735,
      "svg": 9736,
      "##umer": 9737,
      "finish": 9738,
      "sugg": 9739,
      "respons": 9740,
      "##ently": 9741,
      "pixel": 9742,
      "wik": 9743,
      "##allet": 9744,
      "instant": 9745,
      "inputs": 9746,
      "bash": 9747,
      "occ": 9748,
      "forward": 9749,
      "##rv": 9750,
      "lex": 9751,
      "##anc": 9752,
      "website": 9753,
      "vert": 9754,
      "buck": 9755,
      "##44": 9756,
      "##ana": 9757,
      "##ascript": 9758,
      "inval": 9759,
      "##over": 9760,
      "regular": 9761,
      "trig": 9762,
      "definition": 9763,
      "shown": 9764,
      "##serv": 9765,
      "typed": 9766,
      "repe": 9767,
      "weight": 9768,
      "##ism": 9769,
      "maj": 9770,
      "according": 9771,
      "dou": 9772,
      "heav": 9773,
      "fire": 9774,
      "released": 9775,
      "##dp": 9776,
      "screen": 9777,
      "##gers": 9778,
      "give": 9779,
      "1000": 9780,
      "rendering": 9781,
      "origin": 9782,
      "sle": 9783,
      "really": 9784,
      "cost": 9785,
      "important": 9786,
      "published": 9787,
      "##════════": 9788,
      "curs": 9789,
      "offset": 9790,
      "choose": 9791,
      "video": 9792,
      "append": 9793,
      "interpret": 9794,
      "tracing": 9795,
      "metrics": 9796,
      "arc": 9797,
      "hold": 9798,
      "##light": 9799,
      "mail": 9800,
      "production": 9801,
      "middle": 9802,
      "mus": 9803,
      "##72": 9804,
      "matches": 9805,
      "llvm": 9806,
      "behavior": 9807,
      "comment": 9808,
      "curl": 9809,
      "having": 9810,
      "tin": 9811,
      "concur": 9812,
      "##rec": 9813,
      "pipel": 9814,
      "old": 9815,
      "##dd": 9816,
      "markdown": 9817,
      "##ev": 9818,
      "##ots": 9819,
      "queries": 9820,
      "hum": 9821,
      "begin": 9822,
      "##kit": 9823,
      "editor": 9824,
      "den": 9825,
      "##istic": 9826,
      "unicode": 9827,
      "adap": 9828,
      "quot": 9829,
      "looking": 9830,
      "vol": 9831,
      "invalid": 9832,
      "pc": 9833,
      "seg": 9834,
      "##press": 9835,
      "09": 9836,
      "##ari": 9837,
      "rt": 9838,
      "##request": 9839,
      "major": 9840,
      "background": 9841,
      "along": 9842,
      "outputs": 9843,
      "parsed": 9844,
      "separate": 9845,
      "##roid": 9846,
      "img": 9847,
      "05": 9848,
      "deal": 9849,
      "adds": 9850,
      "##ouse": 9851,
      "##abil": 9852,
      "trav": 9853,
      "seed": 9854,
      "actually": 9855,
      "##field": 9856,
      "wip": 9857,
      "##ral": 9858,
      "##ai": 9859,
      "clear": 9860,
      "procedural": 9861,
      "sleep": 9862,
      "mb": 9863,
      "comes": 9864,
      "compiling": 9865,
      "merge": 9866,
      "tech": 9867,
      "colors": 9868,
      "apps": 9869,
      "visual": 9870,
      "esp": 9871,
      "rou": 9872,
      "##unt": 9873,
      "accounts": 9874,
      "warning": 9875,
      "##ving": 9876,
      "fit": 9877,
      "rustls": 9878,
      "fold": 9879,
      "board": 9880,
      "##ah": 9881,
      "contribute": 9882,
      "##result": 9883,
      "limited": 9884,
      "##oke": 9885,
      "##idge": 9886,
      "datas": 9887,
      "definitions": 9888,
      "##sec": 9889,
      "encryption": 9890,
      "unique": 9891,
      "javascript": 9892,
      "configured": 9893,
      "numer": 9894,
      "annot": 9895,
      "heap": 9896,
      "extra": 9897,
      "payload": 9898,
      "permission": 9899,
      "exactly": 9900,
      "eg": 9901,
      "logs": 9902,
      "binding": 9903,
      "subscrib": 9904,
      "disable": 9905,
      "##eg": 9906,
      "admin": 9907,
      "credentials": 9908,
      "plain": 9909,
      "individual": 9910,
      "##⠀⠀": 9911,
      "coord": 9912,
      "little": 9913,
      "virtual": 9914,
      "##ma": 9915,
      "starting": 9916,
      "##94": 9917,
      "suggest": 9918,
      "comments": 9919,
      "compilation": 9920,
      "css": 9921,
      "registry": 9922,
      "close": 9923,
      "04": 9924,
      "incom": 9925,
      "peripher": 9926,
      "ub": 9927,
      "##hip": 9928,
      "secure": 9929,
      "##78": 9930,
      "installing": 9931,
      "60": 9932,
      "meta": 9933,
      "entries": 9934,
      "region": 9935,
      "placeh": 9936,
      "##dir": 9937,
      "packet": 9938,
      "timestamp": 9939,
      "thanks": 9940,
      "##olog": 9941,
      "failure": 9942,
      "likely": 9943,
      "mp": 9944,
      "##ival": 9945,
      "##resh": 9946,
      "pot": 9947,
      "##leq": 9948,
      "easier": 9949,
      "discuss": 9950,
      "measure": 9951,
      "exists": 9952,
      "squ": 9953,
      "gramm": 9954,
      "expr": 9955,
      "conversion": 9956,
      "java": 9957,
      "est": 9958,
      "liter": 9959,
      "front": 9960,
      "consumer": 9961,
      "pred": 9962,
      "subject": 9963,
      "azure": 9964,
      "claim": 9965,
      "maximum": 9966,
      "thing": 9967,
      "##izes": 9968,
      "nat": 9969,
      "##fb": 9970,
      "bund": 9971,
      "##ialeq": 9972,
      "corresponding": 9973,
      "zip": 9974,
      "##aper": 9975,
      "instances": 9976,
      "esc": 9977,
      "fmt": 9978,
      "##ination": 9979,
      "validate": 9980,
      "params": 9981,
      "##umb": 9982,
      "lower": 9983,
      "launch": 9984,
      "tmp": 9985,
      "##nost": 9986,
      "scale": 9987,
      "partialeq": 9988,
      "##way": 9989,
      "card": 9990,
      "##lying": 9991,
      "##oss": 9992,
      "property": 9993,
      "variants": 9994,
      "won": 9995,
      "models": 9996,
      "##etimes": 9997,
      "##case": 9998,
      "history": 9999,
      "##13": 10000,
      "prefer": 10001,
      "groups": 10002,
      "ping": 10003,
      "##52": 10004,
      "alias": 10005,
      "led": 10006,
      "##iter": 10007,
      "##plied": 10008,
      "archive": 10009,
      "router": 10010,
      "slow": 10011,
      "player": 10012,
      "isn": 10013,
      "##eck": 10014,
      "questions": 10015,
      "##fully": 10016,
      "activities": 10017,
      "channels": 10018,
      "considered": 10019,
      "##ym": 10020,
      "cryptograph": 10021,
      "##cell": 10022,
      "##⣿⣿": 10023,
      "documents": 10024,
      "pkg": 10025,
      "apt": 10026,
      "clients": 10027,
      "digit": 10028,
      "attach": 10029,
      "2019": 10030,
      "##och": 10031,
      "android": 10032,
      "targets": 10033,
      "##notes": 10034,
      "extensions": 10035,
      "compatibility": 10036,
      "say": 10037,
      "tiny": 10038,
      "adj": 10039,
      "validation": 10040,
      "safety": 10041,
      "##rant": 10042,
      "##79": 10043,
      "templates": 10044,
      "timeout": 10045,
      "communication": 10046,
      "##base": 10047,
      "abs": 10048,
      "login": 10049,
      "##string": 10050,
      "extend": 10051,
      "ascii": 10052,
      "printed": 10053,
      "configur": 10054,
      "compression": 10055,
      "games": 10056,
      "press": 10057,
      "share": 10058,
      "quant": 10059,
      "applicable": 10060,
      "##where": 10061,
      "organ": 10062,
      "defines": 10063,
      "26": 10064,
      "##ulk": 10065,
      "##info": 10066,
      "ipv": 10067,
      "scan": 10068,
      "##ek": 10069,
      "0x0": 10070,
      "dimens": 10071,
      "##epend": 10072,
      "across": 10073,
      "bal": 10074,
      "sources": 10075,
      "##acy": 10076,
      "##era": 10077,
      "expressions": 10078,
      "##aft": 10079,
      "approach": 10080,
      "car": 10081,
      "prompt": 10082,
      "##82": 10083,
      "timer": 10084,
      "limitations": 10085,
      "ease": 10086,
      "analys": 10087,
      "active": 10088,
      "independ": 10089,
      "asset": 10090,
      "cluster": 10091,
      "ways": 10092,
      "##print": 10093,
      "##wer": 10094,
      "provider": 10095,
      "stores": 10096,
      "openssl": 10097,
      "edge": 10098,
      "listennotes": 10099,
      "scen": 10100,
      "overr": 10101,
      "executed": 10102,
      "manip": 10103,
      "filename": 10104,
      "rng": 10105,
      "##ined": 10106,
      "ignore": 10107,
      "ast": 10108,
      "ts": 10109,
      "##pth": 10110,
      "placeholder": 10111,
      "34": 10112,
      "tar": 10113,
      "notice": 10114,
      "manif": 10115,
      "stdin": 10116,
      "snap": 10117,
      "expand": 10118,
      "boot": 10119,
      "alternative": 10120,
      "chr": 10121,
      "hardware": 10122,
      "##arily": 10123,
      "subs": 10124,
      "aren": 10125,
      "day": 10126,
      "i64": 10127,
      "clon": 10128,
      "allocator": 10129,
      "leg": 10130,
      "##strain": 10131,
      "##entially": 10132,
      "rob": 10133,
      "##omet": 10134,
      "ones": 10135,
      "tuple": 10136,
      "laz": 10137,
      "receive": 10138,
      "tog": 10139,
      "blockchain": 10140,
      "blocking": 10141,
      "scheme": 10142,
      "linear": 10143,
      "alpha": 10144,
      "cach": 10145,
      "08": 10146,
      "36": 10147,
      "##ivers": 10148,
      "community": 10149,
      "du": 10150,
      "2d": 10151,
      "prec": 10152,
      "cam": 10153,
      "near": 10154,
      "bindgen": 10155,
      "together": 10156,
      "##mediate": 10157,
      "team": 10158,
      "manual": 10159,
      "equival": 10160,
      "jpg": 10161,
      "ss": 10162,
      "idea": 10163,
      "##hash": 10164,
      "enough": 10165,
      "vm": 10166,
      "##████": 10167,
      "transfer": 10168,
      "##128": 10169,
      "manifest": 10170,
      "##enum": 10171,
      "└──": 10172,
      "warrant": 10173,
      "fam": 10174,
      "mot": 10175,
      "underst": 10176,
      "frequ": 10177,
      "##ibly": 10178,
      "oauth2": 10179,
      "techn": 10180,
      "##ask": 10181,
      "cursor": 10182,
      "chip": 10183,
      "sock": 10184,
      "constrain": 10185,
      "initialize": 10186,
      "rol": 10187,
      "##ox": 10188,
      "uuid": 10189,
      "bsd": 10190,
      "sav": 10191,
      "removed": 10192,
      "bucket": 10193,
      "lambd": 10194,
      "reach": 10195,
      "servers": 10196,
      "peo": 10197,
      "##ensh": 10198,
      "##ocation": 10199,
      "ssh": 10200,
      "##ides": 10201,
      "##────────────────": 10202,
      "##ta": 10203,
      "##iod": 10204,
      "declar": 10205,
      "shows": 10206,
      "lists": 10207,
      "compos": 10208,
      "allowed": 10209,
      "##256": 10210,
      "received": 10211,
      "increment": 10212,
      "u16": 10213,
      "##tp": 10214,
      "##ison": 10215,
      "align": 10216,
      "##rency": 10217,
      "##2d": 10218,
      "click": 10219,
      "steps": 10220,
      "semant": 10221,
      "debugging": 10222,
      "cmd": 10223,
      "##thers": 10224,
      "remain": 10225,
      "fre": 10226,
      "##ka": 10227,
      "nix": 10228,
      "bridge": 10229,
      "##ges": 10230,
      "##change": 10231,
      "##def": 10232,
      "depth": 10233,
      "##ulator": 10234,
      "highlight": 10235,
      "bugs": 10236,
      "people": 10237,
      "256": 10238,
      "##1111": 10239,
      "doing": 10240,
      "##ane": 10241,
      "suit": 10242,
      "2018": 10243,
      "sqlite": 10244,
      "breaking": 10245,
      "aims": 10246,
      "monitor": 10247,
      "msrv": 10248,
      "255": 10249,
      "jw": 10250,
      "reduce": 10251,
      "##streamer": 10252,
      "trigger": 10253,
      "##ceed": 10254,
      "persistent": 10255,
      "##255": 10256,
      "feedback": 10257,
      "29": 10258,
      "##fort": 10259,
      "blob": 10260,
      "lua": 10261,
      "coll": 10262,
      "03": 10263,
      "looks": 10264,
      "##75": 10265,
      "delay": 10266,
      "retrieve": 10267,
      "connections": 10268,
      "codes": 10269,
      "instruction": 10270,
      "##xxxx": 10271,
      "peer": 10272,
      "analysis": 10273,
      "concept": 10274,
      "checking": 10275,
      "relative": 10276,
      "summ": 10277,
      "double": 10278,
      "series": 10279,
      "##━━": 10280,
      "es": 10281,
      "##untu": 10282,
      "##wd": 10283,
      "going": 10284,
      "learning": 10285,
      "usr": 10286,
      "rocket": 10287,
      "##weight": 10288,
      "grammar": 10289,
      "##gon": 10290,
      "profil": 10291,
      "reads": 10292,
      "authors": 10293,
      "##ledge": 10294,
      "interval": 10295,
      "integers": 10296,
      "produce": 10297,
      "ids": 10298,
      "think": 10299,
      "transport": 10300,
      "##hing": 10301,
      "suite": 10302,
      "depends": 10303,
      "therefore": 10304,
      "past": 10305,
      "##off": 10306,
      "delegate": 10307,
      "flat": 10308,
      "widget": 10309,
      "ink": 10310,
      "apple": 10311,
      "##rupt": 10312,
      "verbose": 10313,
      "##server": 10314,
      "cc": 10315,
      "##38": 10316,
      "##add": 10317,
      "formatting": 10318,
      "upgr": 10319,
      "##uck": 10320,
      "care": 10321,
      "architecture": 10322,
      "strong": 10323,
      "ubuntu": 10324,
      "distance": 10325,
      "##sql": 10326,
      "star": 10327,
      "31": 10328,
      "secrets": 10329,
      "round": 10330,
      "##anced": 10331,
      "##ulate": 10332,
      "tetcore": 10333,
      "recommend": 10334,
      "##cel": 10335,
      "decoding": 10336,
      "decrypt": 10337,
      "cause": 10338,
      "distribution": 10339,
      "developers": 10340,
      "identity": 10341,
      "environments": 10342,
      "month": 10343,
      "soon": 10344,
      "route": 10345,
      "score": 10346,
      "0x00": 10347,
      "lambda": 10348,
      "happen": 10349,
      "123": 10350,
      "stud": 10351,
      "128": 10352,
      "guard": 10353,
      "gets": 10354,
      "understand": 10355,
      "clock": 10356,
      "approp": 10357,
      "abstraction": 10358,
      "s3": 10359,
      "convenient": 10360,
      "iam": 10361,
      "##uction": 10362,
      "##╌╌╌╌╌╌╌╌": 10363,
      "signed": 10364,
      "tables": 10365,
      "##ield": 10366,
      "nested": 10367,
      "gstreamer": 10368,
      "sa": 10369,
      "arrays": 10370,
      "atomic": 10371,
      "described": 10372,
      "appropri": 10373,
      "##ood": 10374,
      "inline": 10375,
      "builders": 10376,
      "maybe": 10377,
      "##text": 10378,
      "##92": 10379,
      "44": 10380,
      "sound": 10381,
      "thus": 10382,
      "##mut": 10383,
      "stm32": 10384,
      "creation": 10385,
      "##ref": 10386,
      "##asm": 10387,
      "filesystem": 10388,
      "reports": 10389,
      "##value": 10390,
      "##bc": 10391,
      "minor": 10392,
      "interfaces": 10393,
      "27": 10394,
      "live": 10395,
      "##ert": 10396,
      "pipeline": 10397,
      "goals": 10398,
      "##bre": 10399,
      "retry": 10400,
      "coordin": 10401,
      "ol": 10402,
      "28": 10403,
      "##rt": 10404,
      "na": 10405,
      "tab": 10406,
      "utc": 10407,
      "lightweight": 10408,
      "identifier": 10409,
      "##idden": 10410,
      "cos": 10411,
      "depending": 10412,
      "certificate": 10413,
      "contracts": 10414,
      "equal": 10415,
      "tele": 10416,
      "tell": 10417,
      "blue": 10418,
      "allocation": 10419,
      "green": 10420,
      "equivalent": 10421,
      "mount": 10422,
      "tun": 10423,
      "##iver": 10424,
      "sending": 10425,
      "crypto": 10426,
      "##client": 10427,
      "mapping": 10428,
      "##nostic": 10429,
      "##ational": 10430,
      "uri": 10431,
      "tri": 10432,
      "lookup": 10433,
      "detailed": 10434,
      "rm": 10435,
      "##gp": 10436,
      "udp": 10437,
      "often": 10438,
      "choice": 10439,
      "force": 10440,
      "##ume": 10441,
      "##pers": 10442,
      "curve": 10443,
      "bitcoin": 10444,
      "streams": 10445,
      "graphics": 10446,
      "##wards": 10447,
      "##env": 10448,
      "##connect": 10449,
      "middleware": 10450,
      "ris": 10451,
      "##bar": 10452,
      "##uous": 10453,
      "pages": 10454,
      "ls": 10455,
      "##48": 10456,
      "disabled": 10457,
      "sat": 10458,
      "patterns": 10459,
      "##3d": 10460,
      "underlying": 10461,
      "07": 10462,
      "1234": 10463,
      "samples": 10464,
      "##write": 10465,
      "far": 10466,
      "ps": 10467,
      "rc": 10468,
      "##vers": 10469,
      "codecov": 10470,
      "early": 10471,
      "diction": 10472,
      "mech": 10473,
      "desktop": 10474,
      "pdf": 10475,
      "##25519": 10476,
      "year": 10477,
      "generally": 10478,
      "sometimes": 10479,
      "##cr": 10480,
      "conduct": 10481,
      "ren": 10482,
      "optimized": 10483,
      "compute": 10484,
      "deprec": 10485,
      "trust": 10486,
      "ord": 10487,
      "##used": 10488,
      "plot": 10489,
      "possibly": 10490,
      "worker": 10491,
      "independent": 10492,
      "review": 10493,
      "modified": 10494,
      "websocket": 10495,
      "loading": 10496,
      "boo": 10497,
      "unst": 10498,
      "strict": 10499,
      "gui": 10500,
      "##59": 10501,
      "verification": 10502,
      "##eet": 10503,
      "rot": 10504,
      "reset": 10505,
      "screensh": 10506,
      "##ager": 10507,
      "56": 10508,
      "##ags": 10509,
      "rusty": 10510,
      "supporting": 10511,
      "##31": 10512,
      "computer": 10513,
      "records": 10514,
      "optionally": 10515,
      "ul": 10516,
      "iso": 10517,
      "human": 10518,
      "fall": 10519,
      "##ube": 10520,
      "protocols": 10521,
      "##consumer": 10522,
      "##u8": 10523,
      "##58": 10524,
      "third": 10525,
      "operating": 10526,
      "##a1": 10527,
      "##west": 10528,
      "executor": 10529,
      "ignored": 10530,
      "##ially": 10531,
      "gpio": 10532,
      "jobs": 10533,
      "concurrent": 10534,
      "others": 10535,
      "addresses": 10536,
      "##ins": 10537,
      "yourself": 10538,
      "longer": 10539,
      "##response": 10540,
      "gitlab": 10541,
      "nan": 10542,
      "suff": 10543,
      "deriv": 10544,
      "transactions": 10545,
      "3d": 10546,
      "enums": 10547,
      "appropriate": 10548,
      "passing": 10549,
      "##abilities": 10550,
      "##ending": 10551,
      "aff": 10552,
      "##roll": 10553,
      "##ats": 10554,
      "maps": 10555,
      "interactive": 10556,
      "sig": 10557,
      "##ense": 10558,
      "tick": 10559,
      "##ren": 10560,
      "##orter": 10561,
      "encrypted": 10562,
      "primitives": 10563,
      "friendly": 10564,
      "##lock": 10565,
      "warn": 10566,
      "sect": 10567,
      "i2c": 10568,
      "meant": 10569,
      "48": 10570,
      "contributors": 10571,
      "chunk": 10572,
      "06": 10573,
      "##0000000000000000": 10574,
      "ff": 10575,
      "##rust": 10576,
      "buff": 10577,
      "lead": 10578,
      "decoder": 10579,
      "lazy": 10580,
      "ptr": 10581,
      "clause": 10582,
      "overhead": 10583,
      "disp": 10584,
      "##poses": 10585,
      "pract": 10586,
      "##anned": 10587,
      "cipher": 10588,
      "fac": 10589,
      "semver": 10590,
      "unstable": 10591,
      "problems": 10592,
      "##aq": 10593,
      "nothing": 10594,
      "kinds": 10595,
      "##path": 10596,
      "##acity": 10597,
      "wallet": 10598,
      "developed": 10599,
      "svd": 10600,
      "tile": 10601,
      "blog": 10602,
      "mesh": 10603,
      "##book": 10604,
      "analyz": 10605,
      "condition": 10606,
      "##mm": 10607,
      "##ra": 10608,
      "automatic": 10609,
      "reverse": 10610,
      "invoke": 10611,
      "bt": 10612,
      "##most": 10613,
      "gpu": 10614,
      "processes": 10615,
      "##ener": 10616,
      "snapsh": 10617,
      "mom": 10618,
      "stuff": 10619,
      "eth": 10620,
      "diag": 10621,
      "mk": 10622,
      "filters": 10623,
      "functional": 10624,
      "boole": 10625,
      "hook": 10626,
      "rename": 10627,
      "##68": 10628,
      "period": 10629,
      "bob": 10630,
      "##bbbb": 10631,
      "black": 10632,
      "mutable": 10633,
      "represented": 10634,
      "conn": 10635,
      "ability": 10636,
      "##pool": 10637,
      "##01": 10638,
      "##dev": 10639,
      "##bor": 10640,
      "##ae": 10641,
      "alice": 10642,
      "##ones": 10643,
      "trying": 10644,
      "##orial": 10645,
      "tod": 10646,
      "anim": 10647,
      "reqwest": 10648,
      "decimal": 10649,
      "assign": 10650,
      "mostly": 10651,
      "comparison": 10652,
      "compl": 10653,
      "mid": 10654,
      "##graph": 10655,
      "listed": 10656,
      "##iler": 10657,
      "spe": 10658,
      "locally": 10659,
[...]
