{
  "version": "1.0",
  "truncation": null,
  "padding": {
    "strategy": "BatchLongest",
    "direction": "Right",
    "pad_to_multiple_of": null,
    "pad_id": 0,
    "pad_type_id": 0,
    "pad_token": "[PAD]"
  },
  "added_tokens": [
    {
      "id": 0,
      "content": "[PAD]",
      "single_word": false,
      "lstrip": false,
      "rstrip": false,
      "normalized": false,
      "special": true
    },
    {
      "id": 1,
      "content": "[UNK]",
      "single_word": false,
      "lstrip": false,
      "rstrip": false,
      "normalized": false,
      "special": true
    }
  ],
  "normalizer": {
    "type": "BertNormalizer",
    "clean_text": true,
    "handle_chinese_chars": true,
    "strip_accents": true,
    "lowercase": true
  },
  "pre_tokenizer": {
    "type": "BertPreTokenizer"
  },
  "post_processor": null,
  "decoder": {
    "type": "WordPiece",
    "prefix": "##",
    "cleanup": true
  },
  "model": {
    "type": "WordPiece",
    "unk_token": "[UNK]",
    "continuing_subword_prefix": "##",
    "max_input_chars_per_word": 100,
    "vocab": {
      "[PAD]": 0,
      "[UNK]": 1,
      "!": 2,
      "\"": 3,
      "'": 4,
      "(": 5,
      ")": 6,
      "*": 7,
      "+": 8,
      ",": 9,
      "-": 10,
      ".": 11,
      "/": 12,
      "0": 13,
      "1": 14,
      "2": 15,
      "3": 16,
      "4": 17,
      "5": 18,
      "6": 19,
      "7": 20,
      "8": 21,
      "9": 22,
      ":": 23,
      ";": 24,
      "<": 25,
      ">": 26,
      "?": 27,
      "[": 28,
      "]": 29,
      "a": 30,
      "b": 31,
      "c": 32,
      "d": 33,
      "e": 34,
      "f": 35,
      "g": 36,
      "h": 37,
      "i": 38,
      "j": 39,
      "k": 40,
      "l": 41,
      "m": 42,
      "n": 43,
      "o": 44,
      "p": 45,
      "q": 46,
      "r": 47,
      "s": 48,
      "t": 49,
      "u": 50,
      "v": 51,
      "w": 52,
      "x": 53,
      "y": 54,
      "z": 55,
      "{": 56,
      "}": 57,
      "##9": 58,
      "##6": 59,
      "##3": 60,
      "##e": 61,
      "##t": 62,
      "##a": 63,
      "##s": 64,
      "##o": 65,
      "##d": 66,
      "##l": 67,
      "##y": 68,
      "##n": 69,
      "##r": 70,
      "##i": 71,
      "##u": 72,
      "##p": 73,
      "##v": 74,
      "##h": 75,
      "##m": 76,
      "##b": 77,
      "##f": 78,
      "##c": 79,
      "##1": 80,
      "##0": 81,
      "##8": 82,
      "##w": 83,
      "##g": 84,
      "##k": 85,
      "##z": 86,
      "##5": 87,
      "##4": 88,
      "##7": 89,
      "##x": 90,
      "##2": 91,
      "##j": 92,
      "##q": 93,
      "##er": 94,
      "##on": 95,
      "##es": 96,
      "th": 97,
      "##at": 98,
      "##in": 99,
      "##en": 100,
      "##or": 101,
      "the": 102,
      "##ion": 103,
      "##it": 104,
      "##ed": 105,
      "##le": 106,
      "##st": 107,
      "in": 108,
      "##ing": 109,
      "##ar": 110,
      "to": 111,
      "##al": 112,
      "##an": 113,
      "##et": 114,
      "##ou": 115,
      "##ic": 116,
      "an": 117,
      "##re": 118,
      "##se": 119,
      "##om": 120,
      "re": 121,
      "##ct": 122,
      "##ent": 123,
      "##il": 124,
      "##ut": 125,
      "for": 126,
      "##ro": 127,
      "st": 128,
      "##am": 129,
      "and": 130,
      "##ad": 131,
      "##is": 132,
      "of": 133,
      "##ri": 134,
      "is": 135,
      "##ation": 136,
      "##ac": 137,
      "##pt": 138,
      "##el": 139,
      "you": 140,
      "##ate": 141,
      "con": 142,
      "de": 143,
      "##ith": 144,
      "##as": 145,
      "##od": 146,
      "ex": 147,
      "##lo": 148,
      "ru": 149,
      "##ag": 150,
      "pro": 151,
      "as": 152,
      "##ly": 153,
      "##ur": 154,
      "##ul": 155,
      "us": 156,
      "##ol": 157,
      "##ec": 158,
      "##ot": 159,
      "##me": 160,
      "##ment": 161,
      "com": 162,
      "li": 163,
      "al": 164,
      "##ption": 165,
      "##ple": 166,
      "this": 167,
      "be": 168,
      "##ers": 169,
      "it": 170,
      "on": 171,
      "with": 172,
      "##id": 173,
      "##ab": 174,
      "##ch": 175,
      "##est": 176,
      "##oc": 177,
      "read": 178,
      "des": 179,
      "##ra": 180,
      "##cri": 181,
      "or": 182,
      "##pp": 183,
      "##ig": 184,
      "use": 185,
      "##ve": 186,
      "su": 187,
      "##ess": 188,
      "##icen": 189,
      "cr": 190,
      "licen": 191,
      "##ect": 192,
      "un": 193,
      "let": 194,
      "##ow": 195,
      "descri": 196,
      "en": 197,
      "wh": 198,
      "description": 199,
      "##ce": 200,
      "##ter": 201,
      "rust": 202,
      "##age": 203,
      "ma": 204,
      "readme": 205,
      "can": 206,
      "##ver": 207,
      "fi": 208,
      "##ort": 209,
      "##all": 210,
      "ne": 211,
      "##im": 212,
      "##ult": 213,
      "fr": 214,
      "im": 215,
      "that": 216,
      "##pl": 217,
      "bu": 218,
      "by": 219,
      "##em": 220,
      "##and": 221,
      "ch": 222,
      "##00": 223,
      "##end": 224,
      "##if": 225,
      "##ary": 226,
      "cont": 227,
      "are": 228,
      "license": 229,
      "ad": 230,
      "##ode": 231,
      "##um": 232,
      "##yp": 233,
      "str": 234,
      "from": 235,
      "##ame": 236,
      "ap": 237,
      "##ction": 238,
      "not": 239,
      "cl": 240,
      "##int": 241,
      "##able": 242,
      "lib": 243,
      "##ill": 244,
      "inst": 245,
      "##qu": 246,
      "##tt": 247,
      "##ir": 248,
      "##iz": 249,
      "##ild": 250,
      "par": 251,
      "se": 252,
      "##un": 253,
      "##arg": 254,
      "##ke": 255,
      "##th": 256,
      "crate": 257,
      "your": 258,
      "exam": 259,
      "res": 260,
      "##us": 261,
      "##ach": 262,
      "##ub": 263,
      "add": 264,
      "sh": 265,
      "##ore": 266,
      "##ay": 267,
      "##ue": 268,
      "##te": 269,
      "def": 270,
      "if": 271,
      "##ersion": 272,
      "##os": 273,
      "##ure": 274,
      "##ack": 275,
      "pr": 276,
      "ser": 277,
      "doc": 278,
      "##ies": 279,
      "build": 280,
      "##op": 281,
      "run": 282,
      "will": 283,
      "version": 284,
      "##ser": 285,
      "##low": 286,
      "libr": 287,
      "##ind": 288,
      "dat": 289,
      "fe": 290,
      "##ere": 291,
      "sp": 292,
      "typ": 293,
      "##ject": 294,
      "##ork": 295,
      "##ist": 296,
      "##ase": 297,
      "##ex": 298,
      "file": 299,
      "ar": 300,
      "##oun": 301,
      "##ttp": 302,
      "##ust": 303,
      "comp": 304,
      "##ain": 305,
      "##ang": 306,
      "##orm": 307,
      "new": 308,
      "##mentation": 309,
      "library": 310,
      "get": 311,
      "we": 312,
      "http": 313,
      "test": 314,
      "tr": 315,
      "val": 316,
      "lin": 317,
      "out": 318,
      "##der": 319,
      "##ial": 320,
      "##ap": 321,
      "##ome": 322,
      "##ates": 323,
      "gen": 324,
      "##ant": 325,
      "##ive": 326,
      "lo": 327,
      "comm": 328,
      "op": 329,
      "install": 330,
      "imple": 331,
      "example": 332,
      "int": 333,
      "supp": 334,
      "##ld": 335,
      "##uct": 336,
      "##form": 337,
      "##rap": 338,
      "feat": 339,
      "gener": 340,
      "##ity": 341,
      "##put": 342,
      "carg": 343,
      "support": 344,
      "sy": 345,
      "##iv": 346,
      "cargo": 347,
      "app": 348,
      "##out": 349,
      "##ault": 350,
      "##loc": 351,
      "##ated": 352,
      "cli": 353,
      "at": 354,
      "all": 355,
      "any": 356,
      "using": 357,
      "data": 358,
      "##ail": 359,
      "##ire": 360,
      "##gr": 361,
      "er": 362,
      "##ally": 363,
      "##ory": 364,
      "set": 365,
      "##rib": 366,
      "##ime": 367,
      "default": 368,
      "##ost": 369,
      "##cl": 370,
      "##our": 371,
      "##ribut": 372,
      "##vid": 373,
      "requ": 374,
      "do": 375,
      "##enc": 376,
      "##ror": 377,
      "##ures": 378,
      "##igh": 379,
      "print": 380,
      "ab": 381,
      "##ations": 382,
      "cre": 383,
      "##ich": 384,
      "work": 385,
      "##fer": 386,
      "api": 387,
      "dep": 388,
      "provid": 389,
      "code": 390,
      "fun": 391,
      "project": 392,
      "pl": 393,
      "##fig": 394,
      "##ath": 395,
      "sim": 396,
      "ha": 397,
      "##de": 398,
      "mut": 399,
      "exp": 400,
      "option": 401,
      "which": 402,
      "##cc": 403,
      "some": 404,
      "##ition": 405,
      "up": 406,
      "fil": 407,
      "##ache": 408,
      "inter": 409,
      "fn": 410,
      "ke": 411,
      "##ace": 412,
      "##rit": 413,
      "hel": 414,
      "##one": 415,
      "##ib": 416,
      "##ould": 417,
      "function": 418,
      "struct": 419,
      "##ize": 420,
      "rep": 421,
      "fol": 422,
      "##lic": 423,
      "docu": 424,
      "##eth": 425,
      "##ip": 426,
      "error": 427,
      "##ther": 428,
      "##oo": 429,
      "stat": 430,
      "licens": 431,
      "##ens": 432,
      "name": 433,
      "##ard": 434,
      "string": 435,
      "config": 436,
      "##erm": 437,
      "depend": 438,
      "##ine": 439,
      "has": 440,
      "mod": 441,
      "type": 442,
      "so": 443,
      "used": 444,
      "dev": 445,
      "mit": 446,
      "col": 447,
      "see": 448,
      "qu": 449,
      "crates": 450,
      "##ast": 451,
      "have": 452,
      "le": 453,
      "##art": 454,
      "##so": 455,
      "##yn": 456,
      "aut": 457,
      "io": 458,
      "id": 459,
      "sub": 460,
      "##ile": 461,
      "loc": 462,
      "spec": 463,
      "apache": 464,
      "asser": 465,
      "##ans": 466,
      "##ments": 467,
      "other": 468,
      "but": 469,
      "rs": 470,
      "##ks": 471,
      "writ": 472,
      "command": 473,
      "list": 474,
      "##ice": 475,
      "key": 476,
      "more": 477,
      "##act": 478,
      "usage": 479,
      "unw": 480,
      "##irect": 481,
      "##str": 482,
      "https": 483,
      "##atch": 484,
      "pub": 485,
      "vec": 486,
      "##ign": 487,
      "result": 488,
      "cur": 489,
      "unwrap": 490,
      "form": 491,
      "##32": 492,
      "##own": 493,
      "##ord": 494,
      "##ight": 495,
      "into": 496,
      "client": 497,
      "features": 498,
      "documentation": 499,
      "mac": 500,
      "man": 501,
      "##ound": 502,
      "bas": 503,
      "time": 504,
      "dependenc": 505,
      "##ource": 506,
      "acc": 507,
      "only": 508,
      "aw": 509,
      "value": 510,
      "follow": 511,
      "##ass": 512,
      "##ext": 513,
      "##ff": 514,
      "contribut": 515,
      "##son": 516,
      "direct": 517,
      "need": 518,
      "under": 519,
      "num": 520,
      "##lease": 521,
      "main": 522,
      "##bu": 523,
      "implementation": 524,
      "##gh": 525,
      "##ings": 526,
      "pre": 527,
      "##stem": 528,
      "files": 529,
      "path": 530,
      "also": 531,
      "##ator": 532,
      "ret": 533,
      "sc": 534,
      "dis": 535,
      "call": 536,
      "var": 537,
      "specif": 538,
      "one": 539,
      "like": 540,
      "create": 541,
      "ev": 542,
      "##ress": 543,
      "##ions": 544,
      "0x": 545,
      "##ree": 546,
      "help": 547,
      "##ell": 548,
      "output": 549,
      "##ber": 550,
      "when": 551,
      "tra": 552,
      "##ry": 553,
      "incl": 554,
      "per": 555,
      "no": 556,
      "##ln": 557,
      "##rent": 558,
      "##ount": 559,
      "##ples": 560,
      "##urn": 561,
      "user": 562,
      "##teq": 563,
      "##ithub": 564,
      "##ml": 565,
      "##are": 566,
      "asserteq": 567,
      "log": 568,
      "##ud": 569,
      "##ead": 570,
      "##mit": 571,
      "alloc": 572,
      "github": 573,
      "format": 574,
      "tool": 575,
      "progr": 576,
      "20": 577,
      "##ethod": 578,
      "bin": 579,
      "std": 580,
      "##ance": 581,
      "##abl": 582,
      "##con": 583,
      "##tern": 584,
      "chang": 585,
      "part": 586,
      "status": 587,
      "##64": 588,
      "println": 589,
      "my": 590,
      "##ove": 591,
      "##io": 592,
      "system": 593,
      "##res": 594,
      "fl": 595,
      "po": 596,
      "mess": 597,
      "was": 598,
      "tok": 599,
      "##ix": 600,
      "##elf": 601,
      "##read": 602,
      "##ues": 603,
      "method": 604,
      "json": 605,
      "vari": 606,
      "##eld": 607,
      "current": 608,
      "how": 609,
      "sec": 610,
      "following": 611,
      "##load": 612,
      "##ia": 613,
      "types": 614,
      "examples": 615,
      "self": 616,
      "##af": 617,
      "simple": 618,
      "##formation": 619,
      "##ages": 620,
      "##av": 621,
      "licensed": 622,
      "server": 623,
      "contain": 624,
      "av": 625,
      "start": 626,
      "dependencies": 627,
      "request": 628,
      "there": 629,
      "web": 630,
      "##ery": 631,
      "##eck": 632,
      "macro": 633,
      "state": 634,
      "term": 635,
      "org": 636,
      "applic": 637,
      "may": 638,
      "allow": 639,
      "##ait": 640,
      "##ual": 641,
      "10": 642,
      "ob": 643,
      "pack": 644,
      "information": 645,
      "proc": 646,
      "##ible": 647,
      "should": 648,
      "##com": 649,
      "##ie": 650,
      "trait": 651,
      "node": 652,
      "me": 653,
      "enc": 654,
      "##xt": 655,
      "det": 656,
      "input": 657,
      "##gin": 658,
      "line": 659,
      "program": 660,
      "##ok": 661,
      "return": 662,
      "##ft": 663,
      "##ide": 664,
      "asyn": 665,
      "feature": 666,
      "serv": 667,
      "em": 668,
      "over": 669,
      "arg": 670,
      "##ak": 671,
      "min": 672,
      "hand": 673,
      "##ous": 674,
      "oper": 675,
      "env": 676,
      "##ge": 677,
      "##sp": 678,
      "git": 679,
      "##work": 680,
      "trans": 681,
      "##pon": 682,
      "act": 683,
      "##ning": 684,
      "without": 685,
      "then": 686,
      "make": 687,
      "defin": 688,
      "##ence": 689,
      "bind": 690,
      "##0000": 691,
      "open": 692,
      "##ating": 693,
      "reg": 694,
      "implement": 695,
      "##ull": 696,
      "docs": 697,
      "ext": 698,
      "ind": 699,
      "##wn": 700,
      "##up": 701,
      "bo": 702,
      "want": 703,
      "##ese": 704,
      "##ely": 705,
      "provides": 706,
      "##ep": 707,
      "pos": 708,
      "exec": 709,
      "go": 710,
      "check": 711,
      "##oth": 712,
      "##ux": 713,
      "##uration": 714,
      "12": 715,
      "text": 716,
      "mult": 717,
      "auth": 718,
      "fir": 719,
      "##lock": 720,
      "##rou": 721,
      "iter": 722,
      "directory": 723,
      "number": 724,
      "here": 725,
      "der": 726,
      "##ert": 727,
      "back": 728,
      "source": 729,
      "##arget": 730,
      "##ents": 731,
      "iss": 732,
      "await": 733,
      "upd": 734,
      "lang": 735,
      "dif": 736,
      "does": 737,
      "bit": 738,
      "these": 739,
      "##ctions": 740,
      "##ied": 741,
      "each": 742,
      "first": 743,
      "##ish": 744,
      "##ting": 745,
      "pass": 746,
      "requir": 747,
      "##ong": 748,
      "##nect": 749,
      "devel": 750,
      "##ite": 751,
      "dec": 752,
      "execut": 753,
      "##ream": 754,
      "based": 755,
      "field": 756,
      "target": 757,
      "match": 758,
      "ok": 759,
      "pri": 760,
      "##ise": 761,
      "##indow": 762,
      "develop": 763,
      "down": 764,
      "##lect": 765,
      "tw": 766,
      "async": 767,
      "##raph": 768,
      "mem": 769,
      "##ility": 770,
      "##ark": 771,
      "ro": 772,
      "##vel": 773,
      "##ret": 774,
      "ut": 775,
      "window": 776,
      "prot": 777,
      "##ors": 778,
      "link": 779,
      "##ither": 780,
      "##ically": 781,
      "cop": 782,
      "rem": 783,
      "avail": 784,
      "bet": 785,
      "##ustom": 786,
      "##cript": 787,
      "ass": 788,
      "rec": 789,
      "addition": 790,
      "note": 791,
      "##ick": 792,
      "supported": 793,
      "eas": 794,
      "##ose": 795,
      "##we": 796,
      "available": 797,
      "about": 798,
      "process": 799,
      "imp": 800,
      "##ication": 801,
      "message": 802,
      "release": 803,
      "either": 804,
      "sign": 805,
      "lat": 806,
      "them": 807,
      "syn": 808,
      "##ss": 809,
      "compil": 810,
      "end": 811,
      "##arch": 812,
      "att": 813,
      "sm": 814,
      "##ful": 815,
      "application": 816,
      "##og": 817,
      "access": 818,
      "just": 819,
      "values": 820,
      "custom": 821,
      "##fo": 822,
      "##ted": 823,
      "its": 824,
      "##au": 825,
      "cons": 826,
      "multi": 827,
      "##ract": 828,
      "langu": 829,
      "gu": 830,
      "flag": 831,
      "##bug": 832,
      "ben": 833,
      "connect": 834,
      "licenses": 835,
      "where": 836,
      "options": 837,
      "binary": 838,
      "##ule": 839,
      "way": 840,
      "ent": 841,
      "##iew": 842,
      "tests": 843,
      "linux": 844,
      "ag": 845,
      "object": 846,
      "derive": 847,
      "##du": 848,
      "contribution": 849,
      "perform": 850,
      "what": 851,
      "##val": 852,
      "net": 853,
      "hash": 854,
      "please": 855,
      "##tes": 856,
      "##plic": 857,
      "write": 858,
      "functions": 859,
      "than": 860,
      "differ": 861,
      "level": 862,
      "##ics": 863,
      "refer": 864,
      "co": 865,
      "same": 866,
      "##ializ": 867,
      "thread": 868,
      "debug": 869,
      "interf": 870,
      "bindings": 871,
      "##ient": 872,
      "##ock": 873,
      "dist": 874,
      "am": 875,
      "inte": 876,
      "##ices": 877,
      "own": 878,
      "##ware": 879,
      "##11": 880,
      "##string": 881,
      "##ables": 882,
      "comple": 883,
      "ed": 884,
      "red": 885,
      "extern": 886,
      "most": 887,
      "stor": 888,
      "##ls": 889,
      "bench": 890,
      "init": 891,
      "##ql": 892,
      "##ms": 893,
      "##ger": 894,
      "high": 895,
      "##ten": 896,
      "##very": 897,
      "##ann": 898,
      "copy": 899,
      "##lob": 900,
      "##ify": 901,
      "##ude": 902,
      "##ative": 903,
      "dele": 904,
      "##afe": 905,
      "download": 906,
      "above": 907,
      "such": 908,
      "##ray": 909,
      "configuration": 910,
      "includ": 911,
      "fut": 912,
      "##20": 913,
      "##file": 914,
      "local": 915,
      "send": 916,
      "##osit": 917,
      "##itions": 918,
      "generated": 919,
      "they": 920,
      "##ake": 921,
      "nam": 922,
      "##ata": 923,
      "block": 924,
      "fast": 925,
      "order": 926,
      "##mb": 927,
      "map": 928,
      "##ces": 929,
      "##ets": 930,
      "##ails": 931,
      "##ov": 932,
      "package": 933,
      "##api": 934,
      "##time": 935,
      "off": 936,
      "generate": 937,
      "poss": 938,
      "##iron": 939,
      "##less": 940,
      "currently": 941,
      "respon": 942,
      "##par": 943,
      "met": 944,
      "stand": 945,
      "uses": 946,
      "find": 947,
      "post": 948,
      "cond": 949,
      "##ases": 950,
      "##key": 951,
      "##ause": 952,
      "two": 953,
      "param": 954,
      "tem": 955,
      "el": 956,
      "terms": 957,
      "point": 958,
      "##rapp": 959,
      "language": 960,
      "environ": 961,
      "argu": 962,
      "pars": 963,
      "running": 964,
      "##iss": 965,
      "head": 966,
      "##ash": 967,
      "installation": 968,
      "clone": 969,
      "giv": 970,
      "reposit": 971,
      "via": 972,
      "##12": 973,
      "additional": 974,
      "port": 975,
      "would": 976,
      "defined": 977,
      "const": 978,
      "must": 979,
      "image": 980,
      "service": 981,
      "now": 982,
      "ver": 983,
      "cor": 984,
      "valid": 985,
      "##ialize": 986,
      "rel": 987,
      "found": 988,
      "##list": 989,
      "##ww": 990,
      "sing": 991,
      "##rol": 992,
      "windows": 993,
      "ms": 994,
      "interface": 995,
      "ur": 996,
      "##ocol": 997,
      "##bo": 998,
      "sd": 999,
      "##ght": 1000,
      "hello": 1001,
      "expect": 1002,
      "different": 1003,
      "##ical": 1004,
      "##row": 1005,
      "memory": 1006,
      "##map": 1007,
      "ac": 1008,
      "every": 1009,
      "true": 1010,
      "##gor": 1011,
      "sol": 1012,
      "jo": 1013,
      "##pro": 1014,
      "##comm": 1015,
      "##ities": 1016,
      "impl": 1017,
      "module": 1018,
      "he": 1019,
      "##po": 1020,
      "www": 1021,
      "single": 1022,
      "##ru": 1023,
      "update": 1024,
      "prop": 1025,
      "enum": 1026,
      "parse": 1027,
      "##inal": 1028,
      "tim": 1029,
      "##wise": 1030,
      "sch": 1031,
      "encod": 1032,
      "wrapp": 1033,
      "token": 1034,
      "##orld": 1035,
      "gr": 1036,
      "frame": 1037,
      "look": 1038,
      "operations": 1039,
      "af": 1040,
      "load": 1041,
      "size": 1042,
      "##les": 1043,
      "protocol": 1044,
      "tag": 1045,
      "none": 1046,
      "##by": 1047,
      "##ular": 1048,
      "prob": 1049,
      "event": 1050,
      "autom": 1051,
      "query": 1052,
      "##ook": 1053,
      "index": 1054,
      "bec": 1055,
      "foo": 1056,
      "##name": 1057,
      "repository": 1058,
      "standard": 1059,
      "##ax": 1060,
      "char": 1061,
      "##log": 1062,
      "colle": 1063,
      "##atform": 1064,
      "minim": 1065,
      "graph": 1066,
      "search": 1067,
      "##56": 1068,
      "##tr": 1069,
      "serde": 1070,
      "##plicit": 1071,
      "parser": 1072,
      "##sh": 1073,
      "glob": 1074,
      "provided": 1075,
      "stream": 1076,
      "address": 1077,
      "##ond": 1078,
      "##ilt": 1079,
      "platform": 1080,
      "allows": 1081,
      "##ays": 1082,
      "00": 1083,
      "environment": 1084,
      "provide": 1085,
      "change": 1086,
      "given": 1087,
      "possible": 1088,
      "##ention": 1089,
      "tas": 1090,
      "100": 1091,
      "##ier": 1092,
      "otherwise": 1093,
      "tree": 1094,
      "script": 1095,
      "repres": 1096,
      "##fore": 1097,
      "buf": 1098,
      "multiple": 1099,
      "##ually": 1100,
      "contains": 1101,
      "##aries": 1102,
      "conver": 1103,
      "case": 1104,
      "##ender": 1105,
      "br": 1106,
      "instead": 1107,
      "non": 1108,
      "##ype": 1109,
      "##tml": 1110,
      "both": 1111,
      "##db": 1112,
      "details": 1113,
      "methods": 1114,
      "opens": 1115,
      "##gorith": 1116,
      "ele": 1117,
      "rand": 1118,
      "##ron": 1119,
      "wasm": 1120,
      "kn": 1121,
      "free": 1122,
      "##ween": 1123,
      "py": 1124,
      "##ker": 1125,
      "required": 1126,
      "##aw": 1127,
      "##55": 1128,
      "optional": 1129,
      "16": 1130,
      "##16": 1131,
      "datab": 1132,
      "##word": 1133,
      "info": 1134,
      "##do": 1135,
      "algorith": 1136,
      "supports": 1137,
      "##ized": 1138,
      "their": 1139,
      "public": 1140,
      "between": 1141,
      "tostring": 1142,
      "limit": 1143,
      "written": 1144,
      "world": 1145,
      "explicit": 1146,
      "##fi": 1147,
      "##cept": 1148,
      "after": 1149,
      "color": 1150,
      "len": 1151,
      "don": 1152,
      "rest": 1153,
      "network": 1154,
      "bl": 1155,
      "submit": 1156,
      "specific": 1157,
      "mak": 1158,
      "try": 1159,
      "array": 1160,
      "enable": 1161,
      "item": 1162,
      "##ugin": 1163,
      "##its": 1164,
      "toml": 1165,
      "soft": 1166,
      "##ade": 1167,
      "issue": 1168,
      "latest": 1169,
      "##ps": 1170,
      "regist": 1171,
      "core": 1172,
      "url": 1173,
      "unless": 1174,
      "##play": 1175,
      "distribut": 1176,
      "bytes": 1177,
      "##abled": 1178,
      "opt": 1179,
      "##10": 1180,
      "##alse": 1181,
      "##not": 1182,
      "inser": 1183,
      "##ush": 1184,
      "conv": 1185,
      "##ph": 1186,
      "##az": 1187,
      "built": 1188,
      "import": 1189,
      "very": 1190,
      "##ily": 1191,
      "tokio": 1192,
      "our": 1193,
      "next": 1194,
      "##gle": 1195,
      "fail": 1196,
      "future": 1197,
      "full": 1198,
      "##bed": 1199,
      "paramet": 1200,
      "inv": 1201,
      "model": 1202,
      "well": 1203,
      "##rough": 1204,
      "sdk": 1205,
      "html": 1206,
      "represent": 1207,
      "global": 1208,
      "##tc": 1209,
      "##ope": 1210,
      "ori": 1211,
      "som": 1212,
      "tri": 1213,
      "##rc": 1214,
      "while": 1215,
      "compile": 1216,
      "count": 1217,
      "false": 1218,
      "##annel": 1219,
      "response": 1220,
      "show": 1221,
      "dependency": 1222,
      "##lish": 1223,
      "##ict": 1224,
      "account": 1225,
      "runtime": 1226,
      "##sc": 1227,
      "root": 1228,
      "##19": 1229,
      "macros": 1230,
      "##sel": 1231,
      "conditions": 1232,
      "context": 1233,
      "through": 1234,
      "software": 1235,
      "handl": 1236,
      "pers": 1237,
      "##set": 1238,
      "dyn": 1239,
      "compon": 1240,
      "automat": 1241,
      "small": 1242,
      "select": 1243,
      "##usion": 1244,
      "##pc": 1245,
      "database": 1246,
      "locations": 1247,
      "##fr": 1248,
      "##ality": 1249,
      "exist": 1250,
      "require": 1251,
      "##struct": 1252,
      "versions": 1253,
      "sam": 1254,
      "explicitly": 1255,
      "disc": 1256,
      "sin": 1257,
      "ident": 1258,
      "assert": 1259,
      "##ange": 1260,
      "##22": 1261,
      "##view": 1262,
      "because": 1263,
      "##back": 1264,
      "easy": 1265,
      "linked": 1266,
      "gre": 1267,
      "eff": 1268,
      "##be": 1269,
      "mat": 1270,
      "##ng": 1271,
      "max": 1272,
      "rele": 1273,
      "##ection": 1274,
      "static": 1275,
      "changes": 1276,
      "delete": 1277,
      "err": 1278,
      "##ential": 1279,
      "##99": 1280,
      "render": 1281,
      "basic": 1282,
      "installed": 1283,
      "insert": 1284,
      "second": 1285,
      "development": 1286,
      "##line": 1287,
      "##ever": 1288,
      "store": 1289,
      "implemented": 1290,
      "filter": 1291,
      "mode": 1292,
      "aws": 1293,
      "table": 1294,
      "control": 1295,
      "many": 1296,
      "i32": 1297,
      "framework": 1298,
      "useful": 1299,
      "##ended": 1300,
      "eng": 1301,
      "random": 1302,
      "before": 1303,
      "projects": 1304,
      "shall": 1305,
      "ph": 1306,
      "building": 1307,
      "deser": 1308,
      "ip": 1309,
      "requests": 1310,
      "u8": 1311,
      "goo": 1312,
      "arch": 1313,
      "##ont": 1314,
      "clo": 1315,
      "been": 1316,
      "performance": 1317,
      "secret": 1318,
      "mark": 1319,
      "war": 1320,
      "templ": 1321,
      "##ization": 1322,
      "repl": 1323,
      "host": 1324,
      "contributing": 1325,
      "flags": 1326,
      "##ocket": 1327,
      "##86": 1328,
      "produ": 1329,
      "commands": 1330,
      "fix": 1331,
      "##ough": 1332,
      "messages": 1333,
      "design": 1334,
      "users": 1335,
      "##000": 1336,
      "ll": 1337,
      "authent": 1338,
      "##mp": 1339,
      "traits": 1340,
      "common": 1341,
      "express": 1342,
      "intention": 1343,
      "##odes": 1344,
      "origin": 1345,
      "attribut": 1346,
      "11": 1347,
      "plugin": 1348,
      "##ved": 1349,
      "dual": 1350,
      "extens": 1351,
      "google": 1352,
      "##iter": 1353,
      "channel": 1354,
      "box": 1355,
      "sw": 1356,
      "low": 1357,
      "requires": 1358,
      "##mar": 1359,
      "##ave": 1360,
      "safe": 1361,
      "##of": 1362,
      "builder": 1363,
      "##ired": 1364,
      "uns": 1365,
      "##gen": 1366,
      "grou": 1367,
      "bel": 1368,
      "##add": 1369,
      "##ively": 1370,
      "instru": 1371,
      "structure": 1372,
      "##ero": 1373,
      "submitted": 1374,
      "15": 1375,
      "##als": 1376,
      "comput": 1377,
      "pat": 1378,
      "wrapper": 1379,
      "top": 1380,
      "inclusion": 1381,
      "names": 1382,
      "##air": 1383,
      "##xx": 1384,
      "manag": 1385,
      "prints": 1386,
      "perm": 1387,
      "dust": 1388,
      "export": 1389,
      "push": 1390,
      "variable": 1391,
      "bar": 1392,
      "integr": 1393,
      "intentionally": 1394,
      "tools": 1395,
      "lay": 1396,
      "errors": 1397,
      "##80": 1398,
      "works": 1399,
      "##apt": 1400,
      "##ner": 1401,
      "base": 1402,
      "device": 1403,
      "specify": 1404,
      "instance": 1405,
      "game": 1406,
      "##other": 1407,
      "##ern": 1408,
      "docker": 1409,
      "long": 1410,
      "##flow": 1411,
      "##thing": 1412,
      "##ody": 1413,
      "could": 1414,
      "##pect": 1415,
      "display": 1416,
      "hub": 1417,
      "play": 1418,
      "##ross": 1419,
      "serializ": 1420,
      "enabled": 1421,
      "publish": 1422,
      "14": 1423,
      "take": 1424,
      "cd": 1425,
      "report": 1426,
      "content": 1427,
      "charact": 1428,
      "include": 1429,
      "handle": 1430,
      "##bers": 1431,
      "##rop": 1432,
      "##ci": 1433,
      "issues": 1434,
      "##alle": 1435,
      "arguments": 1436,
      "##34": 1437,
      "reference": 1438,
      "might": 1439,
      "opensource": 1440,
      "##gth": 1441,
      "##thon": 1442,
      "move": 1443,
      "buffer": 1444,
      "##ources": 1445,
      "sn": 1446,
      "db": 1447,
      "##ways": 1448,
      "contract": 1449,
      "etc": 1450,
      "##uch": 1451,
      "ns": 1452,
      "##ilar": 1453,
      "directly": 1454,
      "mon": 1455,
      "##ech": 1456,
      "pe": 1457,
      "pan": 1458,
      "terminal": 1459,
      "page": 1460,
      "cal": 1461,
      "intern": 1462,
      "folder": 1463,
      "##ink": 1464,
      "done": 1465,
      "still": 1466,
      "##pu": 1467,
      "automatically": 1468,
      "even": 1469,
      "similar": 1470,
      "##ced": 1471,
      "specified": 1472,
      "##ific": 1473,
      "since": 1474,
      "##ian": 1475,
      "compat": 1476,
      "sty": 1477,
      "##fix": 1478,
      "bre": 1479,
      "word": 1480,
      "implements": 1481,
      "##aces": 1482,
      "parsing": 1483,
      "edit": 1484,
      "##ging": 1485,
      "##sure": 1486,
      "another": 1487,
      "##ds": 1488,
      "##build": 1489,
      "##action": 1490,
      "hyp": 1491,
      "means": 1492,
      "started": 1493,
      "mach": 1494,
      "returns": 1495,
      "##ys": 1496,
      "wid": 1497,
      "##aut": 1498,
      "however": 1499,
      "convert": 1500,
      "put": 1501,
      "right": 1502,
      "##ns": 1503,
      "##cp": 1504,
      "rece": 1505,
      "##ared": 1506,
      "inc": 1507,
      "##fl": 1508,
      "##rypt": 1509,
      "always": 1510,
      "synt": 1511,
      "dri": 1512,
      "13": 1513,
      "##stream": 1514,
      "pol": 1515,
      "##chain": 1516,
      "task": 1517,
      "##error": 1518,
      "class": 1519,
      "md": 1520,
      "optim": 1521,
      "engine": 1522,
      "util": 1523,
      "python": 1524,
      "view": 1525,
      "tak": 1526,
      "##cs": 1527,
      "##ward": 1528,
      "kv": 1529,
      "linkedlist": 1530,
      "##aa": 1531,
      "##ale": 1532,
      "testing": 1533,
      "dem": 1534,
      "##ider": 1535,
      "cert": 1536,
      "working": 1537,
      "##bin": 1538,
      "##ution": 1539,
      "##ik": 1540,
      "embed": 1541,
      "32": 1542,
      "created": 1543,
      "algorithm": 1544,
      "header": 1545,
      "##her": 1546,
      "mer": 1547,
      "##sl": 1548,
      "below": 1549,
      "##self": 1550,
      "##ences": 1551,
      "##rid": 1552,
      "keys": 1553,
      "ref": 1554,
      "##per": 1555,
      "pull": 1556,
      "##ob": 1557,
      "##point": 1558,
      "##mt": 1559,
      "document": 1560,
      "##18": 1561,
      "scope": 1562,
      "##ightly": 1563,
      "##led": 1564,
      "##ether": 1565,
      "fields": 1566,
      "##ability": 1567,
      "##ething": 1568,
      "pattern": 1569,
      "##sd": 1570,
      "##anch": 1571,
      "##ename": 1572,
      "writing": 1573,
      "syntax": 1574,
      "19": 1575,
      "sql": 1576,
      "##ck": 1577,
      "compiler": 1578,
      "storage": 1579,
      "getting": 1580,
      "##ty": 1581,
      "called": 1582,
      "del": 1583,
      "##ote": 1584,
      "##get": 1585,
      "password": 1586,
      "yet": 1587,
      "##bb": 1588,
      "##ured": 1589,
      "schem": 1590,
      "##ature": 1591,
      "functionality": 1592,
      "os": 1593,
      "commun": 1594,
      "##command": 1595,
      "stable": 1596,
      "programm": 1597,
      "interact": 1598,
      "quick": 1599,
      "apis": 1600,
      "beh": 1601,
      "backend": 1602,
      "##pr": 1603,
      "once": 1604,
      "##40": 1605,
      "generator": 1606,
      "##33": 1607,
      "fin": 1608,
      "##ious": 1609,
      "insp": 1610,
      "author": 1611,
      "commit": 1612,
      "##gg": 1613,
      "being": 1614,
      "pur": 1615,
      "track": 1616,
      "##ler": 1617,
      "u32": 1618,
      "##app": 1619,
      "##to": 1620,
      "again": 1621,
      "##inter": 1622,
      "partic": 1623,
      "##requ": 1624,
      "##side": 1625,
      "general": 1626,
      "##rect": 1627,
      "home": 1628,
      "##chron": 1629,
      "body": 1630,
      "added": 1631,
      "collect": 1632,
      "record": 1633,
      "src": 1634,
      "##oto": 1635,
      "distributed": 1636,
      "results": 1637,
      "vect": 1638,
      "separ": 1639,
      "vis": 1640,
      "##mark": 1641,
      "usize": 1642,
      "ci": 1643,
      "cle": 1644,
      "##21": 1645,
      "##path": 1646,
      "##respon": 1647,
      "variables": 1648,
      "know": 1649,
      "something": 1650,
      "around": 1651,
      "connection": 1652,
      "##oud": 1653,
      "##ames": 1654,
      "raw": 1655,
      "##itle": 1656,
      "consider": 1657,
      "dom": 1658,
      "those": 1659,
      "##que": 1660,
      "place": 1661,
      "sys": 1662,
      "section": 1663,
      "conc": 1664,
      "##data": 1665,
      "sort": 1666,
      "##30": 1667,
      "##ives": 1668,
      "##right": 1669,
      "bug": 1670,
      "##old": 1671,
      "step": 1672,
      "decod": 1673,
      "##icial": 1674,
      "manage": 1675,
      "##bit": 1676,
      "hyper": 1677,
      "priv": 1678,
      "##port": 1679,
      "shell": 1680,
      "made": 1681,
      "propert": 1682,
      "libraries": 1683,
      "txt": 1684,
      "##cu": 1685,
      "aud": 1686,
      "last": 1687,
      "collection": 1688,
      "##rs": 1689,
      "##config": 1690,
      "else": 1691,
      "prev": 1692,
      "dynam": 1693,
      "##ency": 1694,
      "v1": 1695,
      "##eri": 1696,
      "stack": 1697,
      "kind": 1698,
      "te": 1699,
      "including": 1700,
      "implementations": 1701,
      "##fil": 1702,
      "rus": 1703,
      "listen": 1704,
      "zero": 1705,
      "length": 1706,
      "sk": 1707,
      "cry": 1708,
      "doit": 1709,
      "equ": 1710,
      "maint": 1711,
      "variant": 1712,
      "larg": 1713,
      "pres": 1714,
      "sequ": 1715,
      "group": 1716,
      "##buf": 1717,
      "doesn": 1718,
      "args": 1719,
      "branch": 1720,
      "##raw": 1721,
      "##00000000": 1722,
      "structures": 1723,
      "cache": 1724,
      "##ons": 1725,
      "argument": 1726,
      "##df": 1727,
      "##type": 1728,
      "register": 1729,
      "##sv": 1730,
      "strings": 1731,
      "complete": 1732,
      "##lem": 1733,
      "permiss": 1734,
      "##ef": 1735,
      "keep": 1736,
      "ray": 1737,
      "cover": 1738,
      "repo": 1739,
      "within": 1740,
      "##ving": 1741,
      "machine": 1742,
      "sure": 1743,
      "pip": 1744,
      "short": 1745,
      "real": 1746,
      "##value": 1747,
      "sl": 1748,
      "##oid": 1749,
      "execute": 1750,
      "original": 1751,
      "todo": 1752,
      "##xy": 1753,
      "best": 1754,
      "##co": 1755,
      "template": 1756,
      "pow": 1757,
      "##uring": 1758,
      "##zz": 1759,
      "nightly": 1760,
      "##elc": 1761,
      "##14": 1762,
      "##pty": 1763,
      "tls": 1764,
      "##ply": 1765,
      "crypt": 1766,
      "lines": 1767,
      "calls": 1768,
      "lock": 1769,
      "gn": 1770,
      "respect": 1771,
      "applications": 1772,
      "collections": 1773,
      "##fc": 1774,
      "##env": 1775,
      "##etch": 1776,
      "structs": 1777,
      "##50": 1778,
      "things": 1779,
      "patch": 1780,
      "##ded": 1781,
      "duration": 1782,
      "sv": 1783,
      "##umer": 1784,
      "##semb": 1785,
      "webs": 1786,
      "30": 1787,
      "que": 1788,
      "##vis": 1789,
      "cap": 1790,
      "light": 1791,
      "services": 1792,
      "much": 1793,
      "##ystem": 1794,
      "experi": 1795,
      "##auth": 1796,
      "spe": 1797,
      "##from": 1798,
      "##core": 1799,
      "generic": 1800,
      "##ably": 1801,
      "purp": 1802,
      "##vy": 1803,
      "calc": 1804,
      "##ession": 1805,
      "##gn": 1806,
      "##json": 1807,
      "subcommand": 1808,
      "##ines": 1809,
      "art": 1810,
      "macos": 1811,
      "activ": 1812,
      "makes": 1813,
      "encoding": 1814,
      "parameters": 1815,
      "creating": 1816,
      "dir": 1817,
      "##17": 1818,
      "##adata": 1819,
      "altern": 1820,
      "##ified": 1821,
      "compress": 1822,
      "lear": 1823,
      "date": 1824,
      "##cast": 1825,
      "##box": 1826,
      "good": 1827,
      "anal": 1828,
      "##edi": 1829,
      "pool": 1830,
      "jav": 1831,
      "parent": 1832,
      "cases": 1833,
      "setup": 1834,
      "##mm": 1835,
      "##loy": 1836,
      "byte": 1837,
      "resource": 1838,
      "remove": 1839,
      "##ars": 1840,
      "simply": 1841,
      "minimum": 1842,
      "style": 1843,
      "able": 1844,
      "prefix": 1845,
      "loop": 1846,
      "##kn": 1847,
      "##24": 1848,
      "bad": 1849,
      "ide": 1850,
      "images": 1851,
      "events": 1852,
      "##ification": 1853,
      "parts": 1854,
      "numbers": 1855,
      "utility": 1856,
      "##ural": 1857,
      "##text": 1858,
      "correct": 1859,
      "title": 1860,
      "manager": 1861,
      "cred": 1862,
      "define": 1863,
      "17": 1864,
      "join": 1865,
      "chain": 1866,
      "##idd": 1867,
      "rusoto": 1868,
      "##ules": 1869,
      "programming": 1870,
      "##comp": 1871,
      "sem": 1872,
      "official": 1873,
      "mic": 1874,
      "##abel": 1875,
      "needs": 1876,
      "norm": 1877,
      "progress": 1878,
      "cod": 1879,
      "sync": 1880,
      "rayon": 1881,
      "recomm": 1882,
      "replace": 1883,
      "various": 1884,
      "64": 1885,
      "minimal": 1886,
      "accept": 1887,
      "##icient": 1888,
      "integer": 1889,
      "##ories": 1890,
      "calcul": 1891,
      "##lib": 1892,
      "serialize": 1893,
      "cross": 1894,
      "systems": 1895,
      "objects": 1896,
      "##writ": 1897,
      "##lice": 1898,
      "break": 1899,
      "##amp": 1900,
      "##elcome": 1901,
      "hard": 1902,
      "##fe": 1903,
      "welcome": 1904,
      "element": 1905,
      "reser": 1906,
      "bevy": 1907,
      "unsafe": 1908,
      "##code": 1909,
      "##builder": 1910,
      "component": 1911,
      "flo": 1912,
      "##cont": 1913,
      "##fs": 1914,
      "needed": 1915,
      "scre": 1916,
      "deserialize": 1917,
      "##ready": 1918,
      "##ecess": 1919,
      "better": 1920,
      "##red": 1921,
      "##host": 1922,
      "##ounter": 1923,
      "why": 1924,
      "##mbol": 1925,
      "##gb": 1926,
      "unit": 1927,
      "copyright": 1928,
      "resources": 1929,
      "micro": 1930,
      "##awn": 1931,
      "metadata": 1932,
      "##man": 1933,
      "instructions": 1934,
      "feel": 1935,
      "tu": 1936,
      "##dir": 1937,
      "##ators": 1938,
      "ign": 1939,
      "pay": 1940,
      "unt": 1941,
      "job": 1942,
      "##chronous": 1943,
      "items": 1944,
      "vector": 1945,
      "abst": 1946,
      "sample": 1947,
      "space": 1948,
      "entry": 1949,
      "mov": 1950,
      "adding": 1951,
      "already": 1952,
      "##for": 1953,
      "row": 1954,
      "##ibility": 1955,
      "action": 1956,
      "##mut": 1957,
      "domain": 1958,
      "dig": 1959,
      "particular": 1960,
      "##itch": 1961,
      "24": 1962,
      "f64": 1963,
      "person": 1964,
      "named": 1965,
      "construct": 1966,
      "##down": 1967,
      "req": 1968,
      "range": 1969,
      "##mod": 1970,
      "##wh": 1971,
      "msg": 1972,
      "##15": 1973,
      "42": 1974,
      "impro": 1975,
      "schema": 1976,
      "##vm": 1977,
      "easily": 1978,
      "##sec": 1979,
      "##ton": 1980,
      "reading": 1981,
      "resol": 1982,
      "ffi": 1983,
      "##tings": 1984,
      "pin": 1985,
      "ge": 1986,
      "native": 1987,
      "##ster": 1988,
      "##bytes": 1989,
      "exact": 1990,
      "##with": 1991,
      "devices": 1992,
      "cloud": 1993,
      "container": 1994,
      "tested": 1995,
      "profile": 1996,
      "spl": 1997,
      "ech": 1998,
      "##ested": 1999,
      "js": 2000,
      "compatible": 2001,
      "authentication": 2002,
      "maintain": 2003,
      "bool": 2004,
      "01": 2005,
      "empty": 2006,
      "sever": 2007,
      "sent": 2008,
      "guide": 2009,
      "##min": 2010,
      "##ipher": 2011,
      "embedded": 2012,
      "nodes": 2013,
      "bor": 2014,
      "releases": 2015,
      "attribute": 2016,
      "determ": 2017,
      "##ived": 2018,
      "##scri": 2019,
      "##acing": 2020,
      "tot": 2021,
      "##board": 2022,
      "enables": 2023,
      "brow": 2024,
      "##pg": 2025,
      "private": 2026,
      "bound": 2027,
      "eval": 2028,
      "##field": 2029,
      "##rust": 2030,
      "##lex": 2031,
      "incre": 2032,
      "##ness": 2033,
      "##li": 2034,
      "expected": 2035,
      "components": 2036,
      "##ling": 2037,
      "fu": 2038,
      "appro": 2039,
      "who": 2040,
      "few": 2041,
      "elements": 2042,
      "colum": 2043,
      "##bd": 2044,
      "decl": 2045,
      "handling": 2046,
      "times": 2047,
      "integration": 2048,
      "##oci": 2049,
      "solution": 2050,
      "endpoint": 2051,
      "50": 2052,
      "takes": 2053,
      "##urs": 2054,
      "upload": 2055,
      "gnu": 2056,
      "pod": 2057,
      "inside": 2058,
      "symbol": 2059,
      "##88": 2060,
      "big": 2061,
      "miss": 2062,
      "complex": 2063,
      "##oken": 2064,
      "left": 2065,
      "prom": 2066,
      "rou": 2067,
      "##rix": 2068,
      "##tx": 2069,
      "behav": 2070,
      "spawn": 2071,
      "##66": 2072,
      "panic": 2073,
      "##sole": 2074,
      "operation": 2075,
      "##aml": 2076,
      "location": 2077,
      "##ves": 2078,
      "driver": 2079,
      "conf": 2080,
      "##edia": 2081,
      "##ref": 2082,
      "child": 2083,
      "##vec": 2084,
      "shared": 2085,
      "included": 2086,
      "contents": 2087,
      "##37": 2088,
      "x86": 2089,
      "fact": 2090,
      "80": 2091,
      "everything": 2092,
      "saf": 2093,
      "##urity": 2094,
      "##url": 2095,
      "parameter": 2096,
      "##sembly": 2097,
      "necess": 2098,
      "extract": 2099,
      "character": 2100,
      "generation": 2101,
      "##client": 2102,
      "stored": 2103,
      "happ": 2104,
      "##ased": 2105,
      "##ccess": 2106,
      "apply": 2107,
      "##tle": 2108,
      "127": 2109,
      "tre": 2110,
      "extension": 2111,
      "binaries": 2112,
      "adv": 2113,
      "echo": 2114,
      "##ume": 2115,
      "fixed": 2116,
      "##aim": 2117,
      "##net": 2118,
      "fork": 2119,
      "whether": 2120,
      "prel": 2121,
      "18": 2122,
      "##ts": 2123,
      "existing": 2124,
      "##cle": 2125,
      "tasks": 2126,
      "##icate": 2127,
      "combin": 2128,
      "redu": 2129,
      "power": 2130,
      "notes": 2131,
      "##elog": 2132,
      "tokens": 2133,
      "pair": 2134,
      "bot": 2135,
      "position": 2136,
      "##locks": 2137,
      "##ifier": 2138,
      "benchmark": 2139,
      "rules": 2140,
      "cm": 2141,
      "dynamic": 2142,
      "label": 2143,
      "save": 2144,
      "making": 2145,
      "behavi": 2146,
      "cat": 2147,
      "##result": 2148,
      "png": 2149,
      "session": 2150,
      "##ather": 2151,
      "deploy": 2152,
      "##marks": 2153,
      "pret": 2154,
      "contributions": 2155,
      "developer": 2156,
      "wait": 2157,
      "fs": 2158,
      "v0": 2159,
      "associ": 2160,
      "feed": 2161,
      "ye": 2162,
      "cpu": 2163,
      "##70": 2164,
      "rustc": 2165,
      "remov": 2166,
      "initial": 2167,
      "less": 2168,
      "##gres": 2169,
      "demo": 2170,
      "prelude": 2171,
      "pop": 2172,
      "failed": 2173,
      "fetch": 2174,
      "turn": 2175,
      "ali": 2176,
      "itself": 2177,
      "email": 2178,
      "reas": 2179,
      "several": 2180,
      "##gu": 2181,
      "##pped": 2182,
      "##head": 2183,
      "against": 2184,
      "tcp": 2185,
      "queue": 2186,
      "until": 2187,
      "contact": 2188,
      "master": 2189,
      "25": 2190,
      "##ank": 2191,
      "##35": 2192,
      "includes": 2193,
      "book": 2194,
      "40": 2195,
      "console": 2196,
      "prim": 2197,
      "##rary": 2198,
      "diff": 2199,
      "later": 2200,
      "polic": 2201,
      "compar": 2202,
      "security": 2203,
      "##ters": 2204,
      "problem": 2205,
      "setting": 2206,
      "##kg": 2207,
      "efficient": 2208,
      "##84": 2209,
      "##ries": 2210,
      "sets": 2211,
      "##info": 2212,
      "##ites": 2213,
      "csv": 2214,
      "##hash": 2215,
      "auto": 2216,
      "expression": 2217,
      "null": 2218,
      "compiled": 2219,
      "##90": 2220,
      "success": 2221,
      "avoid": 2222,
      "threads": 2223,
      "##duct": 2224,
      "##serv": 2225,
      "##ric": 2226,
      "##ances": 2227,
      "quest": 2228,
      "hist": 2229,
      "##space": 2230,
      "f32": 2231,
      "transaction": 2232,
      "bro": 2233,
      "exit": 2234,
      "management": 2235,
      "interp": 2236,
      "asynchronous": 2237,
      "u64": 2238,
      "remote": 2239,
      "##ma": 2240,
      "properties": 2241,
      "simpl": 2242,
      "##cons": 2243,
      "designed": 2244,
      "yes": 2245,
      "futures": 2246,
      "probably": 2247,
      "##ee": 2248,
      "tags": 2249,
      "cannot": 2250,
      "hex": 2251,
      "verify": 2252,
      "gl": 2253,
      "##request": 2254,
      "actual": 2255,
      "##allel": 2256,
      "experiment": 2257,
      "##ptions": 2258,
      "overview": 2259,
      "amount": 2260,
      "algorithms": 2261,
      "##ulation": 2262,
      "##def": 2263,
      "benchmarks": 2264,
      "layer": 2265,
      "normal": 2266,
      "##96": 2267,
      "speed": 2268,
      "##lin": 2269,
      "##ately": 2270,
      "missing": 2271,
      "logging": 2272,
      "large": 2273,
      "##78": 2274,
      "##ble": 2275,
      "purpose": 2276,
      "providing": 2277,
      "postgres": 2278,
      "##atic": 2279,
      "intro": 2280,
      "utilities": 2281,
      "fur": 2282,
      "signature": 2283,
      "##rie": 2284,
      "inspired": 2285,
      "three": 2286,
      "cent": 2287,
      "##ground": 2288,
      "great": 2289,
      "##nd": 2290,
      "flow": 2291,
      "matrix": 2292,
      "##oses": 2293,
      "defaults": 2294,
      "##igr": 2295,
      "counter": 2296,
      "div": 2297,
      "##count": 2298,
      "lot": 2299,
      "necessary": 2300,
      "##ety": 2301,
      "regex": 2302,
      "lu": 2303,
      "audio": 2304,
      "desk": 2305,
      "related": 2306,
      "icu": 2307,
      "##rec": 2308,
      "pure": 2309,
      "la": 2310,
      "requirements": 2311,
      "persist": 2312,
      "side": 2313,
      "xml": 2314,
      "lit": 2315,
      "ui": 2316,
      "changelog": 2317,
      "too": 2318,
      "unix": 2319,
      "##36": 2320,
      "##ump": 2321,
      "settings": 2322,
      "bits": 2323,
      "ful": 2324,
      "##ev": 2325,
      "further": 2326,
      "##ecks": 2327,
      "serialization": 2328,
      "constant": 2329,
      "reserved": 2330,
      "##etime": 2331,
      "##ding": 2332,
      "##ante": 2333,
      "inf": 2334,
      "reader": 2335,
      "primit": 2336,
      "conversion": 2337,
      "internal": 2338,
      "imag": 2339,
      "##fg": 2340,
      "##col": 2341,
      "ensure": 2342,
      "intended": 2343,
      "font": 2344,
      "##pace": 2345,
      "sudo": 2346,
      "actions": 2347,
      "##ari": 2348,
      "conven": 2349,
      "##m32": 2350,
      "##medi": 2351,
      "200": 2352,
      "configure": 2353,
      "##gate": 2354,
      "width": 2355,
      "runs": 2356,
      "di": 2357,
      "##pm": 2358,
      "modules": 2359,
      "representation": 2360,
      "ec": 2361,
      "##cess": 2362,
      "22": 2363,
      "calling": 2364,
      "subscri": 2365,
      "correspon": 2366,
      "known": 2367,
      "passed": 2368,
      "deserializ": 2369,
      "meas": 2370,
      "##esh": 2371,
      "##older": 2372,
      "amaz": 2373,
      "hashmap": 2374,
      "21": 2375,
      "mean": 2376,
      "##uff": 2377,
      "executable": 2378,
      "creates": 2379,
      "draw": 2380,
      "expl": 2381,
      "implementing": 2382,
      "arbit": 2383,
      "hal": 2384,
      "pi": 2385,
      "present": 2386,
      "##enum": 2387,
      "##user": 2388,
      "coverage": 2389,
      "##256": 2390,
      "##valid": 2391,
      "socket": 2392,
      "workflow": 2393,
      "previous": 2394,
      "##ored": 2395,
      "guar": 2396,
      "formats": 2397,
      "closure": 2398,
      "did": 2399,
      "ans": 2400,
      "##pack": 2401,
      "##itive": 2402,
      "encrypt": 2403,
      "##actions": 2404,
      "##77": 2405,
      "contin": 2406,
      "final": 2407,
      "characters": 2408,
      "math": 2409,
      "##gre": 2410,
      "quer": 2411,
      "temp": 2412,
      "##server": 2413,
      "##ape": 2414,
      "##imes": 2415,
      "complet": 2416,
      "yaml": 2417,
      "##ged": 2418,
      "specification": 2419,
      "##ring": 2420,
      "due": 2421,
      "##54": 2422,
      "alph": 2423,
      "##pping": 2424,
      "changed": 2425,
      "during": 2426,
      "stdout": 2427,
      "##ven": 2428,
      "attributes": 2429,
      "evalu": 2430,
      "sens": 2431,
      "proced": 2432,
      "2020": 2433,
      "##hand": 2434,
      "##unch": 2435,
      "checks": 2436,
      "guarante": 2437,
      "ear": 2438,
      "execution": 2439,
      "encoded": 2440,
      "kern": 2441,
      "##raction": 2442,
      "##irt": 2443,
      "pretty": 2444,
      "lik": 2445,
      "generates": 2446,
      "##omic": 2447,
      "uni": 2448,
      "decode": 2449,
      "##ograph": 2450,
      "aim": 2451,
      "##known": 2452,
      "##2c": 2453,
      "##uss": 2454,
      "##gl": 2455,
      "sequence": 2456,
      "vide": 2457,
      "codec": 2458,
      "product": 2459,
      "foc": 2460,
      "##cer": 2461,
      "##39": 2462,
      "encode": 2463,
      "were": 2464,
      "win": 2465,
      "transform": 2466,
      "containing": 2467,
      "fri": 2468,
      "##ats": 2469,
      "credential": 2470,
      "split": 2471,
      "borrow": 2472,
      "retrie": 2473,
      "total": 2474,
      "modify": 2475,
      "##eme": 2476,
      "assum": 2477,
      "kernel": 2478,
      "downloads": 2479,
      "##test": 2480,
      "platforms": 2481,
      "never": 2482,
      "links": 2483,
      "##gram": 2484,
      "returned": 2485,
      "proxy": 2486,
      "detect": 2487,
      "##74": 2488,
      "helper": 2489,
      "headers": 2490,
      "blocks": 2491,
      "##igned": 2492,
      "dot": 2493,
      "sum": 2494,
      "updates": 2495,
      "##vers": 2496,
      "usually": 2497,
      "rustup": 2498,
      "##ined": 2499,
      "anything": 2500,
      "dest": 2501,
      "desired": 2502,
      "##tk": 2503,
      "##ision": 2504,
      "##empt": 2505,
      "ask": 2506,
      "learn": 2507,
      "pix": 2508,
      "##ateg": 2509,
      "##iction": 2510,
      "improve": 2511,
      "##imal": 2512,
      "associated": 2513,
      "rfc": 2514,
      "##erc": 2515,
      "##cd": 2516,
      "redis": 2517,
      "##tain": 2518,
      "##itter": 2519,
      "unknown": 2520,
      "unic": 2521,
      "cir": 2522,
      "rule": 2523,
      "faster": 2524,
      "focus": 2525,
      "##ivid": 2526,
      "ve": 2527,
      "manually": 2528,
      "arbitrary": 2529,
      "##over": 2530,
      "##met": 2531,
      "##ryption": 2532,
      "tet": 2533,
      "though": 2534,
      "##verse": 2535,
      "##aced": 2536,
      "policy": 2537,
      "respective": 2538,
      "cho": 2539,
      "scripts": 2540,
      "cy": 2541,
      "drop": 2542,
      "migr": 2543,
      "##assembly": 2544,
      "consist": 2545,
      "actix": 2546,
      "special": 2547,
      "##rics": 2548,
      "detail": 2549,
      "0xf": 2550,
      "amazon": 2551,
      "##76": 2552,
      "##ifi": 2553,
      "processing": 2554,
      "podcast": 2555,
      "iterator": 2556,
      "follows": 2557,
      "##coin": 2558,
      "isn": 2559,
      "prior": 2560,
      "cell": 2561,
      "primary": 2562,
      "column": 2563,
      "##85": 2564,
      "##itect": 2565,
      "paths": 2566,
      "permissions": 2567,
      "browser": 2568,
      "parallel": 2569,
      "programs": 2570,
      "individ": 2571,
      "##94": 2572,
      "discord": 2573,
      "smart": 2574,
      "switch": 2575,
      "generating": 2576,
      "reason": 2577,
      "tog": 2578,
      "bus": 2579,
      "external": 2580,
      "verb": 2581,
      "age": 2582,
      "words": 2583,
      "##atively": 2584,
      "sav": 2585,
      "##fun": 2586,
      "##itor": 2587,
      "2022": 2588,
      "##rv": 2589,
      "##iddle": 2590,
      "##uid": 2591,
      "obtain": 2592,
      "##osed": 2593,
      "friend": 2594,
      "media": 2595,
      "oauth": 2596,
      "logic": 2597,
      "packages": 2598,
      "ctx": 2599,
      "##dep": 2600,
      "super": 2601,
      "##err": 2602,
      "chun": 2603,
      "##ll": 2604,
      "entire": 2605,
      "adds": 2606,
      "az": 2607,
      "capt": 2608,
      "transl": 2609,
      "architect": 2610,
      "recommended": 2611,
      "fuzz": 2612,
      "toolchain": 2613,
      "fully": 2614,
      "plugins": 2615,
      "slice": 2616,
      "rgb": 2617,
      "span": 2618,
      "##index": 2619,
      "languages": 2620,
      "x8664": 2621,
      "##yz": 2622,
      "stop": 2623,
      "mo": 2624,
      "allowing": 2625,
      "builds": 2626,
      "webassembly": 2627,
      "seconds": 2628,
      "clean": 2629,
      "certain": 2630,
      "##alk": 2631,
      "##bun": 2632,
      "0xff": 2633,
      "utf": 2634,
      "rpc": 2635,
      "2021": 2636,
      "flex": 2637,
      "##lab": 2638,
      "deal": 2639,
      "layout": 2640,
      "introdu": 2641,
      "higher": 2642,
      "virt": 2643,
      "accord": 2644,
      "000": 2645,
      "matching": 2646,
      "##aps": 2647,
      "##ask": 2648,
      "handler": 2649,
      "localhost": 2650,
      "##ird": 2651,
      "##ync": 2652,
      "goal": 2653,
      "timest": 2654,
      "da": 2655,
      "disk": 2656,
      "least": 2657,
      "rather": 2658,
      "##base": 2659,
      "v2": 2660,
      "##38": 2661,
      "effect": 2662,
      "authentic": 2663,
      "updated": 2664,
      "poly": 2665,
      "dim": 2666,
      "attempt": 2667,
      "mag": 2668,
      "##60": 2669,
      "maxim": 2670,
      "proto": 2671,
      "references": 2672,
      "respons": 2673,
      "##secret": 2674,
      "experimental": 2675,
      "directories": 2676,
      "##ending": 2677,
      "clust": 2678,
      "##tu": 2679,
      "##lot": 2680,
      "partial": 2681,
      "##izer": 2682,
      "##ne": 2683,
      "parsed": 2684,
      "grant": 2685,
      "plan": 2686,
      "entity": 2687,
      "watch": 2688,
      "##ently": 2689,
      "02": 2690,
      "ca": 2691,
      "##ascript": 2692,
      "##light": 2693,
      "ready": 2694,
      "recurs": 2695,
      "##state": 2696,
      "badge": 2697,
      "dns": 2698,
      "sha": 2699,
      "wrap": 2700,
      "wik": 2701,
      "assets": 2702,
      "instant": 2703,
      "workspace": 2704,
      "shown": 2705,
      "released": 2706,
      "enter": 2707,
      "##oose": 2708,
      "bash": 2709,
      "signal": 2710,
      "sugg": 2711,
      "regular": 2712,
      "##dd": 2713,
      "##ism": 2714,
      "according": 2715,
      "##emon": 2716,
      "finish": 2717,
      "heav": 2718,
      "excl": 2719,
      "batch": 2720,
      "username": 2721,
      "occ": 2722,
      "certific": 2723,
      "rendering": 2724,
      "proof": 2725,
      "give": 2726,
      "lam": 2727,
      "really": 2728,
      "##72": 2729,
      "##connect": 2730,
      "published": 2731,
      "rout": 2732,
      "##top": 2733,
      "initializ": 2734,
      "sched": 2735,
      "##ana": 2736,
      "choose": 2737,
      "sur": 2738,
      "##jor": 2739,
      "fill": 2740,
      "scal": 2741,
      "gram": 2742,
      "##files": 2743,
      "lex": 2744,
      "##iny": 2745,
      "##kit": 2746,
      "shad": 2747,
      "interpret": 2748,
      "pointer": 2749,
      "important": 2750,
      "repe": 2751,
      "##fb": 2752,
      "##ooks": 2753,
      "##anc": 2754,
      "asci": 2755,
      "##ug": 2756,
      "esp": 2757,
      "chat": 2758,
      "agent": 2759,
      "production": 2760,
      "forward": 2761,
      "having": 2762,
      "##oss": 2763,
      "curl": 2764,
      "inputs": 2765,
      "cfg": 2766,
      "##leep": 2767,
      "arm": 2768,
      "svg": 2769,
      "ax": 2770,
      "##ral": 2771,
      "deb": 2772,
      "button": 2773,
      "looking": 2774,
      "except": 2775,
      "callback": 2776,
      "site": 2777,
      "typed": 2778,
      "trace": 2779,
      "concur": 2780,
      "behavior": 2781,
      "##dev": 2782,
      "along": 2783,
      "##mess": 2784,
      "##off": 2785,
      "markdown": 2786,
      "##ips": 2787,
      "queries": 2788,
      "##roid": 2789,
      "points": 2790,
      "##mac": 2791,
      "serdejson": 2792,
      "##abil": 2793,
      "separate": 2794,
      "##ute": 2795,
      "gp": 2796,
      "du": 2797,
      "##allet": 2798,
      "old": 2799,
      "actually": 2800,
      "wip": 2801,
      "rad": 2802,
      "procedural": 2803,
      "##cell": 2804,
      "comes": 2805,
      "quot": 2806,
      "outputs": 2807,
      "##pe": 2808,
      "curs": 2809,
      "actor": 2810,
      "23": 2811,
      "##ium": 2812,
      "##cket": 2813,
      "09": 2814,
      "##print": 2815,
      "05": 2816,
      "##addr": 2817,
      "llvm": 2818,
      "visual": 2819,
      "tech": 2820,
      "contribute": 2821,
      "definition": 2822,
      "##eline": 2823,
      "pc": 2824,
      "##opt": 2825,
      "##graph": 2826,
      "##44": 2827,
      "limited": 2828,
      "1000": 2829,
      "dou": 2830,
      "compiling": 2831,
      "cost": 2832,
      "##ift": 2833,
      "clear": 2834,
      "##ouse": 2835,
      "configured": 2836,
      "mb": 2837,
      "background": 2838,
      "warning": 2839,
      "editor": 2840,
      "##lying": 2841,
      "website": 2842,
      "##consumer": 2843,
      "metrics": 2844,
      "##oke": 2845,
      "exactly": 2846,
      "den": 2847,
      "##ridge": 2848,
      "begin": 2849,
      "height": 2850,
      "matches": 2851,
      "individual": 2852,
      "board": 2853,
      "fire": 2854,
      "weight": 2855,
      "javascript": 2856,
      "writer": 2857,
      "##version": 2858,
      "comment": 2859,
      "##bar": 2860,
      "##2d": 2861,
      "tx": 2862,
      "starting": 2863,
      "compilation": 2864,
      "unicode": 2865,
      "invalid": 2866,
      "##token": 2867,
      "encryption": 2868,
      "hum": 2869,
      "mus": 2870,
      "inner": 2871,
      "##where": 2872,
      "fit": 2873,
      "##dp": 2874,
      "virtual": 2875,
      "installing": 2876,
      "video": 2877,
      "little": 2878,
      "annot": 2879,
      "##umb": 2880,
      "apps": 2881,
      "04": 2882,
      "arc": 2883,
      "peripher": 2884,
      "binding": 2885,
      "mock": 2886,
      "##leq": 2887,
      "adapt": 2888,
      "disable": 2889,
      "##resh": 2890,
      "pixel": 2891,
      "##way": 2892,
      "##depend": 2893,
      "mail": 2894,
      "thanks": 2895,
      "##address": 2896,
      "fold": 2897,
      "suggest": 2898,
      "easier": 2899,
      "likely": 2900,
      "discuss": 2901,
      "unique": 2902,
      "##iver": 2903,
      "definitions": 2904,
      "##92": 2905,
      "major": 2906,
      "##ialeq": 2907,
      "##52": 2908,
      "placeh": 2909,
      "screen": 2910,
      "accounts": 2911,
      "extra": 2912,
      "datas": 2913,
      "permission": 2914,
      "middle": 2915,
      "fromstr": 2916,
      "##trans": 2917,
      "##etimes": 2918,
      "##ival": 2919,
      "##nost": 2920,
      "sleep": 2921,
      "numer": 2922,
      "##u8": 2923,
      "##01": 2924,
      "corresponding": 2925,
      "partialeq": 2926,
      "logs": 2927,
      "secure": 2928,
      "maximum": 2929,
      "comments": 2930,
      "##array": 2931,
      "tar": 2932,
      "##ai": 2933,
      "css": 2934,
      "##istic": 2935,
      "##98": 2936,
      "tracing": 2937,
      "credentials": 2938,
      "cp": 2939,
      "##fully": 2940,
      "##rant": 2941,
      "pot": 2942,
      "##ination": 2943,
      "filename": 2944,
      "subject": 2945,
      "colors": 2946,
      "cryptograph": 2947,
      "##notes": 2948,
      "est": 2949,
      "##ipp": 2950,
      "coord": 2951,
      "##128": 2952,
      "merge": 2953,
      "lif": 2954,
      "considered": 2955,
      "won": 2956,
      "apt": 2957,
      "60": 2958,
      "variants": 2959,
      "activities": 2960,
      "##ym": 2961,
      "##response": 2962,
      "failure": 2963,
      "pred": 2964,
      "slow": 2965,
      "rate": 2966,
      "##aper": 2967,
      "squ": 2968,
      "gets": 2969,
      "vol": 2970,
      "models": 2971,
      "tmp": 2972,
      "payload": 2973,
      "clients": 2974,
      "measure": 2975,
      "prefer": 2976,
      "launch": 2977,
      "questions": 2978,
      "grammar": 2979,
      "##ots": 2980,
      "2019": 2981,
      "compatibility": 2982,
      "##asm": 2983,
      "##ached": 2984,
      "exists": 2985,
      "##13": 2986,
      "serial": 2987,
      "defines": 2988,
      "say": 2989,
      "seg": 2990,
      "communication": 2991,
      "ping": 2992,
      "seed": 2993,
      "configur": 2994,
      "safety": 2995,
      "azure": 2996,
      "printed": 2997,
      "tiny": 2998,
      "rt": 2999,
      "applicable": 3000,
      "registry": 3001,
      "android": 3002,
      "region": 3003,
      "validation": 3004,
      "##gers": 3005,
      "adj": 3006,
      "front": 3007,
      "games": 3008,
      "validate": 3009,
      "proper": 3010,
      "close": 3011,
      "compression": 3012,
      "##rt": 3013,
      "##omet": 3014,
      "##acy": 3015,
      "##inst": 3016,
      "clon": 3017,
      "##pth": 3018,
      "documents": 3019,
      "##he": 3020,
      "targets": 3021,
      "##att": 3022,
      "##owned": 3023,
      "entries": 3024,
      "limitations": 3025,
      "approach": 3026,
      "expressions": 3027,
      "##ulk": 3028,
      "appl": 3029,
      "##bl": 3030,
      "executed": 3031,
      "ways": 3032,
      "##ags": 3033,
      "across": 3034,
      "ease": 3035,
      "extensions": 3036,
      "organ": 3037,
      "bal": 3038,
      "offset": 3039,
      "26": 3040,
      "independ": 3041,
      "heap": 3042,
      "##ram": 3043,
      "quant": 3044,
      "##era": 3045,
      "ast": 3046,
      "templates": 3047,
      "manip": 3048,
      "##mem": 3049,
      "notice": 3050,
      "sources": 3051,
      "##query": 3052,
      "##weight": 3053,
      "08": 3054,
      "ipv": 3055,
      "##cel": 3056,
      "channels": 3057,
      "##ges": 3058,
      "packet": 3059,
      "share": 3060,
      "java": 3061,
      "##lection": 3062,
      "##ifest": 3063,
      "esc": 3064,
      "scale": 3065,
      "archive": 3066,
      "clos": 3067,
      "thing": 3068,
      "##ypes": 3069,
      "analys": 3070,
      "fmt": 3071,
      "placeholder": 3072,
      "claim": 3073,
      "addr": 3074,
      "##entially": 3075,
      "alternative": 3076,
      "car": 3077,
      "##fn": 3078,
      "##stand": 3079,
      "##ins": 3080,
      "led": 3081,
      "34": 3082,
      "hardware": 3083,
      "##num": 3084,
      "##web": 3085,
      "##write": 3086,
      "liter": 3087,
      "fo": 3088,
      "dimens": 3089,
      "removed": 3090,
      "alias": 3091,
      "ones": 3092,
      "scen": 3093,
      "idea": 3094,
      "##255": 3095,
      "admin": 3096,
      "interval": 3097,
      "##fort": 3098,
      "openssl": 3099,
      "instances": 3100,
      "history": 3101,
      "##context": 3102,
      "##gger": 3103,
      "##http": 3104,
      "abs": 3105,
      "groups": 3106,
      "router": 3107,
      "##ek": 3108,
      "together": 3109,
      "card": 3110,
      "##pool": 3111,
      "star": 3112,
      "community": 3113,
      "##a1": 3114,
      "equival": 3115,
      "##ager": 3116,
      "##mediate": 3117,
      "enough": 3118,
      "##change": 3119,
      "stores": 3120,
      "warrant": 3121,
      "##ibly": 3122,
      "pkg": 3123,
      "blockchain": 3124,
      "meta": 3125,
      "##wer": 3126,
      "##block": 3127,
      "timestamp": 3128,
      "##1111": 3129,
      "##ensh": 3130,
      "float": 3131,
      "expr": 3132,
      "##message": 3133,
      "manual": 3134,
      "laz": 3135,
      "zip": 3136,
      "##no": 3137,
      "##gon": 3138,
      "digit": 3139,
      "##58": 3140,
      "boot": 3141,
      "stdin": 3142,
      "36": 3143,
      "expand": 3144,
      "jpg": 3145,
      "##ulator": 3146,
      "asset": 3147,
      "linear": 3148,
      "shows": 3149,
      "oauth2": 3150,
      "##ah": 3151,
      "mp": 3152,
      "##iod": 3153,
      "##ison": 3154,
      "##sql": 3155,
      "leg": 3156,
      "cluster": 3157,
      "servers": 3158,
      "##ople": 3159,
      "##ints": 3160,
      "property": 3161,
      "##tp": 3162,
      "debugging": 3163,
      "##xxxx": 3164,
      "doing": 3165,
      "semant": 3166,
      "##rency": 3167,
      "##thers": 3168,
      "dro": 3169,
      "##rait": 3170,
      "steps": 3171,
      "##3d": 3172,
      "##oks": 3173,
      "mot": 3174,
      "prec": 3175,
      "bugs": 3176,
      "prompt": 3177,
      "ss": 3178,
      "ts": 3179,
      "##date": 3180,
      "snap": 3181,
      "declar": 3182,
      "28": 3183,
      "near": 3184,
      "nix": 3185,
      "##grou": 3186,
      "constra": 3187,
      "press": 3188,
      "ep": 3189,
      "fre": 3190,
      "##79": 3191,
      "suit": 3192,
      "receive": 3193,
      "aims": 3194,
      "scan": 3195,
      "fam": 3196,
      "##ceed": 3197,
      "##streamer": 3198,
      "msrv": 3199,
      "toowned": 3200,
      "##ane": 3201,
      "allowed": 3202,
      "breaking": 3203,
      "rol": 3204,
      "people": 3205,
      "day": 3206,
      "##wd": 3207,
      "bund": 3208,
      "rob": 3209,
      "listennotes": 3210,
      "##raft": 3211,
      "looks": 3212,
      "ssh": 3213,
      "##bre": 3214,
      "lists": 3215,
      "initialize": 3216,
      "feedback": 3217,
      "persistent": 3218,
      "transfer": 3219,
      "cursor": 3220,
      "reads": 3221,
      "ignore": 3222,
      "cam": 3223,
      "##bc": 3224,
      "##buffer": 3225,
      "2018": 3226,
      "##ledge": 3227,
      "##cing": 3228,
      "bsd": 3229,
      "##std": 3230,
      "append": 3231,
      "learning": 3232,
      "going": 3233,
      "player": 3234,
      "concept": 3235,
      "##check": 3236,
      "login": 3237,
      "checking": 3238,
      "team": 3239,
      "2d": 3240,
      "##48": 3241,
      "##input": 3242,
      "increment": 3243,
      "##dat": 3244,
      "params": 3245,
      "ascii": 3246,
      "##anced": 3247,
      "##bda": 3248,
      "think": 3249,
      "therefore": 3250,
      "usr": 3251,
      "received": 3252,
      "codes": 3253,
      "aren": 3254,
      "03": 3255,
      "dr": 3256,
      "##hip": 3257,
      "i64": 3258,
      "produce": 3259,
      "integers": 3260,
      "##process": 3261,
      "reduce": 3262,
      "27": 3263,
      "blocking": 3264,
      "nat": 3265,
      "ink": 3266,
      "analysis": 3267,
      "##ield": 3268,
      "authors": 3269,
      "care": 3270,
      "##ience": 3271,
      "monitor": 3272,
      "manifest": 3273,
      "frequ": 3274,
      "tetcore": 3275,
      "##ka": 3276,
      "##ener": 3277,
      "##ropri": 3278,
      "##ros": 3279,
      "blob": 3280,
      "##patch": 3281,
      "active": 3282,
      "##len": 3283,
      "delegate": 3284,
      "tuple": 3285,
      "architecture": 3286,
      "logger": 3287,
      "formatting": 3288,
      "verbose": 3289,
      "##jo": 3290,
      "strong": 3291,
      "developers": 3292,
      "depends": 3293,
      "##ulate": 3294,
      "past": 3295,
      "decoding": 3296,
      "cause": 3297,
      "##wt": 3298,
      "understand": 3299,
      "31": 3300,
      "suite": 3301,
      "ubun": 3302,
      "happen": 3303,
      "soon": 3304,
      "connections": 3305,
      "abstraction": 3306,
      "chr": 3307,
      "alpha": 3308,
      "convenient": 3309,
      "##68": 3310,
      "##ample": 3311,
      "apple": 3312,
      "0x00": 3313,
      "instruction": 3314,
      "trigger": 3315,
      "ubuntu": 3316,
      "##cr": 3317,
      "##25": 3318,
      "timer": 3319,
      "provider": 3320,
      "gstreamer": 3321,
      "described": 3322,
      "secrets": 3323,
      "##init": 3324,
      "builders": 3325,
      "align": 3326,
      "environments": 3327,
      "widget": 3328,
      "incom": 3329,
      "appropri": 3330,
      "##format": 3331,
      "##95": 3332,
      "filesystem": 3333,
      "distribution": 3334,
      "thus": 3335,
      "beta": 3336,
      "skip": 3337,
      "##izes": 3338,
      "##ool": 3339,
      "goals": 3340,
      "rocket": 3341,
      "255": 3342,
      "##item": 3343,
      "##ruct": 3344,
      "depth": 3345,
      "series": 3346,
      "##1b": 3347,
      "relative": 3348,
      "stm32": 3349,
      "creation": 3350,
      "allocator": 3351,
      "arrays": 3352,
      "ol": 3353,
      "extend": 3354,
      "consum": 3355,
      "vm": 3356,
      "123": 3357,
      "lightweight": 3358,
      "##stable": 3359,
      "reports": 3360,
      "round": 3361,
      "depending": 3362,
      "emit": 3363,
      "click": 3364,
      "transport": 3365,
      "highlight": 3366,
      "upgr": 3367,
      "tell": 3368,
      "##imit": 3369,
      "sending": 3370,
      "sqlite": 3371,
      "##nostic": 3372,
      "##ational": 3373,
      "interfaces": 3374,
      "contracts": 3375,
      "##tree": 3376,
      "equivalent": 3377,
      "##used": 3378,
      "retrieve": 3379,
      "sa": 3380,
      "delay": 3381,
      "##plugin": 3382,
      "atomic": 3383,
      "pages": 3384,
      "s3": 3385,
      "often": 3386,
      "##vision": 3387,
      "##pri": 3388,
      "cos": 3389,
      "07": 3390,
      "##stat": 3391,
      "detailed": 3392,
      "##25519": 3393,
      "##doc": 3394,
      "u16": 3395,
      "##tex": 3396,
      "recommend": 3397,
      "scheme": 3398,
      "44": 3399,
      "##uous": 3400,
      "peer": 3401,
      "##pass": 3402,
      "##28": 3403,
      "coll": 3404,
      "##ox": 3405,
      "##dr": 3406,
      "##dk": 3407,
      "underlying": 3408,
      "nested": 3409,
      "allocation": 3410,
      "##wards": 3411,
      "minor": 3412,
      "##atures": 3413,
      "early": 3414,
      "generally": 3415,
      "bitcoin": 3416,
      "sometimes": 3417,
      "tables": 3418,
      "##ta": 3419,
      "##75": 3420,
      "live": 3421,
      "retry": 3422,
      "disabled": 3423,
      "codecov": 3424,
      "ris": 3425,
      "##cm": 3426,
      "es": 3427,
      "sound": 3428,
      "deprec": 3429,
      "choice": 3430,
      "stud": 3431,
      "##lems": 3432,
      "possibly": 3433,
      "optimized": 3434,
      "mill": 3435,
      "##west": 3436,
      "coordin": 3437,
      "##dec": 3438,
      "256": 3439,
      "##ffers": 3440,
      "rm": 3441,
      "tun": 3442,
      "##book": 3443,
      "##cre": 3444,
      "guid": 3445,
      "mount": 3446,
      "independent": 3447,
      "##rain": 3448,
      "far": 3449,
      "##hing": 3450,
      "macrou": 3451,
      "macrouse": 3452,
      "1234": 3453,
      "##control": 3454,
      "mech": 3455,
      "double": 3456,
      "##use": 3457,
      "lua": 3458,
      "##my": 3459,
      "##bor": 3460,
      "128": 3461,
      "supporting": 3462,
      "route": 3463,
      "hold": 3464,
      "timeout": 3465,
      "month": 3466,
      "loading": 3467,
      "distance": 3468,
      "uuid": 3469,
      "summ": 3470,
      "optionally": 3471,
      "patterns": 3472,
      "48": 3473,
      "iam": 3474,
      "deriv": 3475,
      "pipeline": 3476,
      "##ially": 3477,
      "##event": 3478,
      "strict": 3479,
      "identity": 3480,
      "websocket": 3481,
      "##go": 3482,
      "trust": 3483,
      "boo": 3484,
      "##erequ": 3485,
      "operating": 3486,
      "computer": 3487,
      "screensh": 3488,
      "rng": 3489,
      "tab": 3490,
      "29": 3491,
      "yourself": 3492,
      "signed": 3493,
      "longer": 3494,
      "ps": 3495,
      "pdf": 3496,
      "img": 3497,
      "bucket": 3498,
      "maybe": 3499,
      "flat": 3500,
      "others": 3501,
      "##iler": 3502,
      "##abilities": 3503,
      "protocols": 3504,
      "nom": 3505,
      "identifier": 3506,
      "##object": 3507,
      "mapping": 3508,
      "passing": 3509,
      "invoc": 3510,
      "desktop": 3511,
      "ste": 3512,
      "curve": 3513,
      "gui": 3514,
      "streams": 3515,
      "ho": 3516,
      "ren": 3517,
      "##ren": 3518,
      "##ense": 3519,
      "##orter": 3520,
      "describ": 3521,
      "appropriate": 3522,
      "concurrent": 3523,
      "conduct": 3524,
      "##compress": 3525,
      "meant": 3526,
      "verification": 3527,
      "sat": 3528,
      "##rupt": 3529,
      "##0000000000000000": 3530,
      "ignored": 3531,
      "gitlab": 3532,
      "graphics": 3533,
      "##eres": 3534,
      "contributors": 3535,
      "##mail": 3536,
      "##most": 3537,
      "force": 3538,
      "friendly": 3539,
      "gpio": 3540,
      "cc": 3541,
      "lookup": 3542,
      "green": 3543,
      "##31": 3544,
      "modified": 3545,
      "0x0": 3546,
      "##26": 3547,
      "overhead": 3548,
      "##ae": 3549,
      "##aq": 3550,
      "##anned": 3551,
      "lambda": 3552,
      "##ident": 3553,
      "##options": 3554,
      "enums": 3555,
      "ls": 3556,
      "third": 3557,
      "##pub": 3558,
      "##eration": 3559,
      "interactive": 3560,
      "##actor": 3561,
      "edge": 3562,
      "pract": 3563,
      "rc": 3564,
      "samples": 3565,
      "##acity": 3566,
      "06": 3567,
      "ff": 3568,
      "##amed": 3569,
      "##plate": 3570,
      "problems": 3571,
      "56": 3572,
      "addresses": 3573,
      "primitives": 3574,
      "stri": 3575,
      "developed": 3576,
      "lead": 3577,
      "blue": 3578,
      "kinds": 3579,
      "ord": 3580,
      "##bbbb": 3581,
      "certificate": 3582,
      "sect": 3583,
      "tod": 3584,
      "compute": 3585,
      "rot": 3586,
      "fall": 3587,
      "##izing": 3588,
      "nothing": 3589,
      "##bs": 3590,
      "decoder": 3591,
      "##ube": 3592,
      "reset": 3593,
      "##any": 3594,
      "inline": 3595,
      "review": 3596,
      "cmd": 3597,
      "invok": 3598,
      "encrypted": 3599,
      "##cb": 3600,
      "##ili": 3601,
      "plain": 3602,
      "represented": 3603,
      "instanti": 3604,
      "##utor": 3605,
      "svd": 3606,
      "blog": 3607,
      "ul": 3608,
      "ability": 3609,
      "maps": 3610,
      "##start": 3611,
      "human": 3612,
      "aff": 3613,
      "processes": 3614,
      "##ones": 3615,
      "consumer": 3616,
      "guard": 3617,
      "records": 3618,
      "mom": 3619,
      "diction": 3620,
      "##link": 3621,
      "automatic": 3622,
      "##js": 3623,
      "##f8": 3624,
      "trying": 3625,
      "analyz": 3626,
      "##fa": 3627,
      "lazy": 3628,
      "compl": 3629,
      "##service": 3630,
      "mar": 3631,
      "mostly": 3632,
      "transactions": 3633,
      "quickly": 3634,
      "mk": 3635,
      "listed": 3636,
      "bindgen": 3637,
      "comparison": 3638,
      "##iom": 3639,
      "locally": 3640,
      "fore": 3641,
      "middleware": 3642,
      "rusty": 3643,
      "warn": 3644,
      "##store": 3645,
      "functional": 3646,
      "mutable": 3647,
      "utc": 3648,
      "##param": 3649,
      "rename": 3650,
      "##bra": 3651,
      "prep": 3652,
      "i2c": 3653,
      "##order": 3654,
      "suff": 3655,
      "eth": 3656,
      "na": 3657,
      "##23": 3658,
      "filters": 3659,
      "ach": 3660,
      "chip": 3661,
      "##irection": 3662,
      "##alloc": 3663,
      "boole": 3664,
      "interested": 3665,
      "jobs": 3666,
      "##secs": 3667,
      "road": 3668,
      "equal": 3669,
      "90": 3670,
      "finally": 3671,
      "determine": 3672,
      "condition": 3673,
      "whole": 3674,
      "mechan": 3675,
      "cipher": 3676,
      "selected": 3677,
      "45": 3678,
      "##ours": 3679,
      "crypto": 3680,
      "semver": 3681,
      "##etype": 3682,
      "##ocks": 3683,
      "##reader": 3684,
      "reverse": 3685,
      "##ifications": 3686,
      "year": 3687,
      "##fd": 3688,
      "##verage": 3689,
      "highly": 3690,
      "##color": 3691,
      "10000": 3692,
      "fac": 3693,
      "nav": 3694,
      "clause": 3695,
      "serve": 3696,
      "##claim": 3697,
      "pa": 3698,
      "reqwest": 3699,
      "gpu": 3700,
      "nan": 3701,
      "diag": 3702,
      "##cent": 3703,
      "##ifact": 3704,
      "##idden": 3705,
      "heavy": 3706,
      "attach": 3707,
      "tor": 3708,
      "##ho": 3709,
      "bump": 3710,
      "deprecated": 3711,
      "eq": 3712,
      "mesh": 3713,
      "chunk": 3714,
      "come": 3715,
      "sig": 3716,
      "indic": 3717,
      "invoke": 3718,
      "purposes": 3719,
      "bob": 3720,
      "ef": 3721,
      "oct": 3722,
      "udp": 3723,
      "containers": 3724,
      "peripheral": 3725,
      "stuff": 3726,
      "##plete": 3727,
      "specifically": 3728,
      "debian": 3729,
      "mid": 3730,
      "3d": 3731,
      "##fu": 3732,
      "##irm": 3733,
      "compos": 3734,
      "detection": 3735,
      "executor": 3736,
      "##100": 3737,
      "##aging": 3738,
      "lets": 3739,
      "sil": 3740,
      "black": 3741,
      "##hn": 3742,
      "effort": 3743,
      "older": 3744,
      "gz": 3745,
      "##abling": 3746,
      "reach": 3747,
      "serialized": 3748,
      "resulting": 3749,
      "worker": 3750,
      "##uction": 3751,
      "##flags": 3752,
      "tile": 3753,
      "abstract": 3754,
      "anim": 3755,
      "##izations": 3756,
      "subcommands": 3757,
      "vs": 3758,
      "##gine": 3759,
      "##reg": 3760,
      "stage": 3761,
      "remain": 3762,
      "snapsh": 3763,
      "##br": 3764,
      "basis": 3765,
      "iso": 3766,
      "backup": 3767,
      "additionally": 3768,
      "wallet": 3769,
      "##bsd": 3770,
      "travis": 3771,
      "appe": 3772,
      "ids": 3773,
      "##ieve": 3774,
      "quite": 3775,
      "signific": 3776,
      "period": 3777,
      "8080": 3778,
      "moment": 3779,
      "54": 3780,
      "##yy": 3781,
      "usable": 3782,
      "assign": 3783,
      "primitive": 3784,
      "handles": 3785,
      "responses": 3786,
      "pick": 3787,
      "conn": 3788,
      "occur": 3789,
      "intermediate": 3790,
      "ctr": 3791,
      "tick": 3792,
      "personal": 3793,
      "suitable": 3794,
      "wrappers": 3795,
      "calculate": 3796,
      "##a0": 3797,
      "##ostd": 3798,
      "33": 3799,
      "clock": 3800,
      "flexible": 3801,
      "unstable": 3802,
      "##ores": 3803,
      "##anges": 3804,
      "respectively": 3805,
      "artifact": 3806,
      "correctly": 3807,
      "wish": 3808,
      "##osystem": 3809,
      "ir": 3810,
      "guaranteed": 3811,
      "##group": 3812,
      "rev": 3813,
      "##angle": 3814,
      "slic": 3815,
      "##29": 3816,
      "checked": 3817,
      "46": 3818,
      "##account": 3819,
      "##asp": 3820,
      "##vert": 3821,
      "wr": 3822,
      "##pper": 3823,
      "closureenv": 3824,
      "schedul": 3825,
      "##illa": 3826,
      "##args": 3827,
      "##rem": 3828,
      "alth": 3829,
      "##ki": 3830,
      "alternatively": 3831,
      "gtk": 3832,
      "npm": 3833,
      "daemon": 3834,
      "got": 3835,
      "trees": 3836,
      "central": 3837,
      "keyword": 3838,
      "loaded": 3839,
      "phys": 3840,
      "espec": 3841,
      "##image": 3842,
      "baz": 3843,
      "##kb": 3844,
      "neg": 3845,
      "copied": 3846,
      "touch": 3847,
      "party": 3848,
      "lower": 3849,
      "invocation": 3850,
      "exce": 3851,
      "##function": 3852,
      "although": 3853,
      "almost": 3854,
      "issu": 3855,
      "members": 3856,
      "mater": 3857,
      "brew": 3858,
      "meaning": 3859,
      "priority": 3860,
      "38": 3861,
      "##run": 3862,
      "prevent": 3863,
      "##face": 3864,
      "##method": 3865,
      "libc": 3866,
      "##des": 3867,
      "##istics": 3868,
      "redirect": 3869,
      "documented": 3870,
      "ld": 3871,
      "chron": 3872,
      "starts": 3873,
      "significant": 3874,
      "##ivers": 3875,
      "planned": 3876,
      "among": 3877,
      "renderer": 3878,
      "protobuf": 3879,
      "especially": 3880,
      "offers": 3881,
      "compressed": 3882,
      "37": 3883,
      "##ides": 3884,
      "online": 3885,
      "connected": 3886,
      "uri": 3887,
      "owner": 3888,
      "repositories": 3889,
      "cour": 3890,
      "namespace": 3891,
      "##2p": 3892,
      "##vide": 3893,
      "rh": 3894,
      "dictionary": 3895,
      "advanced": 3896,
      "structured": 3897,
      "encoder": 3898,
      "adjust": 3899,
      "##ids": 3900,
      "##gui": 3901,
      "##eet": 3902,
      "##strate": 3903,
      "tempor": 3904,
      "had": 3905,
      "sit": 3906,
      "192": 3907,
      "##util": 3908,
      "agnostic": 3909,
      "##ockets": 3910,
      "dead": 3911,
      "twitter": 3912,
      "uploads": 3913,
      "ecosystem": 3914,
      "hook": 3915,
      "##aged": 3916,
      "boolean": 3917,
      "decrypt": 3918,
      "##iness": 3919,
      "quality": 3920,
      "techn": 3921,
      "abc": 3922,
      "away": 3923,
      "51": 3924,
      "mouse": 3925,
      "35": 3926,
      "behind": 3927,
      "visit": 3928,
      "pipe": 3929,
      "endpoints": 3930,
      "trad": 3931,
      "##f64": 3932,
      "readable": 3933,
      "exposes": 3934,
      "dispatch": 3935,
      "##cal": 3936,
      "mysql": 3937,
      "finished": 3938,
      "operator": 3939,
      "moz": 3940,
      "hope": 3941,
      "##esome": 3942,
      "sections": 3943,
      "##card": 3944,
      "life": 3945,
      "##astic": 3946,
      "demon": 3947,
      "99": 3948,
      "tt": 3949,
      "indicate": 3950,
      "gpl": 3951,
      "buffers": 3952,
      "compare": 3953,
      "recent": 3954,
      "##fmt": 3955,
      "##trace": 3956,
      "inspect": 3957,
      "deserialization": 3958,
      "decimal": 3959,
      "ideas": 3960,
      "applied": 3961,
      "authenticator": 3962,
      "factor": 3963,
      "subst": 3964,
      "##enu": 3965,
      "seem": 3966,
      "commits": 3967,
      "gives": 3968,
      "iot": 3969,
      "##atives": 3970,
      "##alog": 3971,
      "completion": 3972,
      "v3": 3973,
      "answer": 3974,
      "inject": 3975,
      "##node": 3976,
      "##orth": 3977,
      "strateg": 3978,
      "39": 3979,
      "pac": 3980,
      "##odb": 3981,
      "roadmap": 3982,
      "ins": 3983,
      "infl": 3984,
      "ctrl": 3985,
      "hack": 3986,
      "##upp": 3987,
      "##vant": 3988,
      "states": 3989,
      "##war": 3990,
      "difference": 3991,
      "cas": 3992,
      "filtermap": 3993,
      "##let": 3994,
      "simd": 3995,
      "modern": 3996,
      "descript": 3997,
      "##ercase": 3998,
      "##ifiers": 3999,
      "##imple": 4000,
      "##ponse": 4001,
      "##aaaa": 4002,
      "dimension": 4003,
      "compli": 4004,
      "hot": 4005,
      "##level": 4006,
      "intel": 4007,
      "##aily": 4008,
      "rb": 4009,
      "perf": 4010,
      "##content": 4011,
      "moved": 4012,
      "dt": 4013,
      "##ba": 4014,
      "rows": 4015,
      "##ulkan": 4016,
      "hi": 4017,
      "##tim": 4018,
      "202": 4019,
      "##onic": 4020,
      "podcasts": 4021,
      "fig": 4022,
      "statically": 4023,
      "##conds": 4024,
      "converting": 4025,
      "cook": 4026,
      "mind": 4027,
      "##elines": 4028,
      "##iff": 4029,
      "course": 4030,
      "##lay": 4031,
      "##alth": 4032,
      "destination": 4033,
      "vault": 4034,
      "walk": 4035,
      "interest": 4036,
      "separated": 4037,
      "shar": 4038,
      "##gebra": 4039,
      "audit": 4040,
      "gate": 4041,
      "nice": 4042,
      "##wid": 4043,
      "solana": 4044,
      "##00x": 4045,
      "##ducer": 4046,
      "streaming": 4047,
      "restr": 4048,
      "ess": 4049,
      "rat": 4050,
      "revision": 4051,
      "cach": 4052,
      "ws": 4053,
      "artic": 4054,
      "grid": 4055,
      "convenience": 4056,
      "bridge": 4057,
      "##dele": 4058,
      "capabilities": 4059,
      "preview": 4060,
      "helps": 4061,
      "168": 4062,
      "bat": 4063,
      "cs": 4064,
      "##oj": 4065,
      "##parser": 4066,
      "vulkan": 4067,
      "##ride": 4068,
      "sensor": 4069,
      "signatures": 4070,
      "scop": 4071,
      "eg": 4072,
      "wire": 4073,
      "nostd": 4074,
      "summary": 4075,
      "##ised": 4076,
      "mutex": 4077,
      "screenshot": 4078,
      "##utorial": 4079,
      "alice": 4080,
      "dump": 4081,
      "ring": 4082,
      "four": 4083,
      "##sequ": 4084,
      "implied": 4085,
      "english": 4086,
      "daily": 4087,
      "yield": 4088,
      "versioning": 4089,
      "granted": 4090,
      "offer": 4091,
      "aggre": 4092,
      "tracker": 4093,
      "located": 4094,
      "paper": 4095,
      "##gets": 4096,
      "hol": 4097,
      "keyboard": 4098,
      "wiki": 4099,
      "tele": 4100,
      "capture": 4101,
      "arith": 4102,
      "accur": 4103,
      "icon": 4104,
      "##71": 4105,
      "##hel": 4106,
      "absol": 4107,
      "##module": 4108,
      "symbols": 4109,
      "##65": 4110,
      "pg": 4111,
      "##mill": 4112,
      "larger": 4113,
      "rp": 4114,
      "##bind": 4115,
      "sender": 4116,
      "ergon": 4117,
      "##vc": 4118,
      "duplic": 4119,
      "tutorial": 4120,
      "vert": 4121,
      "efm32": 4122,
      "optimization": 4123,
      "replacement": 4124,
      "numeric": 4125,
      "closureenv0": 4126,
      "placed": 4127,
      "##a2": 4128,
      "##ogn": 4129,
      "tries": 4130,
      "hooks": 4131,
      "usb": 4132,
      "##ants": 4133,
      "multip": 4134,
      "##tool": 4135,
      "##iform": 4136,
      "fine": 4137,
      "statements": 4138,
      "converted": 4139,
      "cryptographic": 4140,
      "##asing": 4141,
      "internally": 4142,
      "downloaded": 4143,
      "##itude": 4144,
      "statement": 4145,
      "synchron": 4146,
      "owned": 4147,
      "extended": 4148,
      "cosm": 4149,
      "##msg": 4150,
      "##logy": 4151,
      "simulation": 4152,
      "1024": 4153,
      "smaller": 4154,
      "activity": 4155,
      "introduction": 4156,
      "##pos": 4157,
      "##struction": 4158,
      "pointers": 4159,
      "sorted": 4160,
      "fav": 4161,
      "upon": 4162,
      "floating": 4163,
      "assuming": 4164,
      "interpreter": 4165,
      "##wm": 4166,
      "##omes": 4167,
      "accessing": 4168,
      "registered": 4169,
      "##producer": 4170,
      "prs": 4171,
      "##9999": 4172,
      "motiv": 4173,
      "bt": 4174,
      "exports": 4175,
      "##know": 4176,
      "average": 4177,
      "##erate": 4178,
      "frames": 4179,
      "toolkit": 4180,
      "interacting": 4181,
      "ipv4": 4182,
      "##bus": 4183,
      "spot": 4184,
      "defining": 4185,
      "performs": 4186,
      "accel": 4187,
      "represents": 4188,
      "##default": 4189,
      "concat": 4190,
      "##bot": 4191,
      "recursive": 4192,
      "70": 4193,
      "##chem": 4194,
      "typically": 4195,
      "##na": 4196,
      "tui": 4197,
      "##brew": 4198,
      "mm": 4199,
      "infer": 4200,
      "##etic": 4201,
      "arithmet": 4202,
      "tracking": 4203,
      "potentially": 4204,
      "##overy": 4205,
      "##nn": 4206,
      "migration": 4207,
      "dum": 4208,
      "eu": 4209,
      "vectors": 4210,
      "##ius": 4211,
      "##soft": 4212,
      "utils": 4213,
      "##size": 4214,
      "##wasm": 4215,
      "awesome": 4216,
      "dash": 4217,
      "units": 4218,
      "clap": 4219,
      "datetime": 4220,
      "chrono": 4221,
      "##page": 4222,
      "entities": 4223,
      "##rustls": 4224,
      "continue": 4225,
      "properly": 4226,
      "cloned": 4227,
      "marked": 4228,
      "broad": 4229,
      "override": 4230,
      "precision": 4231,
      "obj": 4232,
      "##handler": 4233,
      "storing": 4234,
      "invol": 4235,
      "determin": 4236,
      "##mode": 4237,
      "##ctl": 4238,
      "##ategor": 4239,
      "validator": 4240,
      "react": 4241,
      "ens": 4242,
      "formatted": 4243,
      "datasets": 4244,
      "mozilla": 4245,
      "taken": 4246,
      "##usive": 4247,
      "computation": 4248,
      "specifying": 4249,
      "maintained": 4250,
      "##ration": 4251,
      "opening": 4252,
      "hyperrustls": 4253,
      "55": 4254,
      "rustls": 4255,
      "columns": 4256,
      "piec": 4257,
      "mix": 4258,
      "##ater": 4259,
      "frontend": 4260,
      "gam": 4261,
      "##62": 4262,
      "##iles": 4263,
      "whites": 4264,
      "func": 4265,
      "stats": 4266,
      "##like": 4267,
      "har": 4268,
      "wor": 4269,
      "contained": 4270,
      "##omp": 4271,
      "wanted": 4272,
      "##status": 4273,
      "##vent": 4274,
      "##c0": 4275,
      "##42": 4276,
      "ed25519": 4277,
      "mdb": 4278,
      "##73": 4279,
      "##enance": 4280,
      "role": 4281,
      "signing": 4282,
      "##tom": 4283,
      "inlin": 4284,
      "##ppy": 4285,
      "##frame": 4286,
      "##rase": 4287,
      "clip": 4288,
      "##sub": 4289,
      "greet": 4290,
      "ever": 4291,
      "##ora": 4292,
      "##output": 4293,
      "exchange": 4294,
      "interrupt": 4295,
      "parsers": 4296,
      "sampl": 4297,
      "continuous": 4298,
      "##ising": 4299,
      "##und": 4300,
      "exposed": 4301,
      "packets": 4302,
      "mob": 4303,
      "##7f": 4304,
      "##uri": 4305,
      "##45": 4306,
      "circle": 4307,
      "##ensive": 4308,
      "##ha": 4309,
      "shape": 4310,
      "##f32": 4311,
      "##ivity": 4312,
      "0xe": 4313,
      "resolve": 4314,
      "upgrade": 4315,
      "ded": 4316,
      "gar": 4317,
      "##body": 4318,
      "anyone": 4319,
      "tm": 4320,
      "##rd": 4321,
      "thumb": 4322,
      "##ecode": 4323,
      "mystruct": 4324,
      "rect": 4325,
      "keyp": 4326,
      "navig": 4327,
      "sal": 4328,
      "hashing": 4329,
      "repeated": 4330,
      "##table": 4331,
      "ordering": 4332,
      "wrapped": 4333,
      "become": 4334,
      "500": 4335,
      "recip": 4336,
      "music": 4337,
      "prepare": 4338,
      "ln": 4339,
      "omit": 4340,
      "##ategory": 4341,
      "59": 4342,
      "cast": 4343,
      "##search": 4344,
      "snipp": 4345,
      "##macro": 4346,
      "df": 4347,
      "seen": 4348,
      "##rete": 4349,
      "grad": 4350,
      "##cod": 4351,
      "theme": 4352,
      "bring": 4353,
      "fails": 4354,
      "padd": 4355,
      "##lers": 4356,
      "sequences": 4357,
      "lifetime": 4358,
      "derived": 4359,
      "acknow": 4360,
      "maintenance": 4361,
      "geomet": 4362,
      "enabling": 4363,
      "notification": 4364,
      "outside": 4365,
      "##dom": 4366,
      "managing": 4367,
      "##lang": 4368,
      "univers": 4369,
      "flash": 4370,
      "configurable": 4371,
      "mint": 4372,
      "##abs": 4373,
      "helpers": 4374,
      "digital": 4375,
      "##anner": 4376,
      "children": 4377,
      "##cf": 4378,
      "copies": 4379,
      "##l2": 4380,
      "##ogame": 4381,
      "resolution": 4382,
      "unsigned": 4383,
      "attack": 4384,
      "##logger": 4385,
      "mis": 4386,
      "##orage": 4387,
      "statistics": 4388,
      "2017": 4389,
      "dropped": 4390,
      "##var": 4391,
      "##eto": 4392,
      "mir": 4393,
      "grpc": 4394,
      "microcontrol": 4395,
      "literal": 4396,
      "fair": 4397,
      "##mon": 4398,
      "##selling": 4399,
      "##pf": 4400,
      "exe": 4401,
      "produced": 4402,
      "decoded": 4403,
      "market": 4404,
      "termin": 4405,
      "bestselling": 4406,
      "square": 4407,
      "relevant": 4408,
      "arithmetic": 4409,
      "bestsellingvide": 4410,
      "##etry": 4411,
      "limitation": 4412,
      "49": 4413,
      "##ua": 4414,
      "stub": 4415,
      "base64": 4416,
      "chunks": 4417,
      "bestsellingvideogame": 4418,
      "question": 4419,
      "##ken": 4420,
      "blo": 4421,
      "parses": 4422,
      "dynamically": 4423,
      "##hook": 4424,
      "aware": 4425,
      "train": 4426,
      "orient": 4427,
      "##vari": 4428,
      "compared": 4429,
      "##project": 4430,
      "pairs": 4431,
      "##number": 4432,
      "ram": 4433,
      "##ios": 4434,
      "writes": 4435,
      "65": 4436,
      "##atever": 4437,
      "##async": 4438,
      "##osen": 4439,
      "##00000": 4440,
      "intoiter": 4441,
      "solve": 4442,
      "loss": 4443,
      "noise": 4444,
      "representing": 4445,
      "##v2": 4446,
      "whatever": 4447,
      "plus": 4448,
      "allocated": 4449,
      "customize": 4450,
      "price": 4451,
      "urls": 4452,
      "pk": 4453,
      "pid": 4454,
      "asbytes": 4455,
      "arr": 4456,
      "operators": 4457,
      "##queue": 4458,
      "authorization": 4459,
      "thresh": 4460,
      "mechanism": 4461,
      "atom": 4462,
      "compact": 4463,
      "poll": 4464,
      "##millis": 4465,
      "cou": 4466,
      "slices": 4467,
      "material": 4468,
      "##icult": 4469,
      "uniform": 4470,
      "fromsecs": 4471,
      "crc": 4472,
      "##example": 4473,
      "internet": 4474,
      "center": 4475,
      "##dc": 4476,
      "##det": 4477,
      "knowledge": 4478,
      "cud": 4479,
      "##width": 4480,
      "##ew": 4481,
      "deps": 4482,
      "score": 4483,
      "##part": 4484,
      "boiler": 4485,
      "v4": 4486,
      "alt": 4487,
      "cand": 4488,
      "edition": 4489,
      "##eg": 4490,
      "describe": 4491,
      "libs": 4492,
      "##icon": 4493,
      "##iration": 4494,
      "deployment": 4495,
      "warranty": 4496,
      "mdbook": 4497,
      "medi": 4498,
      "##inct": 4499,
      "##arse": 4500,
      "##utions": 4501,
      "selection": 4502,
      "advant": 4503,
      "hor": 4504,
      "##root": 4505,
      "##oper": 4506,
      "basically": 4507,
      "primar": 4508,
      "member": 4509,
      "frequency": 4510,
      "##call": 4511,
      "##utes": 4512,
      "##69": 4513,
      "asref": 4514,
      "exception": 4515,
      "sprit": 4516,
      "homebrew": 4517,
      "rasp": 4518,
      "vi": 4519,
      "##xim": 4520,
      "fib": 4521,
      "##ensor": 4522,
      "topic": 4523,
      "jwt": 4524,
      "white": 4525,
      "executing": 4526,
      "convention": 4527,
      "##ptr": 4528,
      "ct": 4529,
      "gh": 4530,
      "plot": 4531,
      "wild": 4532,
      "##rf": 4533,
      "ruby": 4534,
      "##writer": 4535,
      "wg": 4536,
      "##nt": 4537,
      "##f0": 4538,
      "##ky": 4539,
      "disclaim": 4540,
      "##aking": 4541,
      "explain": 4542,
      "##aint": 4543,
      "##59": 4544,
      "threaded": 4545,
      "difficult": 4546,
      "##89": 4547,
      "ann": 4548,
      "##gener": 4549,
      "actors": 4550,
      "profil": 4551,
      "controller": 4552,
      "categor": 4553,
      "##bound": 4554,
      "##tag": 4555,
      "##abi": 4556,
      "regard": 4557,
      "health": 4558,
      "whitespace": 4559,
      "##arily": 4560,
      "deep": 4561,
      "clippy": 4562,
      "openapi": 4563,
      "##a4": 4564,
      "chart": 4565,
      "seq": 4566,
      "##handle": 4567,
      "nor": 4568,
      "##f2": 4569,
      "##aks": 4570,
      "wrong": 4571,
      "completely": 4572,
      "semantic": 4573,
      "primarily": 4574,
      "substrate": 4575,
      "bounds": 4576,
      "52": 4577,
      "prerequ": 4578,
      "reli": 4579,
      "john": 4580,
      "capacity": 4581,
      "mong": 4582,
      "runner": 4583,
      "subt": 4584,
      "##manager": 4585,
      "##case": 4586,
      "##mented": 4587,
      "##ops": 4588,
      "constants": 4589,
      "rustic": 4590,
      "wrapping": 4591,
      "##how": 4592,
      "##guard": 4593,
      "##eus": 4594,
      "alert": 4595,
      "##ractions": 4596,
      "estim": 4597,
      "aes": 4598,
      "decompress": 4599,
      "guess": 4600,
      "magic": 4601,
      "##cat": 4602,
      "##ands": 4603,
      "motivation": 4604,
      "##e0": 4605,
      "expose": 4606,
      "hier": 4607,
      "requested": 4608,
      "ra": 4609,
      "zone": 4610,
      "##berry": 4611,
      "##perature": 4612,
      "temporary": 4613,
      "##ele": 4614,
      "##icks": 4615,
      "reload": 4616,
      "vertex": 4617,
      "saved": 4618,
      "volume": 4619,
      "relations": 4620,
      "microsoft": 4621,
      "hy": 4622,
      "databases": 4623,
      "epis": 4624,
      "myp": 4625,
      "##ench": 4626,
      "subset": 4627,
      "allocations": 4628,
      "linking": 4629,
      "replaced": 4630,
      "kub": 4631,
      "snapshot": 4632,
      "epo": 4633,
      "##engine": 4634,
      "backends": 4635,
      "75": 4636,
      "rom": 4637,
      "##ided": 4638,
      "licence": 4639,
      "describing": 4640,
      "aur": 4641,
      "dies": 4642,
      "lint": 4643,
      "shut": 4644,
      "idiom": 4645,
      "prerequis": 4646,
      "41": 4647,
      "hidden": 4648,
      "##fx": 4649,
      "mal": 4650,
      "tail": 4651,
      "##u32": 4652,
      "##md": 4653,
      "##aster": 4654,
      "changing": 4655,
      "prime": 4656,
      "propos": 4657,
      "preser": 4658,
      "dealing": 4659,
      "##estr": 4660,
      "typescript": 4661,
      "##update": 4662,
      "assembly": 4663,
      "comfort": 4664,
      "upstream": 4665,
      "room": 4666,
      "graphs": 4667,
      "sized": 4668,
      "stra": 4669,
      "resp": 4670,
      "fixes": 4671,
      "##filter": 4672,
      "##alone": 4673,
      "##ffff": 4674,
      "##prop": 4675,
      "##derr": 4676,
      "checkout": 4677,
      "ports": 4678,
      "powerful": 4679,
      "ecs": 4680,
      "goes": 4681,
      "yew": 4682,
      "##mat": 4683,
      "differences": 4684,
      "standalone": 4685,
      "rx": 4686,
      "initialization": 4687,
      "cool": 4688,
      "##ze": 4689,
      "brows": 4690,
      "##char": 4691,
      "demonstr": 4692,
      "##allen": 4693,
      "ssl": 4694,
      "updating": 4695,
      "owners": 4696,
      "chars": 4697,
      "grep": 4698,
      "refresh": 4699,
      "arena": 4700,
      "appear": 4701,
      "coming": 4702,
      "##cloud": 4703,
      "handled": 4704,
      "balance": 4705,
      "ic": 4706,
      "##conf": 4707,
      "opengl": 4708,
      "iteration": 4709,
      "desc": 4710,
      "##essions": 4711,
      "postgresql": 4712,
      "construction": 4713,
      "chosen": 4714,
      "performed": 4715,
      "clipboard": 4716,
      "frag": 4717,
      "##ifiable": 4718,
      "fed": 4719,
      "##direct": 4720,
      "##entry": 4721,
      "family": 4722,
      "endian": 4723,
      "graphql": 4724,
      "direction": 4725,
      "boilerplate": 4726,
      "##vious": 4727,
      "combination": 4728,
      "53": 4729,
      "nd": 4730,
      "wide": 4731,
      "unre": 4732,
      "newer": 4733,
      "managed": 4734,
      "20220": 4735,
      "2016": 4736,
      "uint": 4737,
      "spi": 4738,
      "ranges": 4739,
      "##yt": 4740,
      "##f4": 4741,
      "gib": 4742,
      "##ogram": 4743,
      "##onical": 4744,
      "##inner": 4745,
      "epoch": 4746,
      "##roll": 4747,
      "conflic": 4748,
      "cmake": 4749,
      "##loworld": 4750,
      "extrem": 4751,
      "conversions": 4752,
      "##ga": 4753,
      "##eref": 4754,
      "authenticated": 4755,
      "spaces": 4756,
      "arrow": 4757,
      "produces": 4758,
      "locale": 4759,
      "processor": 4760,
      "country": 4761,
      "cdn": 4762,
      "repeat": 4763,
      "days": 4764,
      "fd": 4765,
      "##gp": 4766,
      "##2b": 4767,
      "##ctor": 4768,
      "##acer": 4769,
      "assume": 4770,
      "pag": 4771,
      "##rpc": 4772,
      "##arm": 4773,
      "printing": 4774,
      "camera": 4775,
      "solver": 4776,
      "digest": 4777,
      "behaviour": 4778,
      "suffix": 4779,
      "threshold": 4780,
      "hierarch": 4781,
      "##chant": 4782,
      "prefixed": 4783,
      "incoming": 4784,
      "strategy": 4785,
      "mirror": 4786,
      "##200": 4787,
      "##pre": 4788,
      "sand": 4789,
      "taking": 4790,
      "accepts": 4791,
      "menu": 4792,
      "##rom": 4793,
      "helpful": 4794,
      "##ifies": 4795,
      "##eb": 4796,
      "greater": 4797,
      "ios": 4798,
      "pet": 4799,
      "##ws": 4800,
      "##53": 4801,
      "clang": 4802,
      "##etheus": 4803,
      "indices": 4804,
      "publickey": 4805,
      "geo": 4806,
      "##match": 4807,
      "cancel": 4808,
      "##encod": 4809,
      "sitter": 4810,
      "##erv": 4811,
      "##ino": 4812,
      "immedi": 4813,
      "##bt": 4814,
      "##impl": 4815,
      "##exp": 4816,
      "iterators": 4817,
      "tryfrom": 4818,
      "exported": 4819,
      "alignment": 4820,
      "0b": 4821,
      "rf": 4822,
      "##aud": 4823,
      "unlike": 4824,
      "specifications": 4825,
      "##wo": 4826,
      "quote": 4827,
      "obvious": 4828,
      "plo": 4829,
      "zsh": 4830,
      "##v1": 4831,
      "performing": 4832,
      "stderr": 4833,
      "isok": 4834,
      "receiver": 4835,
      "entirely": 4836,
      "##eff": 4837,
      "experience": 4838,
      "gif": 4839,
      "returning": 4840,
      "instantiate": 4841,
      "extremely": 4842,
      "##more": 4843,
      "##plication": 4844,
      "abi": 4845,
      "##reci": 4846,
      "developing": 4847,
      "benef": 4848,
      "complexity": 4849,
      "##qufb": 4850,
      "discover": 4851,
      "warranties": 4852,
      "absolute": 4853,
      "##local": 4854,
      "modular": 4855,
      "57": 4856,
      "ter": 4857,
      "crit": 4858,
      "##osing": 4859,
      "##5678": 4860,
      "callbacks": 4861,
      "wasi": 4862,
      "searching": 4863,
      "foot": 4864,
      "sr": 4865,
      "sour": 4866,
      "##87": 4867,
      "enfor": 4868,
      "ansi": 4869,
      "##51": 4870,
      "affect": 4871,
      "converts": 4872,
      "edu": 4873,
      "styles": 4874,
      "canonical": 4875,
      "compiles": 4876,
      "popular": 4877,
      "##kle": 4878,
      "abstractions": 4879,
      "##iest": 4880,
      "##isation": 4881,
      "becomes": 4882,
      "branches": 4883,
      "digits": 4884,
      "##utils": 4885,
      "##esis": 4886,
      "straight": 4887,
      "66": 4888,
      "cn": 4889,
      "##3c": 4890,
      "##storage": 4891,
      "##peg": 4892,
      "dh": 4893,
      "algebra": 4894,
      "crash": 4895,
      "unl": 4896,
      "##cli": 4897,
      "specifies": 4898,
      "##lemetry": 4899,
      "##ribute": 4900,
      "percent": 4901,
      "folders": 4902,
      "sq": 4903,
      "##channel": 4904,
      "##derive": 4905,
      "emulator": 4906,
      "successfully": 4907,
      "escape": 4908,
      "##eresponse": 4909,
      "consists": 4910,
      "face": 4911,
      "##land": 4912,
      "##html": 4913,
      "displ": 4914,
      "registers": 4915,
      "particip": 4916,
      "prometheus": 4917,
      "improvements": 4918,
      "shader": 4919,
      "natural": 4920,
      "diesel": 4921,
      "immediately": 4922,
      "story": 4923,
      "layers": 4924,
      "widgets": 4925,
      "##thread": 4926,
      "finding": 4927,
      "integrate": 4928,
      "machines": 4929,
      "merchant": 4930,
      "fitness": 4931,
      "##dl": 4932,
      "replic": 4933,
      "elect": 4934,
      "mpl": 4935,
      "normally": 4936,
      "##println": 4937,
      "category": 4938,
      "vers": 4939,
      "##mn": 4940,
      "pathbuf": 4941,
      "configurations": 4942,
      "rough": 4943,
      "##vas": 4944,
      "segment": 4945,
      "ptr": 4946,
      "yml": 4947,
      "##hz": 4948,
      "slack": 4949,
      "bottom": 4950,
      "aggreg": 4951,
      "disclaimer": 4952,
      "84": 4953,
      "gc": 4954,
      "##olic": 4955,
      "matter": 4956,
      "tovec": 4957,
      "area": 4958,
      "##dis": 4959,
      "##hy": 4960,
      "##2rust": 4961,
      "iterate": 4962,
      "foundation": 4963,
      "sqlx": 4964,
      "aliases": 4965,
      "subscribe": 4966,
      "##transaction": 4967,
      "paste": 4968,
      "vot": 4969,
      "immut": 4970,
      "protect": 4971,
      "labels": 4972,
      "sizes": 4973,
      "appreci": 4974,
      "followed": 4975,
      "logo": 4976,
      "##spec": 4977,
      "temperature": 4978,
      "heavily": 4979,
      "##member": 4980,
      "reporting": 4981,
      "communicate": 4982,
      "##93": 4983,
      "##t0": 4984,
      "##da": 4985,
      "##mq": 4986,
      "transition": 4987,
      "computing": 4988,
      "dataset": 4989,
      "##ca": 4990,
      "##ellow": 4991,
      "##cond": 4992,
      "recv": 4993,
      "pb": 4994,
      "minutes": 4995,
      "backed": 4996,
      "distinct": 4997,
      "concepts": 4998,
      "hit": 4999,
      "contributor": 5000,
      "vim": 5001,
      "##yle": 5002,
      "##iving": 5003,
      "covered": 5004,
      "consistent": 5005,
      "##nel": 5006,
      "##sert": 5007,
      "texture": 5008,
      "borrowed": 5009,
      "cycl": 5010,
      "mobile": 5011,
      "tap": 5012,
      "##di": 5013,
      "deleted": 5014,
      "happens": 5015,
      "risk": 5016,
      "##create": 5017,
      "artifacts": 5018,
      "##cap": 5019,
      "workload": 5020,
      "publisher": 5021,
      "delta": 5022,
      "increase": 5023,
      "##ij": 5024,
      "##iation": 5025,
      "##req": 5026,
      "##utf8": 5027,
      "##ises": 5028,
      "suppl": 5029,
      "systemd": 5030,
      "##akes": 5031,
      "influx": 5032,
      "alter": 5033,
      "##alls": 5034,
      "approxim": 5035,
      "##slice": 5036,
      "frommillis": 5037,
      "##aker": 5038,
      "networking": 5039,
      "criter": 5040,
      "##unk": 5041,
      "##enced": 5042,
      "formatter": 5043,
      "metric": 5044,
      "##atex": 5045,
      "##91": 5046,
      "##range": 5047,
      "##iling": 5048,
      "wikip": 5049,
      "##bridge": 5050,
      "##econ": 5051,
      "sup": 5052,
      "cow": 5053,
      "vend": 5054,
      "raspberry": 5055,
      "idiomatic": 5056,
      "nu": 5057,
      "transpar": 5058,
      "##ished": 5059,
      "elastic": 5060,
      "rendered": 5061,
      "interpol": 5062,
      "##inder": 5063,
      "ordered": 5064,
      "business": 5065,
      "broadcast": 5066,
      "jq": 5067,
      "helloworld": 5068,
      "ipv6": 5069,
      "padding": 5070,
      "sense": 5071,
      "##82": 5072,
      "##ula": 5073,
      "dog": 5074,
      "ends": 5075,
      "identifiers": 5076,
      "47": 5077,
      "##orted": 5078,
      "credits": 5079,
      "##83": 5080,
      "##x2": 5081,
      "##emap": 5082,
      "##000000": 5083,
      "filtering": 5084,
      "suggestions": 5085,
      "zlib": 5086,
      "byt": 5087,
      "challen": 5088,
      "ops": 5089,
      "wikipedia": 5090,
      "43": 5091,
      "ergonomic": 5092,
      "href": 5093,
      "ml": 5094,
      "##zip": 5095,
      "##place": 5096,
      "flu": 5097,
      "lack": 5098,
      "##loop": 5099,
      "elf": 5100,
      "checksum": 5101,
      "exclude": 5102,
      "et": 5103,
      "ros": 5104,
      "letter": 5105,
      "happy": 5106,
      "##can": 5107,
      "notify": 5108,
      "shift": 5109,
      "air": 5110,
      "dial": 5111,
      "mil": 5112,
      "##orph": 5113,
      "handed": 5114,
      "throughput": 5115,
      "facil": 5116,
      "##d0": 5117,
      "##mer": 5118,
      "##ulated": 5119,
      "strictly": 5120,
      "96": 5121,
      "dl": 5122,
      "allocate": 5123,
      "##0000000": 5124,
      "slightly": 5125,
      "incomplete": 5126,
      "displays": 5127,
      "pic": 5128,
      "##oice": 5129,
      "workflows": 5130,
      "prerequisites": 5131,
      "configs": 5132,
      "codegen": 5133,
      "##loader": 5134,
      "##tor": 5135,
      "##pad": 5136,
      "subs": 5137,
      "authority": 5138,
      "constructor": 5139,
      "gra": 5140,
      "##97": 5141,
      "generics": 5142,
      "safely": 5143,
      "lz": 5144,
      "improved": 5145,
      "quota": 5146,
      "closed": 5147,
      "##orrect": 5148,
      "##access": 5149,
      "##agraph": 5150,
      "##into": 5151,
      "##unately": 5152,
      "levels": 5153,
      "confirm": 5154,
      "##81": 5155,
      "##onym": 5156,
      "drawing": 5157,
      "half": 5158,
      "evaluation": 5159,
      "routes": 5160,
      "cut": 5161,
      "##iled": 5162,
      "overrid": 5163,
      "situ": 5164,
      "cached": 5165,
      "whose": 5166,
      "##izable": 5167,
      "##unit": 5168,
      "licensing": 5169,
      "classes": 5170,
      "evaluate": 5171,
      "##v3": 5172,
      "##cur": 5173,
      "##cec": 5174,
      "##uses": 5175,
      "routing": 5176,
      "lexer": 5177,
      "keypair": 5178,
      "##rand": 5179,
      "##ui": 5180,
      "##zone": 5181,
      "userid": 5182,
      "##spaces": 5183,
      "##structure": 5184,
      "authenticate": 5185,
      "67": 5186,
      "##46": 5187,
      "##ye": 5188,
      "##rng": 5189,
      "portable": 5190,
      "benchmarking": 5191,
      "article": 5192,
      "##rans": 5193,
      "##ii": 5194,
      "comb": 5195,
      "accessed": 5196,
      "##keys": 5197,
      "identify": 5198,
      "listener": 5199,
      "alternatives": 5200,
      "fish": 5201,
      "profiles": 5202,
      "shap": 5203,
      "bitmap": 5204,
      "semantics": 5205,
      "0000": 5206,
      "72": 5207,
      "mq": 5208,
      "san": 5209,
      "##nal": 5210,
      "##i32": 5211,
      "##px": 5212,
      "unfort": 5213,
      "posts": 5214,
      "mib": 5215,
      "inher": 5216,
      "##ensus": 5217,
      "synth": 5218,
      "invoking": 5219,
      "##nx": 5220,
      "##rate": 5221,
      "guarantees": 5222,
      "sha256": 5223,
      "coordinates": 5224,
      "##rel": 5225,
      "##encies": 5226,
      "today": 5227,
      "union": 5228,
      "##values": 5229,
      "achieve": 5230,
      "negative": 5231,
      "dummy": 5232,
      "##rad": 5233,
      "##iel": 5234,
      "implicit": 5235,
      "alphab": 5236,
      "roll": 5237,
      "300": 5238,
      "##pn": 5239,
      "whereas": 5240,
      "optimizations": 5241,
      "processed": 5242,
      "beginning": 5243,
      "renamed": 5244,
      "##py": 5245,
      "##max": 5246,
      "interaction": 5247,
      "grow": 5248,
      "##rn": 5249,
      "mapped": 5250,
      "consume": 5251,
      "merged": 5252,
      "reasons": 5253,
      "pixels": 5254,
      "autoc": 5255,
      "easiest": 5256,
      "restart": 5257,
      "schedule": 5258,
      "##b0": 5259,
      "##qo": 5260,
      "ant": 5261,
      "##cheme": 5262,
      "opin": 5263,
      "partition": 5264,
      "unn": 5265,
      "##tf": 5266,
      "##bal": 5267,
      "##k1": 5268,
      "##kind": 5269,
      "unpack": 5270,
      "someone": 5271,
      "synchronous": 5272,
      "optionals": 5273,
      "discussions": 5274,
      "dd": 5275,
      "mn": 5276,
      "##ulating": 5277,
      "preprocess": 5278,
      "matched": 5279,
      "attr": 5280,
      "swap": 5281,
      "pins": 5282,
      "simplify": 5283,
      "##apsed": 5284,
      "restrict": 5285,
      "sockets": 5286,
      "##option": 5287,
      "##lines": 5288,
      "moving": 5289,
      "##earch": 5290,
      "##1234": 5291,
      "cycle": 5292,
      "opp": 5293,
      "pem": 5294,
      "asynct": 5295,
      "generators": 5296,
      "##apping": 5297,
      "certificates": 5298,
      "dam": 5299,
      "##cache": 5300,
      "jour": 5301,
      "##around": 5302,
      "0xfe": 5303,
      "##forward": 5304,
      "circu": 5305,
      "seems": 5306,
      "cuda": 5307,
      "tc": 5308,
      "plans": 5309,
      "mainly": 5310,
      "declare": 5311,
      "manipulation": 5312,
      "ownership": 5313,
      "##cut": 5314,
      "specs": 5315,
      "emoj": 5316,
      "##tools": 5317,
      "kb": 5318,
      "sessions": 5319,
      "##estring": 5320,
      "indexing": 5321,
      "512": 5322,
      "gst": 5323,
      "##watch": 5324,
      "scene": 5325,
      "hosts": 5326,
      "initialized": 5327,
      "slower": 5328,
      "tl": 5329,
      "##57": 5330,
      "aspect": 5331,
      "dependent": 5332,
      "focused": 5333,
      "scalar": 5334,
      "dy": 5335,
      "hu": 5336,
      "##ortex": 5337,
      "axum": 5338,
      "descriptor": 5339,
      "##49": 5340,
      "##erver": 5341,
      "notifications": 5342,
      "ds": 5343,
      "##pay": 5344,
      "##emat": 5345,
      "week": 5346,
      "##ponent": 5347,
      "eventually": 5348,
      "sensitive": 5349,
      "62": 5350,
      "nft": 5351,
      "##gy": 5352,
      "##header": 5353,
      "rw": 5354,
      "##endar": 5355,
      "anyhow": 5356,
      "somewhere": 5357,
      "applicationsecret": 5358,
      "##ialized": 5359,
      "installedflow": 5360,
      "previously": 5361,
      "sandbox": 5362,
      "8000": 5363,
      "enablehttp": 5364,
      "quantum": 5365,
      "bill": 5366,
      "dark": 5367,
      "tur": 5368,
      "##day": 5369,
      "typical": 5370,
      "rss": 5371,
      "emp": 5372,
      "111": 5373,
      "cx": 5374,
      "constraints": 5375,
      "perfect": 5376,
      "ht": 5377,
      "##pan": 5378,
      "##xml": 5379,
      "##ament": 5380,
      "##ffic": 5381,
      "##built": 5382,
      "musl": 5383,
      "gateway": 5384,
      "inlineresponse": 5385,
      "655": 5386,
      "##els": 5387,
      "modes": 5388,
      "protot": 5389,
      "similarly": 5390,
      "##dt": 5391,
      "##big": 5392,
      "usual": 5393,
      "whit": 5394,
      "packed": 5395,
      "combined": 5396,
      "axis": 5397,
      "bundle": 5398,
      "kill": 5399,
      "mask": 5400,
      "##u64": 5401,
      "rustdoc": 5402,
      "paragraph": 5403,
      "customized": 5404,
      "mention": 5405,
      "##ene": 5406,
      "##chang": 5407,
      "editing": 5408,
      "##300": 5409,
      "##nom": 5410,
      "##arch64": 5411,
      "consensus": 5412,
      "copying": 5413,
      "oriented": 5414,
      "58": 5415,
      "##ipped": 5416,
      "bun": 5417,
      "explan": 5418,
      "thin": 5419,
      "canvas": 5420,
      "gover": 5421,
      "determines": 5422,
      "adapter": 5423,
      "##propert": 5424,
      "61": 5425,
      "iron": 5426,
      "##post": 5427,
      "##hs": 5428,
      "##atory": 5429,
      "remember": 5430,
      "suc": 5431,
      "listens": 5432,
      "extensible": 5433,
      "measurements": 5434,
      "zer": 5435,
      "##fut": 5436,
      "yout": 5437,
      "che": 5438,
      "currency": 5439,
      "deleg": 5440,
      "merkle": 5441,
      "migrations": 5442,
      "prost": 5443,
      "distribute": 5444,
      "rights": 5445,
      "locked": 5446,
      "##isf": 5447,
      "whenever": 5448,
      "edges": 5449,
      "wasmer": 5450,
      "efficiently": 5451,
      "peripherals": 5452,
      "acknowledge": 5453,
      "payment": 5454,
      "##domain": 5455,
      "immutable": 5456,
      "egui": 5457,
      "mime": 5458,
      "notation": 5459,
      "##oney": 5460,
      "relies": 5461,
      "originally": 5462,
      "organization": 5463,
      "robust": 5464,
      "band": 5465,
      "spons": 5466,
      "relay": 5467,
      "infin": 5468,
      "attempts": 5469,
      "escap": 5470,
      "##params": 5471,
      "hashes": 5472,
      "downloading": 5473,
      "recursively": 5474,
      "unfortunately": 5475,
      "brain": 5476,
      "assemb": 5477,
      "##apter": 5478,
      "accepted": 5479,
      "gcc": 5480,
      "leave": 5481,
      "traffic": 5482,
      "tensor": 5483,
      "accessible": 5484,
      "viewer": 5485,
      "##install": 5486,
      "gb": 5487,
      "regions": 5488,
      "removing": 5489,
      "##67": 5490,
      "##512": 5491,
      "repro": 5492,
      "panics": 5493,
      "bold": 5494,
      "##b4": 5495,
      "##ostring": 5496,
      "limits": 5497,
      "namesp": 5498,
      "wraps": 5499,
      "said": 5500,
      "##delete": 5501,
      "rusticu": 5502,
      "bare": 5503,
      "rich": 5504,
      "##sam": 5505,
      "producer": 5506,
      "telegram": 5507,
      "74": 5508,
      "##eness": 5509,
      "clientid": 5510,
      "guarantee": 5511,
      "holds": 5512,
      "3000": 5513,
      "onto": 5514,
      "handlers": 5515,
      "##length": 5516,
      "cortex": 5517,
      "##pa": 5518,
      "##ends": 5519,
      "coin": 5520,
      "completed": 5521,
      "##password": 5522,
      "substit": 5523,
      "concurrency": 5524,
      "bul": 5525,
      "rd": 5526,
      "##itate": 5527,
      "expon": 5528,
      "querying": 5529,
      "driven": 5530,
      "bc": 5531,
      "##eta1": 5532,
      "places": 5533,
      "svd2rust": 5534,
      "##miss": 5535,
      "sends": 5536,
      "triv": 5537,
      "##bund": 5538,
      "##types": 5539,
      "scrap": 5540,
      "phase": 5541,
      "ethere": 5542,
      "##unc": 5543,
      "research": 5544,
      "workaround": 5545,
      "assigned": 5546,
      "blank": 5547,
      "##vv": 5548,
      "opent": 5549,
      "hostname": 5550,
      "subscriber": 5551,
      "law": 5552,
      "si": 5553,
      "sg": 5554,
      "wav": 5555,
      "quad": 5556,
      "myenum": 5557,
      "##123": 5558,
      "accordingly": 5559,
      "spotify": 5560,
      "fixt": 5561,
      "dimensions": 5562,
      "strongly": 5563,
      "supplied": 5564,
      "god": 5565,
      "lg": 5566,
      "void": 5567,
      "##1d": 5568,
      "##ounce": 5569,
      "millise": 5570,
      "vel": 5571,
      "prof": 5572,
      "compose": 5573,
      "recogn": 5574,
      "agree": 5575,
      "passwords": 5576,
      "products": 5577,
      "eprintln": 5578,
      "sou": 5579,
      "##aff": 5580,
      "##lient": 5581,
      "meet": 5582,
      "relatively": 5583,
      "drive": 5584,
      "talk": 5585,
      "##oring": 5586,
      "unoff": 5587,
      "unwrapor": 5588,
      "opinion": 5589,
      "pse": 5590,
      "##isp": 5591,
      "forms": 5592,
      "observ": 5593,
      "latency": 5594,
      "solutions": 5595,
      "publishing": 5596,
      "geometry": 5597,
      "irc": 5598,
      "##stack": 5599,
      "##lyph": 5600,
      "##class": 5601,
      "listing": 5602,
      "waiting": 5603,
      "##defined": 5604,
      "##iqu": 5605,
      "sparse": 5606,
      "seek": 5607,
      "rank": 5608,
      "##mc": 5609,
      "smallest": 5610,
      "##3333": 5611,
      "ethereum": 5612,
      "dll": 5613,
      "##oint": 5614,
      "##names": 5615,
      "##edge": 5616,
      "lexical": 5617,
      "aarch64": 5618,
      "##tion": 5619,
      "##window": 5620,
      "inform": 5621,
      "neigh": 5622,
      "parity": 5623,
      "caller": 5624,
      "##return": 5625,
      "customization": 5626,
      "receiving": 5627,
      "caching": 5628,
      "wave": 5629,
      "##a8": 5630,
      "rustfmt": 5631,
      "##using": 5632,
      "variety": 5633,
      "guest": 5634,
      "monitoring": 5635,
      "catch": 5636,
      "forget": 5637,
      "universal": 5638,
      "combine": 5639,
      "apikey": 5640,
      "##ernet": 5641,
      "displayed": 5642,
      "bb": 5643,
      "workers": 5644,
      "probe": 5645,
      "representative": 5646,
      "guidelines": 5647,
      "kit": 5648,
      "pu": 5649,
      "##icense": 5650,
      "fonts": 5651,
      "pwd": 5652,
      "##glob": 5653,
      "spin": 5654,
      "passes": 5655,
      "##apikey": 5656,
      "propag": 5657,
      "simpler": 5658,
      "##ceeded": 5659,
      "microcontrollers": 5660,
      "anch": 5661,
      "gitter": 5662,
      "networks": 5663,
      "snippet": 5664,
      "pseud": 5665,
      "##usize": 5666,
      "##itional": 5667,
      "unofficial": 5668,
      "##mo": 5669,
      "scr": 5670,
      "0xc": 5671,
      "travers": 5672,
      "asstr": 5673,
      "##fields": 5674,
      "figure": 5675,
      "##kt": 5676,
      "##rols": 5677,
      "quit": 5678,
      "##details": 5679,
      "##lt": 5680,
      "##ario": 5681,
      "typing": 5682,
      "##ister": 5683,
      "compre": 5684,
      "reply": 5685,
      "permit": 5686,
      "##ipper": 5687,
      "youtube": 5688,
      "his": 5689,
      "##gi": 5690,
      "cancell": 5691,
      "anywhere": 5692,
      "##bits": 5693,
      "valu": 5694,
      "comma": 5695,
      "signer": 5696,
      "tagged": 5697,
      "##device": 5698,
      "##term": 5699,
      "chrom": 5700,
      "deterministic": 5701,
      "advantage": 5702,
      "dialog": 5703,
      "ill": 5704,
      "yellow": 5705,
      "##4c": 5706,
      "theory": 5707,
      "##selves": 5708,
      "successful": 5709,
      "midi": 5710,
      "dashboard": 5711,
      "logical": 5712,
      "highlighting": 5713,
      "scheduler": 5714,
      "mqtt": 5715,
      "anonym": 5716,
      "##vider": 5717,
      "plumb": 5718,
      "dp": 5719,
      "charg": 5720,
      "contexts": 5721,
      "selector": 5722,
      "broken": 5723,
      "asynctrait": 5724,
      "hid": 5725,
      "i3": 5726,
      "##tem": 5727,
      "##47": 5728,
      "##then": 5729,
      "acqu": 5730,
      "sorting": 5731,
      "powers": 5732,
      "##iliar": 5733,
      "82": 5734,
      "cw": 5735,
      "indent": 5736,
      "translate": 5737,
      "critical": 5738,
      "63": 5739,
      "##agram": 5740,
      "php": 5741,
      "communic": 5742,
      "resolver": 5743,
      "warnings": 5744,
      "remaining": 5745,
      "favor": 5746,
      "omitted": 5747,
      "69": 5748,
      "cpp": 5749,
      "upper": 5750,
      "operates": 5751,
      "decre": 5752,
      "constraint": 5753,
      "plumbing": 5754,
      "faq": 5755,
      "startup": 5756,
      "overl": 5757,
      "city": 5758,
      "her": 5759,
      "wall": 5760,
      "##static": 5761,
      "love": 5762,
      "toggle": 5763,
      "fa": 5764,
      "overflow": 5765,
      "##plicated": 5766,
      "serializing": 5767,
      "removes": 5768,
      "scopes": 5769,
      "##attr": 5770,
      "##alker": 5771,
      "policies": 5772,
      "effects": 5773,
      "potential": 5774,
      "reliable": 5775,
      "merchantability": 5776,
      "bright": 5777,
      "h1": 5778,
      "xd": 5779,
      "##ropy": 5780,
      "lightning": 5781,
      "##61": 5782,
      "##oll": 5783,
      "leaf": 5784,
      "##998": 5785,
      "constructed": 5786,
      "coordinate": 5787,
      "mi": 5788,
      "##ension": 5789,
      "remot": 5790,
      "sdl2": 5791,
      "catalog": 5792,
      "##connection": 5793,
      "mapp": 5794,
      "nature": 5795,
      "qr": 5796,
      "tex": 5797,
      "##xr": 5798,
      "scroll": 5799,
      "cores": 5800,
      "requirement": 5801,
      "detected": 5802,
      "compliance": 5803,
      "dic": 5804,
      "##gmail": 5805,
      "##ithread": 5806,
      "##olor": 5807,
      "elapsed": 5808,
      "freebsd": 5809,
      "imports": 5810,
      "mathemat": 5811,
      "satisf": 5812,
      "##fact": 5813,
      "##ici": 5814,
      "##expect": 5815,
      "foobar": 5816,
      "quickstart": 5817,
      "##what": 5818,
      "cells": 5819,
      "cryptography": 5820,
      "gain": 5821,
      "mv": 5822,
      "##ea": 5823,
      "##ader": 5824,
      "chance": 5825,
      "commandline": 5826,
      "translation": 5827,
      "##gs": 5828,
      "encour": 5829,
      "enumeration": 5830,
      "pict": 5831,
      "sto": 5832,
      "orders": 5833,
      "candid": 5834,
      "85": 5835,
      "##win": 5836,
      "orm": 5837,
      "##aneous": 5838,
      "accurate": 5839,
      "##nomial": 5840,
      "ai": 5841,
      "tv": 5842,
      "xor": 5843,
      "##3f": 5844,
      "workspaces": 5845,
      "scripting": 5846,
      "concrete": 5847,
      "cookie": 5848,
      "xx": 5849,
      "##open": 5850,
      "simulator": 5851,
      "indexed": 5852,
      "listening": 5853,
      "keeping": 5854,
      "applies": 5855,
      "fallback": 5856,
      "ham": 5857,
      "sink": 5858,
      "##11111111": 5859,
      "##41": 5860,
      "##ica": 5861,
      "##inds": 5862,
      "news": 5863,
      "writable": 5864,
      "discovery": 5865,
      "separator": 5866,
      "garb": 5867,
      "##ernetes": 5868,
      "bip": 5869,
      "mass": 5870,
      "fromutf8": 5871,
      "hosted": 5872,
      "domains": 5873,
      "practice": 5874,
      "##mg": 5875,
      "linker": 5876,
      "schemas": 5877,
      "friends": 5878,
      "cave": 5879,
      "##imiter": 5880,
      "prin": 5881,
      "flush": 5882,
      "bootst": 5883,
      "acceler": 5884,
      "2015": 5885,
      "powered": 5886,
      "interesting": 5887,
      "batter": 5888,
      "##task": 5889,
      "chin": 5890,
      "##exec": 5891,
      "shutdown": 5892,
      "song": 5893,
      "conform": 5894,
      "readdir": 5895,
      "##ference": 5896,
      "##lsl": 5897,
      "loader": 5898,
      "commonly": 5899,
      "reserve": 5900,
      "kubernetes": 5901,
      "bi": 5902,
      "##uc": 5903,
      "emb": 5904,
      "120": 5905,
      "duplicate": 5906,
      "tiles": 5907,
      "##olution": 5908,
      "decent": 5909,
      "putting": 5910,
      "tuples": 5911,
      "assumes": 5912,
      "compreh": 5913,
      "rely": 5914,
      "##afka": 5915,
      "firm": 5916,
      "exclud": 5917,
      "##xxxxxxxx": 5918,
      "submodule": 5919,
      "didn": 5920,
      "jump": 5921,
      "nic": 5922,
      "west": 5923,
      "asked": 5924,
      "legacy": 5925,
      "dict": 5926,
      "encounter": 5927,
      "operate": 5928,
      "subscription": 5929,
      "##ancy": 5930,
      "hours": 5931,
      "##hex": 5932,
      "##qp": 5933,
      "sun": 5934,
      "controls": 5935,
      "interactions": 5936,
      "amd": 5937,
      "discussion": 5938,
      "##bbbbbbbb": 5939,
      "##bundle": 5940,
      "slot": 5941,
      "##ument": 5942,
      "0x1": 5943,
      "400": 5944,
      "##9b": 5945,
      "##inte": 5946,
      "##ubscri": 5947,
      "##aintext": 5948,
      "83": 5949,
      "printer": 5950,
      "0xd": 5951,
      "utf8": 5952,
      "firew": 5953,
      "animation": 5954,
      "ratio": 5955,
      "horiz": 5956,
      "episode": 5957,
      "##trait": 5958,
      "##arn": 5959,
      "##ecraft": 5960,
      "fund": 5961,
      "repos": 5962,
      "distributions": 5963,
      "extracted": 5964,
      "gem": 5965,
      "##vs": 5966,
      "company": 5967,
      "saving": 5968,
      "mkdir": 5969,
      "thumbn": 5970,
      "gd": 5971,
      "##otal": 5972,
      "rustace": 5973,
      "libp": 5974,
      "hasher": 5975,
      "naming": 5976,
      "lots": 5977,
      "measurement": 5978,
      "lab": 5979,
      "ox": 5980,
      "supply": 5981,
      "calculation": 5982,
      "fuse": 5983,
      "surface": 5984,
      "mongodb": 5985,
      "mul": 5986,
      "pallet": 5987,
      "manner": 5988,
      "permut": 5989,
      "bloom": 5990,
      "journal": 5991,
      "mand": 5992,
      "nick": 5993,
      "##bles": 5994,
      "##flo": 5995,
      "##zf": 5996,
      "codebase": 5997,
      "haven": 5998,
      "preced": 5999,
      "checker": 6000,
      "capable": 6001,
      "##27": 6002,
      "lev": 6003,
      "signals": 6004,
      "counts": 6005,
      "coding": 6006,
      "infra": 6007,
      "physical": 6008,
      "sharing": 6009,
      "fairly": 6010,
      "##elimit": 6011,
      "##idity": 6012,
      "##component": 6013,
      "verified": 6014,
      "gran": 6015,
      "automation": 6016,
      "happened": 6017,
      "chrome": 6018,
      "appreciated": 6019,
      "bulk": 6020,
      "raf": 6021,
      "ten": 6022,
      "vk": 6023,
      "##wrapp": 6024,
      "spir": 6025,
      "showing": 6026,
      "panick": 6027,
      "##a5": 6028,
      "##oom": 6029,
      "##etric": 6030,
      "reject": 6031,
      "multithread": 6032,
      "customer": 6033,
      "years": 6034,
      "##erequest": 6035,
      "draft": 6036,
      "##cert": 6037,
      "##eter": 6038,
      "##ptic": 6039,
      "reflect": 6040,
      "##written": 6041,
      "##model": 6042,
      "garbage": 6043,
      "dn": 6044,
      "##vey": 6045,
      "achie": 6046,
      "activate": 6047,
      "shadow": 6048,
      "freed": 6049,
      "dice": 6050,
      "slo": 6051,
      "syml": 6052,
      "serializer": 6053,
      "dotenv": 6054,
      "cloning": 6055,
      "claims": 6056,
      "tax": 6057,
      "##times": 6058,
      "##qs": 6059,
      "reuse": 6060,
      "enh": 6061,
      "positive": 6062,
      "##ned": 6063,
      "##ires": 6064,
      "##bucket": 6065,
      "##110": 6066,
      "##player": 6067,
      "identical": 6068,
      "calculator": 6069,
      "nc": 6070,
      "redist": 6071,
      "marker": 6072,
      "78": 6073,
      "nn": 6074,
      "nv": 6075,
      "engin": 6076,
      "##osh": 6077,
      "leav": 6078,
      "customizable": 6079,
      "##ali": 6080,
      "##eller": 6081,
      "shortest": 6082,
      "architectures": 6083,
      "##tra": 6084,
      "##pk": 6085,
      "##bf": 6086,
      "##eli": 6087,
      "rsa": 6088,
      "##parallel": 6089,
      "inspiration": 6090,
      "polynomial": 6091,
      "proofs": 6092,
      "techno": 6093,
      "multipart": 6094,
      "alphabet": 6095,
      "mz": 6096,
      "nod": 6097,
      "##indexed": 6098,
      "##bars": 6099,
      "##ength": 6100,
      "##idx": 6101,
      "dimensional": 6102,
      "95": 6103,
      "med": 6104,
      "##v7": 6105,
      "##here": 6106,
      "##section": 6107,
      "undefined": 6108,
      "completions": 6109,
      "compliant": 6110,
      "##expected": 6111,
      "##nc": 6112,
      "##2e": 6113,
      "dbg": 6114,
      "describes": 6115,
      "analyze": 6116,
      "diagram": 6117,
      "##oy": 6118,
      "##jk": 6119,
      "##unt": 6120,
      "intu": 6121,
      "plott": 6122,
      "68": 6123,
      "77": 6124,
      "hence": 6125,
      "nt": 6126,
      "blake": 6127,
      "studio": 6128,
      "reprodu": 6129,
      "bp": 6130,
      "ta": 6131,
      "wit": 6132,
      "unused": 6133,
      "minecraft": 6134,
      "converter": 6135,
      "radius": 6136,
      "repeatedly": 6137,
      "##3s": 6138,
      "intr": 6139,
      "cbor": 6140,
      "jpeg": 6141,
      "##child": 6142,
      "##ained": 6143,
      "fuzzy": 6144,
      "quotes": 6145,
      "essential": 6146,
      "##a9": 6147,
      "##vector": 6148,
      "parbridge": 6149,
      "##keep": 6150,
      "agents": 6151,
      "histogram": 6152,
      "andthen": 6153,
      "complicated": 6154,
      "##irable": 6155,
      "somewhat": 6156,
      "101": 6157,
      "integrated": 6158,
      "##authent": 6159,
      "##global": 6160,
      "##job": 6161,
      "##style": 6162,
      "shard": 6163,
      "##debug": 6164,
      "hom": 6165,
      "##emu": 6166,
      "prepar": 6167,
      "trim": 6168,
      "##directory": 6169,
      "97": 6170,
      "ft": 6171,
      "land": 6172,
      "ming": 6173,
      "##ycle": 6174,
      "themselves": 6175,
      "playing": 6176,
      "familiar": 6177,
      "dos": 6178,
      "##lj": 6179,
      "##ball": 6180,
      "unset": 6181,
      "##umber": 6182,
      "sysc": 6183,
      "workloads": 6184,
      "##ior": 6185,
      "mutation": 6186,
      "thank": 6187,
      "bytecode": 6188,
      "aqu": 6189,
      "##sapi": 6190,
      "##ny": 6191,
      "##icious": 6192,
      "##rote": 6193,
      "##elist": 6194,
      "##alett": 6195,
      "firmware": 6196,
      "##hd": 6197,
      "forb": 6198,
      "##instance": 6199,
      "##olicy": 6200,
      "infrastructure": 6201,
      "eb": 6202,
      "##lier": 6203,
      "##label": 6204,
      "##xp": 6205,
      "##ignore": 6206,
      "trie": 6207,
      "assertions": 6208,
      "warp": 6209,
      "responsible": 6210,
      "0u8": 6211,
      "##mi": 6212,
      "##chip": 6213,
      "invoked": 6214,
      "##chema": 6215,
      "aka": 6216,
      "pul": 6217,
      "sites": 6218,
      "##ought": 6219,
      "sym": 6220,
      "invent": 6221,
      "moves": 6222,
      "upgrad": 6223,
      "65535": 6224,
      "ftp": 6225,
      "pas": 6226,
      "rend": 6227,
      "##folder": 6228,
      "acme": 6229,
      "lowercase": 6230,
      "##rypto": 6231,
      "simplest": 6232,
      "concaten": 6233,
      "alex": 6234,
      "creat": 6235,
      "posix": 6236,
      "##program": 6237,
      "conventional": 6238,
      "bunch": 6239,
      "##2f": 6240,
      "positions": 6241,
      "peers": 6242,
      "separately": 6243,
      "foreach": 6244,
      "lite": 6245,
      "##del": 6246,
      "##etypes": 6247,
      "stay": 6248,
      "##plex": 6249,
      "trunc": 6250,
      "plaintext": 6251,
      "##resource": 6252,
      "credit": 6253,
      "##new": 6254,
      "##uv": 6255,
      "ang": 6256,
      "##quet": 6257,
      "##osity": 6258,
      "calendar": 6259,
      "lgpl": 6260,
      "milliseconds": 6261,
      "gpg": 6262,
      "flipper": 6263,
      "manipulate": 6264,
      "steam": 6265,
      "ow": 6266,
      "instruct": 6267,
      "restore": 6268,
      "finite": 6269,
      "floats": 6270,
      "sentry": 6271,
      "establ": 6272,
      "segments": 6273,
      "ise": 6274,
      "kr": 6275,
      "rip": 6276,
      "##3b": 6277,
      "trivial": 6278,
      "jw": 6279,
      "mor": 6280,
      "unm": 6281,
      "smo": 6282,
      "loops": 6283,
      "literals": 6284,
      "bes": 6285,
      "hour": 6286,
      "ips": 6287,
      "##o3": 6288,
      "providers": 6289,
      "##works": 6290,
      "decide": 6291,
      "##mpeg": 6292,
      "sky": 6293,
      "rfcs": 6294,
      "granular": 6295,
      "ga": 6296,
      "gal": 6297,
      "##vo": 6298,
      "wants": 6299,
      "optimize": 6300,
      "glyph": 6301,
      "##fol": 6302,
      "deg": 6303,
      "##prot": 6304,
      "indexes": 6305,
      "sprite": 6306,
      "circuit": 6307,
      "fraction": 6308,
      "hs": 6309,
      "mun": 6310,
      "##unindexed": 6311,
      "##fox": 6312,
      "##18n": 6313,
      "##element": 6314,
      "fat": 6315,
      "i8": 6316,
      "pest": 6317,
      "##yst": 6318,
      "stability": 6319,
      "subsequ": 6320,
      "##const": 6321,
      "jsonrpc": 6322,
      "pacman": 6323,
      "announce": 6324,
      "##generator": 6325,
      "##wrapper": 6326,
      "rewrite": 6327,
      "excell": 6328,
      "##ecimal": 6329,
      "datat": 6330,
      "timezone": 6331,
      "blockon": 6332,
      "particularly": 6333,
      "piece": 6334,
      "oc": 6335,
      "##ecom": 6336,
      "ensures": 6337,
      "engines": 6338,
      "icons": 6339,
      "finds": 6340,
      "frameworks": 6341,
      "synchronization": 6342,
      "dst": 6343,
      "nl": 6344,
      "ty": 6345,
      "tau": 6346,
      "##3e": 6347,
      "##onac": 6348,
      "##rep": 6349,
      "trou": 6350,
      "clientsecret": 6351,
      "views": 6352,
      "annotation": 6353,
      "incremental": 6354,
      "rustaceans": 6355,
      "##c9": 6356,
      "bey": 6357,
      "cron": 6358,
      "filtermapconsumer": 6359,
      "pending": 6360,
      "##isions": 6361,
      "##emp": 6362,
      "compet": 6363,
      "connecting": 6364,
      "ipfs": 6365,
      "sway": 6366,
      "##audio": 6367,
      "##roy": 6368,
      "stre": 6369,
      "iterparallel": 6370,
      "##parse": 6371,
      "wasm32": 6372,
      "capability": 6373,
      "todos": 6374,
      "bridgeunindexed": 6375,
      "challenge": 6376,
      "iterparallelproducer": 6377,
      "sock": 6378,
      "vul": 6379,
      "##river": 6380,
      "expans": 6381,
      "sampling": 6382,
      "thumbnail": 6383,
      "mingw": 6384,
      "2000": 6385,
      "98": 6386,
      "##a6": 6387,
      "##7d": 6388,
      "flav": 6389,
      "##ginfo": 6390,
      "##psc": 6391,
      "privacy": 6392,
      "simplified": 6393,
      "##connector": 6394,
      "##producerconsumer": 6395,
      "couple": 6396,
      "mappings": 6397,
      "bridgeunindexedproducerconsumer": 6398,
      "87": 6399,
      "jap": 6400,
      "nb": 6401,
      "wrote": 6402,
      "##mach": 6403,
      "##inary": 6404,
      "letters": 6405,
      "webhook": 6406,
      "procmacro": 6407,
      "##mmetric": 6408,
      "preferred": 6409,
      "declarative": 6410,
      "##iot": 6411,
      "##walker": 6412,
      "colour": 6413,
      "bincode": 6414,
      "msvc": 6415,
      "incorrect": 6416,
      "excellent": 6417,
      "88": 6418,
      "##bas": 6419,
      "##icator": 6420,
      "##estate": 6421,
      "patches": 6422,
      "involved": 6423,
      "aj": 6424,
      "palett": 6425,
      "xxx": 6426,
      "##f1": 6427,
      "##001": 6428,
      "broker": 6429,
      "fibonac": 6430,
      "north": 6431,
      "##fw": 6432,
      "##once": 6433,
      "##ulations": 6434,
      "hopefully": 6435,
      "huge": 6436,
      "beyond": 6437,
      "deref": 6438,
      "##mult": 6439,
      "resum": 6440,
      "twe": 6441,
      "##track": 6442,
      "risc": 6443,
      "indicates": 6444,
      "pieces": 6445,
      "socks": 6446,
      "##pat": 6447,
      "stars": 6448,
      "##cription": 6449,
      "automated": 6450,
      "counting": 6451,
      "boxed": 6452,
      "refactor": 6453,
      "collector": 6454,
      "precise": 6455,
      "ffmpeg": 6456,
      "cosmwasm": 6457,
      "s2": 6458,
      "##wg": 6459,
      "trade": 6460,
      "deno": 6461,
      "ckb": 6462,
      "dsl": 6463,
      "i16": 6464,
      "##ama": 6465,
      "##rier": 6466,
      "conj": 6467,
      "physics": 6468,
      "bri": 6469,
      "##rp": 6470,
      "throw": 6471,
      "desirable": 6472,
      "chess": 6473,
      "setters": 6474,
      "obser": 6475,
      "executables": 6476,
      "recover": 6477,
      "multiplication": 6478,
      "heart": 6479,
      "optimal": 6480,
      "clusters": 6481,
      "exclusive": 6482,
      "mentioned": 6483,
      "##hf": 6484,
      "##z2": 6485,
      "dar": 6486,
      "lt": 6487,
      "t2": 6488,
      "##zy": 6489,
      "weak": 6490,
      "derives": 6491,
      "metal": 6492,
      "##eh": 6493,
      "aligned": 6494,
      "inserted": 6495,
      "drivers": 6496,
      "##runtime": 6497,
      "fluent": 6498,
      "kib": 6499,
      "##star": 6500,
      "shouldn": 6501,
      "turns": 6502,
      "anonymous": 6503,
      "oh": 6504,
      "tel": 6505,
      "unexpected": 6506,
      "opa": 6507,
      "turned": 6508,
      "deserializer": 6509,
      "##den": 6510,
      "##fill": 6511,
      "als": 6512,
      "githubuser": 6513,
      "elli": 6514,
      "standards": 6515,
      "##ervice": 6516,
      "rebuild": 6517,
      "newline": 6518,
      "imported": 6519,
      "speaking": 6520,
      "significantly": 6521,
      "rhs": 6522,
      "##position": 6523,
      "btre": 6524,
      "76": 6525,
      "##b5": 6526,
      "##ini": 6527,
      "shortcut": 6528,
      "pods": 6529,
      "predict": 6530,
      "86": 6531,
      "bra": 6532,
      "dm": 6533,
      "mt": 6534,
      "##asible": 6535,
      "bear": 6536,
      "backtrace": 6537,
      "diary": 6538,
      "opinionated": 6539,
      "81": 6540,
      "tide": 6541,
      "xs": 6542,
      "##iser": 6543,
      "##acs": 6544,
      "declared": 6545,
      "actixweb": 6546,
      "annotations": 6547,
      "jit": 6548,
      "tend": 6549,
      "##rices": 6550,
      "##hal": 6551,
      "##orem": 6552,
      "stages": 6553,
      "prebuilt": 6554,
      "convers": 6555,
      "##ckets": 6556,
      "bundled": 6557,
      "months": 6558,
      "shapes": 6559,
      "upp": 6560,
      "entropy": 6561,
      "nonce": 6562,
      "##arios": 6563,
      "##join": 6564,
      "essentially": 6565,
      "listenscore": 6566,
      "fake": 6567,
      "glsl": 6568,
      "ie": 6569,
      "##ja": 6570,
      "everyone": 6571,
      "revoke": 6572,
      "traditional": 6573,
      "mcu": 6574,
      "x11": 6575,
      "##z0": 6576,
      "##plicity": 6577,
      "representations": 6578,
      "phil": 6579,
      "evaluated": 6580,
      "bs": 6581,
      "##arc": 6582,
      "##entions": 6583,
      "spect": 6584,
      "kept": 6585,
      "bases": 6586,
      "verifier": 6587,
      "closures": 6588,
      "collision": 6589,
      "foreign": 6590,
      "proposal": 6591,
      "stabil": 6592,
      "##odium": 6593,
      "autog": 6594,
      "requiring": 6595,
      "concern": 6596,
      "comparable": 6597,
      "circ": 6598,
      "firefox": 6599,
      "annotated": 6600,
      "explanation": 6601,
      "gas": 6602,
      "##uk": 6603,
      "##hell": 6604,
      "##inger": 6605,
      "##aming": 6606,
      "encodings": 6607,
      "schemes": 6608,
      "keeps": 6609,
      "pkgconfig": 6610,
      "jan": 6611,
      "##rint": 6612,
      "##rot": 6613,
      "libx": 6614,
      "##decode": 6615,
      "199": 6616,
      "jun": 6617,
      "ko": 6618,
      "pand": 6619,
      "td": 6620,
      "##tostring": 6621,
      "##icated": 6622,
      "##ums": 6623,
      "former": 6624,
      "criterion": 6625,
      "scratch": 6626,
      "##nj": 6627,
      "leading": 6628,
      "gt": 6629,
      "##bench": 6630,
      "reimple": 6631,
      "##usable": 6632,
      "##click": 6633,
      "##okens": 6634,
      "githubusercontent": 6635,
      "oxy": 6636,
      "##dit": 6637,
      "##ris": 6638,
      "comparing": 6639,
      "mist": 6640,
      "rin": 6641,
      "##rum": 6642,
      "##400": 6643,
      "##ett": 6644,
      "unable": 6645,
      "##scre": 6646,
      "shaders": 6647,
      "preprocessor": 6648,
      "110": 6649,
      "thought": 6650,
      "##select": 6651,
      "onnx": 6652,
      "expensive": 6653,
      "brack": 6654,
      "classic": 6655,
      "##ports": 6656,
      "reducec": 6657,
      "##record": 6658,
      "annotate": 6659,
      "sufficient": 6660,
      "serves": 6661,
      "##compat": 6662,
      "vendor": 6663,
      "transparent": 6664,
      "emoji": 6665,
      "ran": 6666,
      "xm": 6667,
      "##4x": 6668,
      "##x7": 6669,
      "advert": 6670,
      "pok": 6671,
      "##coming": 6672,
      "##ossible": 6673,
      "expanded": 6674,
      "##comput": 6675,
      "executes": 6676,
      "population": 6677,
      "fedora": 6678,
      "f1": 6679,
      "ipc": 6680,
      "##ying": 6681,
      "##ners": 6682,
      "atsam": 6683,
      "maintainer": 6684,
      "treated": 6685,
      "horizont": 6686,
      "pen": 6687,
      "thro": 6688,
      "##eless": 6689,
      "##ensity": 6690,
      "targeting": 6691,
      "blaz": 6692,
      "fuzzing": 6693,
      "unnecess": 6694,
      "cf": 6695,
      "latex": 6696,
      "##foo": 6697,
      "resize": 6698,
      "2014": 6699,
      "blu": 6700,
      "dirwalker": 6701,
      "##f6": 6702,
      "##adecimal": 6703,
      "filepath": 6704,
      "probability": 6705,
      "ledger": 6706,
      "anchor": 6707,
      "mio": 6708,
      "resil": 6709,
      "iterations": 6710,
      "corout": 6711,
      "##onsumer": 6712,
      "##memory": 6713,
      "declaration": 6714,
      "cit": 6715,
      "corp": 6716,
      "colored": 6717,
      "blink": 6718,
      "matrices": 6719,
      "controlled": 6720,
      "earlier": 6721,
      "videos": 6722,
      "profiling": 6723,
      "pq": 6724,
      "ske": 6725,
      "##gest": 6726,
      "##zer": 6727,
      "actively": 6728,
      "performant": 6729,
      "150": 6730,
      "delimit": 6731,
      "##interface": 6732,
      "bounded": 6733,
      "deserialized": 6734,
      "straightforward": 6735,
      "##rus": 6736,
      "##cam": 6737,
      "##gt": 6738,
      "##ital": 6739,
      "##proxy": 6740,
      "##iterator": 6741,
      "border": 6742,
      "##height": 6743,
      "##jj": 6744,
      "##erive": 6745,
      "##edb": 6746,
      "##plist": 6747,
      "dates": 6748,
      "spell": 6749,
      "testnet": 6750,
      "repr": 6751,
      "queues": 6752,
      "correctness": 6753,
      "##contain": 6754,
      "73": 6755,
      "##ni": 6756,
      "##43": 6757,
      "runtimes": 6758,
      "feasible": 6759,
      "modification": 6760,
      "qui": 6761,
      "latter": 6762,
      "bufreader": 6763,
      "cards": 6764,
      "intuitive": 6765,
      "##la": 6766,
      "##ira": 6767,
      "##qv": 6768,
      "##ettings": 6769,
      "##irst": 6770,
      "locks": 6771,
      "builtin": 6772,
      "##scan": 6773,
      "receives": 6774,
      "visible": 6775,
      "##compiled": 6776,
      "##library": 6777,
      "##future": 6778,
      "mc": 6779,
      "##e5": 6780,
      "isol": 6781,
      "0x6": 6782,
      "##upported": 6783,
      "##ming": 6784,
      "##gress": 6785,
      "plug": 6786,
      "0x7f": 6787,
      "overwrite": 6788,
      "##points": 6789,
      "sketch": 6790,
      "reasonable": 6791,
      "##joy": 6792,
      "flatten": 6793,
      "reduceconsumer": 6794,
      "89": 6795,
      "craw": 6796,
      "gro": 6797,
      "six": 6798,
      "##bm": 6799,
      "##ina": 6800,
      "##seg": 6801,
      "neural": 6802,
      "0x5": 6803,
      "connector": 6804,
      "loads": 6805,
      "explor": 6806,
      "elliptic": 6807,
      "aaa": 6808,
      "tbd": 6809,
      "##location": 6810,
      "firstname": 6811,
      "mapconsumer": 6812,
      "vulner": 6813,
      "hd": 6814,
      "rpm": 6815,
      "##target": 6816,
      "##lc": 6817,
      "##but": 6818,
      "##estruct": 6819,
      "installer": 6820,
      "expects": 6821,
      "randomly": 6822,
      "wars": 6823,
      "chinese": 6824,
      "smooth": 6825,
      "pain": 6826,
      "##iveness": 6827,
      "configuring": 6828,
      "foldconsumer": 6829,
      "scoped": 6830,
      "navigate": 6831,
      "##amps": 6832,
      "immediate": 6833,
      "##expr": 6834,
      "##alek": 6835,
      "determined": 6836,
      "##attribute": 6837,
      "cub": 6838,
      "dan": 6839,
      "vary": 6840,
      "##hist": 6841,
      "##ko": 6842,
      "##ango": 6843,
      "decision": 6844,
      "##echeck": 6845,
      "scenarios": 6846,
      "##prise": 6847,
      "analyzer": 6848,
      "worry": 6849,
      "lnp": 6850,
      "delegates": 6851,
      "sor": 6852,
      "tonic": 6853,
      "##e6": 6854,
      "##ients": 6855,
      "forcing": 6856,
      "chapter": 6857,
      "clar": 6858,
      "##opy": 6859,
      "handy": 6860,
      "props": 6861,
      "##confirm": 6862,
      "bootstrap": 6863,
      "##only": 6864,
      "prox": 6865,
      "##encing": 6866,
      "##provider": 6867,
      "reported": 6868,
      "delimiter": 6869,
      "introduced": 6870,
      "restriction": 6871,
      "categories": 6872,
      "regardless": 6873,
      "japan": 6874,
      "jack": 6875,
      "##hat": 6876,
      "sourced": 6877,
      "##ao": 6878,
      "whe": 6879,
      "##inding": 6880,
      "##istr": 6881,
      "modifications": 6882,
      "invest": 6883,
      "playlist": 6884,
      "##func": 6885,
      "vertices": 6886,
      "aa": 6887,
      "qemu": 6888,
      "##acle": 6889,
      "pubkey": 6890,
      "enumerate": 6891,
      "##byte": 6892,
      "extensive": 6893,
      "##enerated": 6894,
      "##ryp": 6895,
      "##custom": 6896,
      "sentence": 6897,
      "verifying": 6898,
      "##haust": 6899,
      "cros": 6900,
      "rap": 6901,
      "##nat": 6902,
      "##bert": 6903,
      "triple": 6904,
      "increasing": 6905,
      "drag": 6906,
      "deriving": 6907,
      "vertical": 6908,
      "malicious": 6909,
      "comfortable": 6910,
      "c3": 6911,
      "ling": 6912,
      "##rule": 6913,
      "##ering": 6914,
      "##ury": 6915,
      "##rast": 6916,
      "libg": 6917,
      "insertion": 6918,
      "privile": 6919,
      "boundary": 6920,
      "choices": 6921,
      "##crate": 6922,
      "naive": 6923,
      "snapshots": 6924,
      "inference": 6925,
      "soc": 6926,
      "swe": 6927,
      "##script": 6928,
      "##vi": 6929,
      "attached": 6930,
      "visibility": 6931,
      "strip": 6932,
      "cycles": 6933,
      "degree": 6934,
      "79": 6935,
      "rocks": 6936,
      "retep": 6937,
      "pyo3": 6938,
      "templating": 6939,
      "##enumber": 6940,
      "verbosity": 6941,
      "robot": 6942,
      "keywords": 6943,
      "browsing": 6944,
      "retep998": 6945,
      "ferr": 6946,
      "lsp": 6947,
      "uid": 6948,
      "computed": 6949,
      "##grep": 6950,
      "gzip": 6951,
      "fibonacci": 6952,
      "ey": 6953,
      "gol": 6954,
      "##02": 6955,
      "##orp": 6956,
      "advis": 6957,
      "curves": 6958,
      "giving": 6959,
      "embedding": 6960,
      "charge": 6961,
      "##las": 6962,
      "##iro": 6963,
      "##alph": 6964,
      "0xfc": 6965,
      "secondary": 6966,
      "phot": 6967,
      "tracks": 6968,
      "##00000000000000000000000000000000": 6969,
      "##prefix": 6970,
      "employ": 6971,
      "fundament": 6972,
      "money": 6973,
      "##bi": 6974,
      "##b8": 6975,
      "readers": 6976,
      "ship": 6977,
      "simplicity": 6978,
      "interoper": 6979,
      "passph": 6980,
      "asyncstd": 6981,
      "##orsh": 6982,
      "corresponds": 6983,
      "resilient": 6984,
      "bg": 6985,
      "lc": 6986,
      "mpsc": 6987,
      "##eq": 6988,
      "hashset": 6989,
      "verifiable": 6990,
      "peek": 6991,
      "tcpstream": 6992,
      "recipient": 6993,
      "gradient": 6994,
      "acknowledgements": 6995,
      "granularity": 6996,
      "ez": 6997,
      "worked": 6998,
      "recovery": 6999,
      "##flare": 7000,
      "##hood": 7001,
      "damages": 7002,
      "palette": 7003,
      "spread": 7004,
      "##etsy": 7005,
      "obtained": 7006,
      "conditional": 7007,
      "wireguard": 7008,
      "wildcard": 7009,
      "aspects": 7010,
      "##mission": 7011,
      "uppercase": 7012,
      "lun": 7013,
      "##pin": 7014,
      "##mask": 7015,
      "fort": 7016,
      "lever": 7017,
      "asslice": 7018,
      "snow": 7019,
      "osx": 7020,
      "facts": 7021,
      "hood": 7022,
      "accuracy": 7023,
      "succeed": 7024,
      "ak": 7025,
      "jul": 7026,
      "van": 7027,
      "zh": 7028,
      "##uit": 7029,
      "##b1": 7030,
      "syst": 7031,
      "statuscode": 7032,
      "respond": 7033,
      "registration": 7034,
      "hexadecimal": 7035,
      "filled": 7036,
      "interpolation": 7037,
      "##oop": 7038,
      "##uck": 7039,
      "##onom": 7040,
      "idx": 7041,
      "##ginx": 7042,
      "twice": 7043,
      "resolved": 7044,
      "flexibility": 7045,
      "interpreted": 7046,
      "derivation": 7047,
      "situations": 7048,
      "marg": 7049,
      "nrf": 7050,
      "osc": 7051,
      "##nb": 7052,
      "##stoken": 7053,
      "##los": 7054,
      "rustlog": 7055,
      "handlebars": 7056,
      "applying": 7057,
      "##ometer": 7058,
      "##e8": 7059,
      "##7c": 7060,
      "liability": 7061,
      "##plus": 7062,
      "leak": 7063,
      "tooling": 7064,
      "decided": 7065,
      "grab": 7066,
      "furthermore": 7067,
      "veloc": 7068,
      "firewall": 7069,
      "scanner": 7070,
      "impossible": 7071,
      "##101": 7072,
      "glue": 7073,
      "hierarchy": 7074,
      "ale": 7075,
      "bib": 7076,
      "bmp": 7077,
      "pd": 7078,
      "##384": 7079,
      "##2s": 7080,
      "##esc": 7081,
      "##ams": 7082,
      "exhaust": 7083,
      "wayland": 7084,
      "tryinto": 7085,
      "archives": 7086,
      "recursion": 7087,
      "understanding": 7088,
      "##hello": 7089,
      "medium": 7090,
      "expansion": 7091,
      "hmac": 7092,
      "##atter": 7093,
      "##atically": 7094,
      "imgui": 7095,
      "logged": 7096,
      "##phone": 7097,
      "instrument": 7098,
      "deployments": 7099,
      "##atar": 7100,
      "##olt": 7101,
      "##estore": 7102,
      "##grade": 7103,
      "flip": 7104,
      "opencl": 7105,
      "maperr": 7106,
      "##bool": 7107,
      "assumed": 7108,
      "intervals": 7109,
      "##ools": 7110,
      "94": 7111,
      "ahead": 7112,
      "uart": 7113,
      "wo": 7114,
      "angle": 7115,
      "asc": 7116,
      "rustflags": 7117,
      "##unw": 7118,
      "##305": 7119,
      "##redirect": 7120,
      "mp3": 7121,
      "practical": 7122,
      "yields": 7123,
      "##ytics": 7124,
      "vap": 7125,
      "##elemetry": 7126,
      "liable": 7127,
      "outer": 7128,
      "simulate": 7129,
      "##oku": 7130,
      "servic": 7131,
      "overall": 7132,
      "smith": 7133,
      "failures": 7134,
      "cryptoc": 7135,
      "##256k1": 7136,
      "winit": 7137,
      "ciphertext": 7138,
      "inventory": 7139,
      "##aby": 7140,
      "abort": 7141,
      "disconnect": 7142,
      "backwards": 7143,
      "surf": 7144,
      "frequently": 7145,
      "##plugins": 7146,
      "technical": 7147,
      "enforce": 7148,
      "nginx": 7149,
      "##tri": 7150,
      "##ley": 7151,
      "##admin": 7152,
      "##oting": 7153,
      "neither": 7154,
      "themes": 7155,
      "agre": 7156,
      "treat": 7157,
      "legal": 7158,
      "roughly": 7159,
      "ether": 7160,
      "ry": 7161,
      "##v4": 7162,
      "composed": 7163,
      "fastest": 7164,
      "belong": 7165,
      "topics": 7166,
      "tetcoin": 7167,
      "stm32f": 7168,
      "cid": 7169,
      "gdb": 7170,
      "kafka": 7171,
      "slog": 7172,
      "wel": 7173,
      "##full": 7174,
      "exporter": 7175,
      "mini": 7176,
      "portions": 7177,
      "##dbc": 7178,
      "firebase": 7179,
      "numerical": 7180,
      "browsers": 7181,
      "paragraphs": 7182,
      "pyp": 7183,
      "raster": 7184,
      "u128": 7185,
      "##09": 7186,
      "replay": 7187,
      "##yname": 7188,
      "##maint": 7189,
      "fragment": 7190,
      "cancelled": 7191,
      "tauri": 7192,
      "dry": 7193,
      "nest": 7194,
      "##bg": 7195,
      "##oph": 7196,
      "##anger": 7197,
      "opts": 7198,
      "calculations": 7199,
      "fetching": 7200,
      "effectively": 7201,
      "dedicated": 7202,
      "influxdb": 7203,
      "comprehensive": 7204,
      "999": 7205,
      "cart": 7206,
      "fft": 7207,
      "vote": 7208,
      "reached": 7209,
      "spans": 7210,
      "##istry": 7211,
      "hask": 7212,
      "vec2": 7213,
      "##akec": 7214,
      "minute": 7215,
      "memo": 7216,
      "international": 7217,
      "pipelines": 7218,
      "websockets": 7219,
      "explore": 7220,
      "migrate": 7221,
      "tells": 7222,
      "##fuck": 7223,
      "sponsors": 7224,
      "fixtures": 7225,
      "godot": 7226,
      "##float": 7227,
      "bson": 7228,
      "i18n": 7229,
      "undo": 7230,
      "five": 7231,
      "debugger": 7232,
      "##emonic": 7233,
      "holo": 7234,
      "rotate": 7235,
      "decentral": 7236,
      "unnecessary": 7237,
      "cv": 7238,
      "fel": 7239,
      "tetsy": 7240,
      "##iq": 7241,
      "##come": 7242,
      "unified": 7243,
      "trick": 7244,
      "##ensitive": 7245,
      "awss": 7246,
      "vars": 7247,
      "consult": 7248,
      "tokenizer": 7249,
      "osm": 7250,
      "##fromenv": 7251,
      "forked": 7252,
      "##optim": 7253,
      "weighted": 7254,
      "ssf": 7255,
      "attacks": 7256,
      "pseudo": 7257,
      "##machine": 7258,
      "pact": 7259,
      "##pip": 7260,
      "##mdb": 7261,
      "##ony": 7262,
      "##orb": 7263,
      "##entity": 7264,
      "myapp": 7265,
      "104": 7266,
      "analog": 7267,
      "occurs": 7268,
      "ban": 7269,
      "##codes": 7270,
      "descriptions": 7271,
      "assertion": 7272,
      "markup": 7273,
      "swift": 7274,
      "polygon": 7275,
      "manipulating": 7276,
      "greeting": 7277,
      "##variant": 7278,
      "mandatory": 7279,
      "##dig": 7280,
      "##pi": 7281,
      "##cy": 7282,
      "radio": 7283,
      "articles": 7284,
      "quiet": 7285,
      "##e4": 7286,
      "##mps": 7287,
      "##batch": 7288,
      "asn": 7289,
      "creative": 7290,
      "amer": 7291,
      "filtered": 7292,
      "##linux": 7293,
      "tunnel": 7294,
      "namespaces": 7295,
      "5000": 7296,
      "gfx": 7297,
      "mild": 7298,
      "##dump": 7299,
      "##anal": 7300,
      "##ada": 7301,
      "serving": 7302,
      "##dsa": 7303,
      "##author": 7304,
      "opaque": 7305,
      "gray": 7306,
      "##viz": 7307,
      "datap": 7308,
      "referenced": 7309,
      "counted": 7310,
      "##offset": 7311,
      "radix": 7312,
      "mathematical": 7313,
      "house": 7314,
      "sequential": 7315,
      "planning": 7316,
      "haskell": 7317,
      "cgl": 7318,
      "fault": 7319,
      "##rg": 7320,
      "##bast": 7321,
      "##gan": 7322,
      "badrequest": 7323,
      "##modules": 7324,
      "redirecting": 7325,
      "164": 7326,
      "93": 7327,
      "p2p": 7328,
      "##fail": 7329,
      "##x8": 7330,
      "towards": 7331,
      "butt": 7332,
      "transformation": 7333,
      "monit": 7334,
      "##interval": 7335,
      "cloudflare": 7336,
      "deserializing": 7337,
      "##grees": 7338,
      "boards": 7339,
      "nearest": 7340,
      "##authenticator": 7341,
      "300x": 7342,
      "jaq": 7343,
      "ron": 7344,
      "sell": 7345,
      "##ugg": 7346,
      "assist": 7347,
      "python3": 7348,
      "pools": 7349,
      "david": 7350,
      "restrictions": 7351,
      "princi": 7352,
      "books": 7353,
      "gather": 7354,
      "##cred": 7355,
      "alb": 7356,
      "##acha": 7357,
      "discard": 7358,
      "phone": 7359,
      "measured": 7360,
      "predicate": 7361,
      "12345678": 7362,
      "hide": 7363,
      "sse": 7364,
      "##hh": 7365,
      "##angles": 7366,
      "accum": 7367,
      "encaps": 7368,
      "transp": 7369,
      "timestamps": 7370,
      "scenario": 7371,
      "oxygen": 7372,
      "qo": 7373,
      "rl": 7374,
      "##ji": 7375,
      "##ason": 7376,
      "usd": 7377,
      "modifier": 7378,
      "0x01": 7379,
      "phrase": 7380,
      "pairing": 7381,
      "demonstrates": 7382,
      "0x7": 7383,
      "perh": 7384,
      "wasmb": 7385,
      "replacing": 7386,
      "##defin": 7387,
      "autogenerated": 7388,
      "jp": 7389,
      "##a3": 7390,
      "##qr": 7391,
      "##acon": 7392,
      "buckets": 7393,
      "subl": 7394,
      "manages": 7395,
      "smtp": 7396,
      "unsupported": 7397,
      "##etooth": 7398,
      "##random": 7399,
      "inherit": 7400,
      "opentelemetry": 7401,
      "bod": 7402,
      "rating": 7403,
      "tsv": 7404,
      "x64": 7405,
      "thr": 7406,
      "tower": 7407,
      "##active": 7408,
      "relation": 7409,
      "timing": 7410,
      "identifiable": 7411,
      "factory": 7412,
      "perhaps": 7413,
      "cmp": 7414,
      "gf": 7415,
      "ng": 7416,
      "##dh": 7417,
      "##0x": 7418,
      "isize": 7419,
      "##acl": 7420,
      "asm": 7421,
      "und": 7422,
      "trac": 7423,
      "impls": 7424,
      "##iki": 7425,
      "##priv": 7426,
      "besides": 7427,
      "71": 7428,
      "##sets": 7429,
      "##pled": 7430,
      "sebast": 7431,
      "messaging": 7432,
      "players": 7433,
      "constructing": 7434,
      "constructors": 7435,
      "profiler": 7436,
      "dicom": 7437,
      "cms": 7438,
      "##ology": 7439,
      "##found": 7440,
      "##04": 7441,
      "##github": 7442,
      "##xrt": 7443,
      "##eral": 7444,
      "##enames": 7445,
      "##ares": 7446,
      "she": 7447,
      "vec3": 7448,
      "rema": 7449,
      "mp4": 7450,
      "bank": 7451,
      "fly": 7452,
      "vcp": 7453,
      "##dx": 7454,
      "recon": 7455,
      "##oder": 7456,
      "##ecl": 7457,
      "##yped": 7458,
      "##ung": 7459,
      "##erman": 7460,
      "##2222": 7461,
      "internals": 7462,
      "speech": 7463,
      "necessarily": 7464,
      "subscriptions": 7465,
      "destroy": 7466,
      "##macros": 7467,
      "took": 7468,
      "iserr": 7469,
      "repet": 7470,
      "secp": 7471,
      "fasta": 7472,
      "encodable": 7473,
      "serializable": 7474,
      "slash": 7475,
      "##oxide": 7476,
      "scheduling": 7477,
      "subsystem": 7478,
      "pad": 7479,
      "##ecc": 7480,
      "liqu": 7481,
      "chord": 7482,
      "##the": 7483,
      "##matrix": 7484,
      "benefit": 7485,
      "##capacity": 7486,
      "##pkg": 7487,
      "##f5": 7488,
      "incompat": 7489,
      "##agent": 7490,
      "triangle": 7491,
      "dbus": 7492,
      "rayoncore": 7493,
      "##liers": 7494,
      "favorite": 7495,
      "##veyor": 7496,
      "japanese": 7497,
      "s1": 7498,
      "tty": 7499,
      "##c1": 7500,
      "##c8": 7501,
      "##ena": 7502,
      "reusable": 7503,
      "##rift": 7504,
      "decomp": 7505,
      "imxrt": 7506,
      "##email": 7507,
      "handsh": 7508,
      "calculated": 7509,
      "##6666": 7510,
      "##services": 7511,
      "obtaining": 7512,
      "##going": 7513,
      "rotation": 7514,
      "torrent": 7515,
      "backups": 7516,
      "caveats": 7517,
      "rocksdb": 7518,
      "ly": 7519,
      "pun": 7520,
      "rn": 7521,
      "##ioc": 7522,
      "##orn": 7523,
      "##uth": 7524,
      "##aser": 7525,
      "telemetry": 7526,
      "##network": 7527,
      "weights": 7528,
      "sebastian": 7529,
      "iv": 7530,
      "##uz": 7531,
      "##encode": 7532,
      "integrity": 7533,
      "chains": 7534,
      "introduce": 7535,
      "caused": 7536,
      "lifetimes": 7537,
      "substant": 7538,
      "snippets": 7539,
      "ii": 7540,
      "pp": 7541,
      "##teller": 7542,
      "##pers": 7543,
      "##empty": 7544,
      "arising": 7545,
      "lost": 7546,
      "installs": 7547,
      "bitfield": 7548,
      "greatly": 7549,
      "300x300": 7550,
      "fb": 7551,
      "los": 7552,
      "mr": 7553,
      "worth": 7554,
      "##dated": 7555,
      "##uation": 7556,
      "##hooks": 7557,
      "##kk": 7558,
      "##pling": 7559,
      "0x8": 7560,
      "##words": 7561,
      "phant": 7562,
      "causes": 7563,
      "##econfig": 7564,
      "##properties": 7565,
      "traversal": 7566,
      "agreed": 7567,
      "remainder": 7568,
      "3rd": 7569,
      "dj": 7570,
      "sel": 7571,
      "##isms": 7572,
      "httpsconnector": 7573,
      "importing": 7574,
      "exporting": 7575,
      "playback": 7576,
      "roles": 7577,
      "facebook": 7578,
      "zones": 7579,
      "reward": 7580,
      "##ils": 7581,
      "##urations": 7582,
      "##timeout": 7583,
      "md5": 7584,
      "contacts": 7585,
      "partially": 7586,
      "##allocator": 7587,
      "##callback": 7588,
      "dalek": 7589,
      "ipt": 7590,
      "##ipping": 7591,
      "debu": 7592,
      "elim": 7593,
      "nano": 7594,
      "wgpu": 7595,
      "forbidden": 7596,
      "finger": 7597,
      "lum": 7598,
      "##lat": 7599,
      "##iant": 7600,
      "##xus": 7601,
      "susp": 7602,
      "intell": 7603,
      "solid": 7604,
      "##profile": 7605,
      "conventions": 7606,
      "collected": 7607,
      "transforms": 7608,
      "drone": 7609,
      "functionalities": 7610,
      "##warf": 7611,
      "precedence": 7612,
      "velocity": 7613,
      "250": 7614,
      "nal": 7615,
      "##e7": 7616,
      "##uy": 7617,
      "##mpty": 7618,
      "##fin": 7619,
      "revers": 7620,
      "matcher": 7621,
      "offline": 7622,
      "##issu": 7623,
      "discrete": 7624,
      "advance": 7625,
      "mailing": 7626,
      "consuming": 7627,
      "navigation": 7628,
      "powershell": 7629,
      "blazing": 7630,
      "vice": 7631,
      "##d5": 7632,
      "##gam": 7633,
      "unmaint": 7634,
      "parquet": 7635,
      "160": 7636,
      "procedure": 7637,
      "aptos": 7638,
      "##groups": 7639,
      "##delegate": 7640,
      "cb": 7641,
      "oracle": 7642,
      "##essage": 7643,
      "noted": 7644,
      "highest": 7645,
      "elm": 7646,
      "##efined": 7647,
      "combinations": 7648,
      "descriptors": 7649,
      "viol": 7650,
      "categorize": 7651,
      "illust": 7652,
      "mim": 7653,
      "##d6": 7654,
      "##eno": 7655,
      "exerc": 7656,
      "appveyor": 7657,
      "##ignal": 7658,
      "##asset": 7659,
      "gitignore": 7660,
      "opened": 7661,
      "persons": 7662,
      "microchip": 7663,
      "scaling": 7664,
      "training": 7665,
      "bid": 7666,
      "nth": 7667,
      "##jh": 7668,
      "##rial": 7669,
      "bumps": 7670,
      "##izelimit": 7671,
      "initi": 7672,
      "decodable": 7673,
      "movie": 7674,
      "ttl": 7675,
      "##layer": 7676,
      "infinite": 7677,
      "92": 7678,
      "dx": 7679,
      "rain": 7680,
      "tort": 7681,
      "wget": 7682,
      "outliers": 7683,
      "retro": 7684,
      "protection": 7685,
      "threadpool": 7686,
      "##1010": 7687,
      "##ofs": 7688,
      "believe": 7689,
      "consumed": 7690,
      "##changed": 7691,
      "decentralized": 7692,
      "bgp": 7693,
      "cube": 7694,
      "##agger": 7695,
      "##ests": 7696,
      "weather": 7697,
      "anyway": 7698,
      "##ternal": 7699,
      "consent": 7700,
      "##obj": 7701,
      "visualization": 7702,
      "##ivero": 7703,
      "screenshots": 7704,
      "##rx": 7705,
      "##rank": 7706,
      "##c2": 7707,
      "exits": 7708,
      "outdir": 7709,
      "printf": 7710,
      "##scope": 7711,
      "##flag": 7712,
      "approval": 7713,
      "switching": 7714,
      "horizontal": 7715,
      "holochain": 7716,
      "noc": 7717,
      "##une": 7718,
      "##achable": 7719,
      "newtype": 7720,
      "httperror": 7721,
      "netlink": 7722,
      "decline": 7723,
      "ndarray": 7724,
      "versa": 7725,
      "brainfuck": 7726,
      "unmaintained": 7727,
      "##ued": 7728,
      "##u16": 7729,
      "##vol": 7730,
      "##allow": 7731,
      "defer": 7732,
      "##aph": 7733,
      "trailing": 7734,
      "transmit": 7735,
      "individually": 7736,
      "cosmos": 7737,
      "##ymbol": 7738,
      "##b2": 7739,
      "##inge": 7740,
      "##aring": 7741,
      "compan": 7742,
      "tokenstream": 7743,
      "mako": 7744,
      "terminals": 7745,
      "parenth": 7746,
      "histor": 7747,
      "correspond": 7748,
      "socketaddr": 7749,
      "improvement": 7750,
      "protected": 7751,
      "bullet": 7752,
      "golang": 7753,
      "234": 7754,
      "aug": 7755,
      "dio": 7756,
      "##eed": 7757,
      "##first": 7758,
      "##rece": 7759,
      "##clash": 7760,
      "remo": 7761,
      "failing": 7762,
      "##configuration": 7763,
      "initially": 7764,
      "2022022": 7765,
      "resumable": 7766,
      "sled": 7767,
      "##sect": 7768,
      "##omics": 7769,
      "##andon": 7770,
      "textures": 7771,
      "validated": 7772,
      "deli": 7773,
      "symbolic": 7774,
      "assignment": 7775,
      "panicking": 7776,
      "##decodeerror": 7777,
      "##world": 7778,
      "##else": 7779,
      "##ssl": 7780,
      "invari": 7781,
      "##ggers": 7782,
      "assumptions": 7783,
      "##ancing": 7784,
      "listennotesurl": 7785,
      "conflict": 7786,
      "##iciency": 7787,
      "pap": 7788,
      "t1": 7789,
      "##rack": 7790,
      "##rtc": 7791,
      "##b6": 7792,
      "##b7": 7793,
      "##bro": 7794,
      "##zn": 7795,
      "inverse": 7796,
      "forum": 7797,
      "openc": 7798,
      "##aste": 7799,
      "assertt": 7800,
      "##strings": 7801,
      "needing": 7802,
      "nodejs": 7803,
      "122": 7804,
      "tracked": 7805,
      "calculating": 7806,
      "labeled": 7807,
      "appears": 7808,
      "mypro": 7809,
      "percentage": 7810,
      "mnemonic": 7811,
      "delivery": 7812,
      "v8": 7813,
      "##ingle": 7814,
      "unbound": 7815,
      "specialized": 7816,
      "myself": 7817,
      "packaging": 7818,
      "##logical": 7819,
      "graphical": 7820,
      "awsconfig": 7821,
      "replaces": 7822,
      "##rope": 7823,
      "presence": 7824,
      "feeds": 7825,
      "missingapikey": 7826,
      "conflicts": 7827,
      "enhance": 7828,
      "passphrase": 7829,
      "lru": 7830,
      "rang": 7831,
      "x1": 7832,
      "##wi": 7833,
      "ital": 7834,
      "serded": 7835,
      "impending": 7836,
      "validating": 7837,
      "##backend": 7838,
      "modifying": 7839,
      "efm32gg": 7840,
      "microcontroller": 7841,
      "##iques": 7842,
      "symlink": 7843,
      "000000": 7844,
      "600": 7845,
      "91": 7846,
      "##bow": 7847,
      "##font": 7848,
      "fee": 7849,
      "##exceeded": 7850,
      "hell": 7851,
      "smol": 7852,
      "charset": 7853,
      "##sheet": 7854,
      "captured": 7855,
      "##transactions": 7856,
      "100000": 7857,
      "##fuzz": 7858,
      "troubles": 7859,
      "ber": 7860,
      "dc": 7861,
      "##686": 7862,
      "##jz": 7863,
      "thiel": 7864,
      "##ecycle": 7865,
      "withnat": 7866,
      "##ched": 7867,
      "enjoy": 7868,
      "constructs": 7869,
      "retrieving": 7870,
      "quoted": 7871,
      "##public": 7872,
      "##iveroots": 7873,
      "withnativeroots": 7874,
      "ri": 7875,
      "sf": 7876,
      "##ique": 7877,
      "##0f": 7878,
      "##8v": 7879,
      "##seconds": 7880,
      "##assert": 7881,
      "randomness": 7882,
      "foreground": 7883,
      "cg": 7884,
      "##fron": 7885,
      "##oret": 7886,
      "lift": 7887,
      "shuff": 7888,
      "intend": 7889,
      "avg": 7890,
      "writeall": 7891,
      "##settings": 7892,
      "deliver": 7893,
      "realtime": 7894,
      "saves": 7895,
      "trusted": 7896,
      "occurr": 7897,
      "##implemented": 7898,
      "prototype": 7899,
      "ajars": 7900,
      "bluetooth": 7901,
      "bd": 7902,
      "fzf": 7903,
      "hp": 7904,
      "sid": 7905,
      "x2": 7906,
      "httpredirect": 7907,
      "jsondecodeerror": 7908,
      "decryption": 7909,
      "processors": 7910,
      "##boot": 7911,
      "minimize": 7912,
      "001": 7913,
      "submitting": 7914,
      "ideal": 7915,
      "extracting": 7916,
      "uploadsizelimit": 7917,
      "wallp": 7918,
      "acl": 7919,
      "makefile": 7920,
      "issome": 7921,
      "fieldclash": 7922,
      "objective": 7923,
      "tokenstorage": 7924,
      "missingtoken": 7925,
      "authenticatordelegate": 7926,
      "distinctiveness": 7927,
      "installedflowreturn": 7928,
      "installedflowauthenticator": 7929,
      "candidate": 7930,
      "uploadsizelimitexceeded": 7931,
      "installedflowreturnmethod": 7932,
      "qt": 7933,
      "r1": 7934,
      "##fetch": 7935,
      "##orhttp": 7936,
      "##alo": 7937,
      "featured": 7938,
      "httpsorhttp": 7939,
      "##span": 7940,
      "validators": 7941,
      "embedd": 7942,
      "enterprise": 7943,
      "scalable": 7944,
      "##nostics": 7945,
      "organizations": 7946,
      "##abihf": 7947,
      "enablehttp1": 7948,
      "enablehttp2": 7949,
      "httpsconnectorbuilder": 7950,
      "ux": 7951,
      "##press": 7952,
      "thor": 7953,
      "##icast": 7954,
      "##ilib": 7955,
      "searches": 7956,
      "##1400": 7957,
      "dirty": 7958,
      "maintaining": 7959,
      "destruct": 7960,
      "pcap": 7961,
      "##cmd": 7962,
      "##description": 7963,
      "encouraged": 7964,
      "removal": 7965,
      "glib": 7966,
      "ny": 7967,
      "p1": 7968,
      "##tg": 7969,
      "##p0": 7970,
      "##mx": 7971,
      "##zen": 7972,
      "##etf": 7973,
      "stock": 7974,
      "deplete": 7975,
      "doct": 7976,
      "grand": 7977,
      "predefined": 7978,
      "terra": 7979,
      "slots": 7980,
      "establish": 7981,
      "isempty": 7982,
      "pt": 7983,
      "tera": 7984,
      "##equ": 7985,
      "##edy": 7986,
      "recur": 7987,
      "loadfromenv": 7988,
      "##ampa": 7989,
      "maintainers": 7990,
      "marks": 7991,
      "insight": 7992,
      "btc": 7993,
      "##round": 7994,
      "##bn": 7995,
      "##05": 7996,
      "##inks": 7997,
      "file1": 7998,
      "exposing": 7999,
      "webview": 8000,
      "emacs": 8001,
      "efficiency": 8002,
      "combinators": 8003,
      "##packet": 8004,
      "##urist": 8005,
      "governing": 8006,
      "sgx": 8007,
      "technology": 8008,
      "btreemap": 8009,
      "##drop": 8010,
      "##lz": 8011,
      "##rr": 8012,
      "alone": 8013,
      "packing": 8014,
      "transitions": 8015,
      "solving": 8016,
      "extends": 8017,
      "xdg": 8018,
      "##confirmed": 8019,
      "lap": 8020,
      "vsc": 8021,
      "##sn": 8022,
      "##late": 8023,
      "##limit": 8024,
      "##inated": 8025,
      "tracer": 8026,
      "genetic": 8027,
      "accident": 8028,
      "covers": 8029,
      "refcell": 8030,
      "asynchronously": 8031,
      "retrieved": 8032,
      "isnone": 8033,
      "adjac": 8034,
      "footprint": 8035,
      "achieved": 8036,
      "##ampaign": 8037,
      "gs": 8038,
      "m1": 8039,
      "pause": 8040,
      "##hen": 8041,
      "##high": 8042,
      "##kl": 8043,
      "thous": 8044,
      "toy": 8045,
      "##operation": 8046,
      "##encrypt": 8047,
      "simult": 8048,
      "precompiled": 8049,
      "oxygengine": 8050,
      "kd": 8051,
      "##rencies": 8052,
      "##pret": 8053,
      "##urrency": 8054,
      "##valu": 8055,
      "ported": 8056,
      "everywhere": 8057,
      "displaying": 8058,
      "1400x": 8059,
      "pressed": 8060,
      "strategies": 8061,
      "##torrent": 8062,
      "puzz": 8063,
      "philos": 8064,
      "1400x1400": 8065,
      "ud": 8066,
      "##fers": 8067,
      "##c6": 8068,
      "##c4": 8069,
      "##1000": 8070,
      "readtostring": 8071,
      "contrast": 8072,
      "emails": 8073,
      "##writing": 8074,
      "combinator": 8075,
      "holders": 8076,
      "wheel": 8077,
      "bur": 8078,
      "##eries": 8079,
      "##changes": 8080,
      "uninstall": 8081,
      "shr": 8082,
      "shim": 8083,
      "shield": 8084,
      "atm": 8085,
      "deposit": 8086,
      "expiration": 8087,
      "transcript": 8088,
      "decor": 8089,
      "##aui": 8090,
      "demand": 8091,
      "##ercial": 8092,
      "captures": 8093,
      "alongside": 8094,
      "reviews": 8095,
      "materials": 8096,
      "hsl": 8097,
      "pager": 8098,
      "tit": 8099,
      "##aid": 8100,
      "##eta": 8101,
      "##eters": 8102,
      "fltk": 8103,
      "aggregate": 8104,
      "##indsafe": 8105,
      "battery": 8106,
      "redistribute": 8107,
      "rapid": 8108,
      "fp": 8109,
      "gps": 8110,
      "rdf": 8111,
      "##hr": 8112,
      "seam": 8113,
      "collab": 8114,
      "formula": 8115,
      "multis": 8116,
      "recently": 8117,
      "polling": 8118,
      "knows": 8119,
      "composition": 8120,
      "bls": 8121,
      "xyz": 8122,
      "yub": 8123,
      "##d8": 8124,
      "topo": 8125,
      "##amples": 8126,
      "alive": 8127,
      "envlogger": 8128,
      "##binary": 8129,
      "naived": 8130,
      "ldap": 8131,
      "salt": 8132,
      "benefits": 8133,
      "fancy": 8134,
      "mcp": 8135,
      "##c5": 8136,
      "##x4": 8137,
      "##inv": 8138,
      "consequ": 8139,
      "extr": 8140,
      "multiplex": 8141,
      "analytics": 8142,
      "collabor": 8143,
      "die": 8144,
      "##sg": 8145,
      "##d2": 8146,
      "disabling": 8147,
      "deck": 8148,
      "##urses": 8149,
      "##1beta1": 8150,
      "margin": 8151,
      "dere": 8152,
      "##ctx": 8153,
      "##utter": 8154,
      "##isons": 8155,
      "unimplemented": 8156,
      "clou": 8157,
      "para": 8158,
      "testdata": 8159,
      "accom": 8160,
      "evol": 8161,
      "managers": 8162,
      "##applic": 8163,
      "locking": 8164,
      "division": 8165,
      "magn": 8166,
      "cpus": 8167,
      "rectangle": 8168,
      "facilitate": 8169,
      "##protocol": 8170,
      "180": 8171,
      "rer": 8172,
      "tru": 8173,
      "recording": 8174,
      "##eee": 8175,
      "sha1": 8176,
      "adapted": 8177,
      "bootloader": 8178,
      "concurrently": 8179,
      "circleci": 8180,
      "acknowled": 8181,
      "coroutine": 8182,
      "fab": 8183,
      "ub": 8184,
      "zk": 8185,
      "##9f": 8186,
      "##perm": 8187,
      "##vh": 8188,
      "##gra": 8189,
      "##edata": 8190,
      "buy": 8191,
      "##ression": 8192,
      "downcast": 8193,
      "latt": 8194,
      "##rayon": 8195,
      "meter": 8196,
      "totp": 8197,
      "transformations": 8198,
      "##12345678": 8199,
      "simultaneous": 8200,
      "hint": 8201,
      "ice": 8202,
      "pm": 8203,
      "w64": 8204,
      "##gly": 8205,
      "##oco": 8206,
      "##izz": 8207,
      "traces": 8208,
      "##ups": 8209,
      "texts": 8210,
      "##ruit": 8211,
      "##160": 8212,
      "computations": 8213,
      "holding": 8214,
      "##ordered": 8215,
      "techniques": 8216,
      "europe": 8217,
      "##current": 8218,
      "permutation": 8219,
      "subsequent": 8220,
      "##pattern": 8221,
      "a1": 8222,
      "hes": 8223,
      "men": 8224,
      "sip": 8225,
      "##game": 8226,
      "ads": 8227,
      "108": 8228,
      "coeff": 8229,
      "homepage": 8230,
      "positional": 8231,
      "million": 8232,
      "rwlock": 8233,
      "##template": 8234,
      "median": 8235,
      "plotters": 8236,
      "secp256k1": 8237,
      "vscode": 8238,
      "b2": 8239,
      "gold": 8240,
      "hun": 8241,
      "p2": 8242,
      "##rules": 8243,
      "##uuid": 8244,
      "##ano": 8245,
      "0xee": 8246,
      "impact": 8247,
      "globally": 8248,
      "panel": 8249,
      "ideally": 8250,
      "joincontext": 8251,
      "consumers": 8252,
      "iota": 8253,
      "tmux": 8254,
      "thrpt": 8255,
      "debuginfo": 8256,
      "east": 8257,
      "##etest": 8258,
      "##ulates": 8259,
      "multil": 8260,
      "corre": 8261,
      "equality": 8262,
      "severe": 8263,
      "##compressed": 8264,
      "unreachable": 8265,
      "##keeper": 8266,
      "##basic": 8267,
      "bf": 8268,
      "hang": 8269,
      "sed": 8270,
      "##3a": 8271,
      "##quf": 8272,
      "sea": 8273,
      "qual": 8274,
      "locate": 8275,
      "retain": 8276,
      "105": 8277,
      "capital": 8278,
      "prefixes": 8279,
      "rgba": 8280,
      "##opts": 8281,
      "shares": 8282,
      "advantages": 8283,
      "hierarchical": 8284,
      "cmsis": 8285,
      "incompatible": 8286,
      "ietf": 8287,
      "##oot": 8288,
      "##hub": 8289,
      "chips": 8290,
      "resume": 8291,
      "mutate": 8292,
      "binds": 8293,
      "portal": 8294,
      "dont": 8295,
      "triggers": 8296,
      "##apped": 8297,
      "4096": 8298,
      "organized": 8299,
      "bpf": 8300,
      "##incl": 8301,
      "##aling": 8302,
      "##acc": 8303,
      "##ecount": 8304,
      "beaut": 8305,
      "##abc": 8306,
      "##abase": 8307,
      "##unction": 8308,
      "doi": 8309,
      "unsaf": 8310,
      "integrations": 8311,
      "merging": 8312,
      "refers": 8313,
      "advent": 8314,
      "##colum": 8315,
      "translated": 8316,
      "wonder": 8317,
      "careful": 8318,
      "octop": 8319,
      "##rb": 8320,
      "##render": 8321,
      "##math": 8322,
      "##keyp": 8323,
      "sheet": 8324,
      "intent": 8325,
      "upcoming": 8326,
      "rsp": 8327,
      "webd": 8328,
      "deletes": 8329,
      "slab": 8330,
      "##collection": 8331,
      "bundles": 8332,
      "exceptions": 8333,
      "obviously": 8334,
      "souff": 8335,
      "112": 8336,
      "800": 8337,
      "fro": 8338,
      "##lp": 8339,
      "##inate": 8340,
      "##clone": 8341,
      "comparisons": 8342,
      "##detailsby": 8343,
      "raft": 8344,
      "density": 8345,
      "ot": 8346,
      "##vin": 8347,
      "##mic": 8348,
      "thrift": 8349,
      "doe": 8350,
      "##ynam": 8351,
      "0x4": 8352,
      "amqp": 8353,
      "elem": 8354,
      "##scale": 8355,
      "artist": 8356,
      "combining": 8357,
      "winapi": 8358,
      "meantime": 8359,
      "dedu": 8360,
      "assembler": 8361,
      "brief": 8362,
      "456": 8363,
      "borsh": 8364,
      "drain": 8365,
      "r2": 8366,
      "raui": 8367,
      "tip": 8368,
      "##got": 8369,
      "commercial": 8370,
      "updat": 8371,
      "pushed": 8372,
      "##allets": 8373,
      "##apper": 8374,
      "lastname": 8375,
      "diagnostics": 8376,
      "##99999999": 8377,
      "thrott": 8378,
      "##optimized": 8379,
      "buttons": 8380,
      "burn": 8381,
      "jira": 8382,
      "kan": 8383,
      "od": 8384,
      "##pair": 8385,
      "##gar": 8386,
      "##qq": 8387,
      "##icle": 8388,
      "regr": 8389,
      "##ilog": 8390,
      "libv": 8391,
      "portfol": 8392,
      "##beam": 8393,
      "producing": 8394,
      "teams": 8395,
      "insensitive": 8396,
      "whitecheck": 8397,
      "bandwidth": 8398,
      "vcpkg": 8399,
      "whitecheckmark": 8400,
      "lol": 8401,
      "pig": 8402,
      "##policy": 8403,
      "##hips": 8404,
      "##bject": 8405,
      "##enty": 8406,
      "##rive": 8407,
      "##units": 8408,
      "weird": 8409,
      "avro": 8410,
      "##2040": 8411,
      "blas": 8412,
      "##visor": 8413,
      "semi": 8414,
      "treas": 8415,
      "diagnostic": 8416,
      "meshes": 8417,
      "pkcs": 8418,
      "##button": 8419,
      "bir": 8420,
      "##e9": 8421,
      "##draw": 8422,
      "##wers": 8423,
      "relying": 8424,
      "##export": 8425,
      "backward": 8426,
      "gpioa": 8427,
      "##front": 8428,
      "119": 8429,
      "cass": 8430,
      "ion": 8431,
      "pist": 8432,
      "yo": 8433,
      "##63": 8434,
      "##nam": 8435,
      "##sto": 8436,
      "toler": 8437,
      "prove": 8438,
      "##users": 8439,
      "messag": 8440,
      "automate": 8441,
      "dotfiles": 8442,
      "ultim": 8443,
      "injection": 8444,
      "caches": 8445,
      "leaves": 8446,
      "##rl": 8447,
      "ini": 8448,
      "##intend": 8449,
      "##2019": 8450,
      "##mbit": 8451,
      "##trust": 8452,
      "tried": 8453,
      "##xxx": 8454,
      "##metadata": 8455,
      "reactive": 8456,
      "educe": 8457,
      "autocom": 8458,
      "##sim": 8459,
      "##v6": 8460,
      "##f7": 8461,
      "##qt": 8462,
      "andre": 8463,
      "alp": 8464,
      "abandon": 8465,
      "flame": 8466,
      "acts": 8467,
      "125": 8468,
      "pushing": 8469,
      "alternate": 8470,
      "privatekey": 8471,
      "0xf6": 8472,
      "armv7": 8473,
      "dense": 8474,
      "renaming": 8475,
      "sprites": 8476,
      "unlicense": 8477,
      "intrins": 8478,
      "oss": 8479,
      "uk": 8480,
      "voice": 8481,
      "##git": 8482,
      "##reate": 8483,
      "##adic": 8484,
      "##loss": 8485,
      "french": 8486,
      "threadrng": 8487,
      "deleting": 8488,
      "##5555": 8489,
      "##meta": 8490,
      "lifecycle": 8491,
      "multiply": 8492,
      "electron": 8493,
      "awssdk": 8494,
      "phantom": 8495,
      "lints": 8496,
      "##schema": 8497,
      "##hi": 8498,
      "##main": 8499,
      "##bab": 8500,
      "##wap": 8501,
      "##inf": 8502,
      "stick": 8503,
      "unoptimized": 8504,
      "erlang": 8505,
      "##ghz": 8506,
      "enumer": 8507,
      "grace": 8508,
      "eventloop": 8509,
      "##logies": 8510,
      "integrating": 8511,
      "mono": 8512,
      "##sdk": 8513,
      "programmer": 8514,
      "avoids": 8515,
      "introsp": 8516,
      "amazing": 8517,
      "##undred": 8518,
      "elasticsearch": 8519,
      "implicitly": 8520,
      "##integer": 8521,
      "aquatic": 8522,
      "bam": 8523,
      "dav": 8524,
      "fits": 8525,
      "mang": 8526,
      "nar": 8527,
      "##title": 8528,
      "##home": 8529,
      "##ancer": 8530,
      "degrees": 8531,
      "proceed": 8532,
      "##estamp": 8533,
      "##tein": 8534,
      "##ermint": 8535,
      "agpl": 8536,
      "singleton": 8537,
      "proposed": 8538,
      "couldn": 8539,
      "minimalistic": 8540,
      "claimed": 8541,
      "1000000": 8542,
      "pypi": 8543,
      "dwarf": 8544,
      "lending": 8545,
      "ti": 8546,
      "##hm": 8547,
      "##house": 8548,
      "##migr": 8549,
      "##wrap": 8550,
      "##edit": 8551,
      "##ico": 8552,
      "stake": 8553,
      "##uster": 8554,
      "##ellar": 8555,
      "##area": 8556,
      "limiting": 8557,
      "dustrayon": 8558,
      "sensors": 8559,
      "cleanup": 8560,
      "##blas": 8561,
      "##encoder": 8562,
      "cstr": 8563,
      "nats": 8564,
      "##counter": 8565,
      "abbre": 8566,
      "##buffers": 8567,
      "tutorials": 8568,
      "cheap": 8569,
      "neighbor": 8570,
      "cglue": 8571,
      "handshake": 8572,
      "##beta1": 8573,
      "##fusion": 8574,
      "##crypt": 8575,
      "##06": 8576,
      "##omething": 8577,
      "orange": 8578,
      "##iful": 8579,
      "hashed": 8580,
      "controlling": 8581,
      "lowest": 8582,
      "syslog": 8583,
      "##events": 8584,
      "routines": 8585,
      "declarations": 8586,
      "demonstrate": 8587,
      "neighb": 8588,
      "vpn": 8589,
      "##e2": 8590,
      "##zero": 8591,
      "tom": 8592,
      "overload": 8593,
      "overlay": 8594,
      "okay": 8595,
      "##auge": 8596,
      "blocked": 8597,
      "heading": 8598,
      "##common": 8599,
      "##pgp": 8600,
      "closely": 8601,
      "indicating": 8602,
      "composite": 8603,
      "cookies": 8604,
      "sqrt": 8605,
      "darwin": 8606,
      "##a7": 8607,
      "##sum": 8608,
      "##b9": 8609,
      "##wy": 8610,
      "reaper": 8611,
      "ish": 8612,
      "asmut": 8613,
      "shot": 8614,
      "outcome": 8615,
      "iterating": 8616,
      "interfacing": 8617,
      "##bble": 8618,
      "bigger": 8619,
      "simplifies": 8620,
      "earth": 8621,
      "dropping": 8622,
      "paint": 8623,
      "delimited": 8624,
      "fundamental": 8625,
      "serdederive": 8626,
      "yank": 8627,
      "##vg": 8628,
      "##c3": 8629,
      "##atile": 8630,
      "##arks": 8631,
      "reve": 8632,
      "lives": 8633,
      "##umes": 8634,
      "##usb": 8635,
      "apache2": 8636,
      "boost": 8637,
      "##lessly": 8638,
      "sizeof": 8639,
      "##fringe": 8640,
      "phon": 8641,
      "computers": 8642,
      "peg": 8643,
      "deployed": 8644,
      "lesser": 8645,
      "choosing": 8646,
      "mechanisms": 8647,
      "tendermint": 8648,
      "eof": 8649,
      "rst": 8650,
      "##bp": 8651,
      "devic": 8652,
      "submodules": 8653,
      "obs": 8654,
      "##aws": 8655,
      "perspect": 8656,
      "selecting": 8657,
      "uploaded": 8658,
      "confid": 8659,
      "imagine": 8660,
      "predic": 8661,
      "rolling": 8662,
      "silabs": 8663,
      "gplv3": 8664,
      "mos": 8665,
      "wat": 8666,
      "##eras": 8667,
      "##onal": 8668,
      "prover": 8669,
      "##uler": 8670,
      "##cher": 8671,
      "unlock": 8672,
      "suppose": 8673,
      "stdio": 8674,
      "twitch": 8675,
      "coven": 8676,
      "offsets": 8677,
      "sorts": 8678,
      "reduced": 8679,
      "##items": 8680,
      "attachment": 8681,
      "##timer": 8682,
      "storyteller": 8683,
      "substantial": 8684,
      "0m": 8685,
      "bio": 8686,
      "animal": 8687,
      "alg": 8688,
      "readline": 8689,
      "contig": 8690,
      "datalog": 8691,
      "formal": 8692,
      "peak": 8693,
      "##ikely": 8694,
      "tempeh": 8695,
      "absolut": 8696,
      "situation": 8697,
      "##property": 8698,
      "onnxruntime": 8699,
      "bon": 8700,
      "fh": 8701,
      "gmail": 8702,
      "yay": 8703,
      "##long": 8704,
      "##kr": 8705,
      "##jq": 8706,
      "##reon": 8707,
      "##iding": 8708,
      "linter": 8709,
      "subdirectory": 8710,
      "##commit": 8711,
      "patreon": 8712,
      "answers": 8713,
      "axiom": 8714,
      "mixed": 8715,
      "explorer": 8716,
      "welcom": 8717,
      "ieee": 8718,
      "uninit": 8719,
      "serious": 8720,
      "httpserver": 8721,
      "serverless": 8722,
      "##uxdb": 8723,
      "backing": 8724,
      "afterwards": 8725,
      "wordlist": 8726,
      "dynamodb": 8727,
      "##features": 8728,
      "emitted": 8729,
      "##aaaaaaaa": 8730,
      "##elihood": 8731,
      "angular": 8732,
      "america": 8733,
      "dioxus": 8734,
      "philosop": 8735,
      "treasury": 8736,
      "ble": 8737,
      "cum": 8738,
      "fash": 8739,
      "hundred": 8740,
      "lorem": 8741,
      "natively": 8742,
      "tp": 8743,
      "wl": 8744,
      "zoom": 8745,
      "##8s": 8746,
      "##ingu": 8747,
      "tester": 8748,
      "##oooo": 8749,
      "gitgithub": 8750,
      "hosting": 8751,
      "experiments": 8752,
      "practices": 8753,
      "unlikely": 8754,
      "renders": 8755,
      "wol": 8756,
      "##upt": 8757,
      "##left": 8758,
      "##stats": 8759,
      "##arser": 8760,
      "fruit": 8761,
      "cla": 8762,
      "latitude": 8763,
      "bigint": 8764,
      "##clean": 8765,
      "rustcrypto": 8766,
      "##ismatch": 8767,
      "subtract": 8768,
      "sanit": 8769,
      "hesitate": 8770,
      "00000": 8771,
      "888": 8772,
      "dac": 8773,
      "##fish": 8774,
      "##03": 8775,
      "definit": 8776,
      "reddit": 8777,
      "nonin": 8778,
      "##appro": 8779,
      "improving": 8780,
      "spawned": 8781,
      "effective": 8782,
      "ipsum": 8783,
      "gauss": 8784,
      "h2": 8785,
      "odd": 8786,
      "pong": 8787,
      "rg": 8788,
      "##nik": 8789,
      "##clo": 8790,
      "##sterm": 8791,
      "apr": 8792,
      "shif": 8793,
      "delet": 8794,
      "implies": 8795,
      "##pcap": 8796,
      "visualize": 8797,
      "##checkmark": 8798,
      "reloading": 8799,
      "criteria": 8800,
      "overrides": 8801,
      "nalgebra": 8802,
      "philosophy": 8803,
      "##d3": 8804,
      "##dns": 8805,
      "##lif": 8806,
      "##ham": 8807,
      "##08": 8808,
      "##esk": 8809,
      "##enode": 8810,
      "##ille": 8811,
      "##cha": 8812,
      "rusts": 8813,
      "##exist": 8814,
      "supposed": 8815,
      "symmetric": 8816,
      "autos": 8817,
      "minid": 8818,
      "hereby": 8819,
      "possibility": 8820,
      "movies": 8821,
      "##iddleware": 8822,
      "heavycheckmark": 8823,
      "##bindings": 8824,
      "lingua": 8825,
      "##application": 8826,
      "fashion": 8827,
      "fant": 8828,
      "rational": 8829,
      "##mz": 8830,
      "##arte": 8831,
      "##seq": 8832,
      "##omorph": 8833,
      "onclick": 8834,
      "##imer": 8835,
      "basics": 8836,
      "webrtc": 8837,
      "##ftp": 8838,
      "##2020": 8839,
      "wouldn": 8840,
      "##umeric": 8841,
      "likelihood": 8842,
      "administr": 8843,
      "syscall": 8844,
      "covenant": 8845,
      "bn": 8846,
      "lan": 8847,
      "px": 8848,
      "##liter": 8849,
      "##cash": 8850,
      "##well": 8851,
      "##kin": 8852,
      "withcapacity": 8853,
      "idle": 8854,
      "scient": 8855,
      "inserting": 8856,
      "consistency": 8857,
      "quantity": 8858,
      "##codec": 8859,
      "milest": 8860,
      "turtle": 8861,
      "acquire": 8862,
      "troublesho": 8863,
      "ce": 8864,
      "dsp": 8865,
      "mles": 8866,
      "n1": 8867,
      "nap": 8868,
      "nintend": 8869,
      "tz": 8870,
      "##d7": 8871,
      "##atus": 8872,
      "ener": 8873,
      "##iph": 8874,
      "key1": 8875,
      "##berg": 8876,
      "customers": 8877,
      "##awning": 8878,
      "dockerfile": 8879,
      "##flat": 8880,
      "viewing": 8881,
      "##price": 8882,
      "splitting": 8883,
      "decompression": 8884,
      "exponent": 8885,
      "pandoc": 8886,
      "acknowledg": 8887,
      "np": 8888,
      "##etoken": 8889,
      "##ado": 8890,
      "projection": 8891,
      "promise": 8892,
      "mailbox": 8893,
      "independently": 8894,
      "123456": 8895,
      "voting": 8896,
      "chromium": 8897,
      "##akecase": 8898,
      "assertthat": 8899,
      "dra": 8900,
      "mas": 8901,
      "rab": 8902,
      "stro": 8903,
      "adaf": 8904,
      "resist": 8905,
      "pron": 8906,
      "getmut": 8907,
      "hasn": 8908,
      "wherever": 8909,
      "##props": 8910,
      "breaks": 8911,
      "committed": 8912,
      "prevents": 8913,
      "capturing": 8914,
      "grammars": 8915,
      "composable": 8916,
      "raise": 8917,
      "lz4": 8918,
      "inlineresponse40": 8919,
      "souffl": 8920,
      "pitch": 8921,
      "rid": 8922,
      "##ians": 8923,
      "##sth": 8924,
      "##ilities": 8925,
      "exampl": 8926,
      "newly": 8927,
      "acces": 8928,
      "protoc": 8929,
      "multipl": 8930,
      "benches": 8931,
      "utilize": 8932,
      "##ategy": 8933,
      "safer": 8934,
      "membership": 8935,
      "##factory": 8936,
      "multithreaded": 8937,
      "prepared": 8938,
      "adafruit": 8939,
      "ae": 8940,
      "cad": 8941,
      "rtt": 8942,
      "xls": 8943,
      "ago": 8944,
      "detector": 8945,
      "##bindgen": 8946,
      "exponential": 8947,
      "##aas": 8948,
      "##d4": 8949,
      "##inc": 8950,
      "##rise": 8951,
      "avx2": 8952,
      "avatar": 8953,
      "argon": 8954,
      "restric": 8955,
      "##bean": 8956,
      "combines": 8957,
      "pressing": 8958,
      "preserve": 8959,
      "cryptocurrency": 8960,
      "cassand": 8961,
      "dart": 8962,
      "f2": 8963,
      "tid": 8964,
      "yarn": 8965,
      "##mesh": 8966,
      "##b3": 8967,
      "##eses": 8968,
      "##amext": 8969,
      "##indgen": 8970,
      "funds": 8971,
      "envel": 8972,
      "indirect": 8973,
      "entryp": 8974,
      "consts": 8975,
      "brings": 8976,
      "asserts": 8977,
      "skipped": 8978,
      "persistence": 8979,
      "ec2": 8980,
      "detecting": 8981,
      "##webs": 8982,
      "lazystatic": 8983,
      "influ": 8984,
      "##upport": 8985,
      "escaped": 8986,
      "bodies": 8987,
      "unbounded": 8988,
      "hat": 8989,
      "kil": 8990,
      "uv": 8991,
      "##wiki": 8992,
      "##etting": 8993,
      "anc": 8994,
      "##elift": 8995,
      "##assemb": 8996,
      "##econt": 8997,
      "##igence": 8998,
      "stands": 8999,
      "heurist": 9000,
      "computes": 9001,
      "plane": 9002,
      "terminate": 9003,
      "estimate": 9004,
      "thorough": 9005,
      "aid": 9006,
      "gap": 9007,
      "ks": 9008,
      "mu": 9009,
      "upt": 9010,
      "##i64": 9011,
      "##f3": 9012,
      "##wx": 9013,
      "##jy": 9014,
      "##ilter": 9015,
      "##ura": 9016,
      "##ocon": 9017,
      "##resol": 9018,
      "indust": 9019,
      "availability": 9020,
      "##shell": 9021,
      "buffered": 9022,
      "##prom": 9023,
      "lights": 9024,
      "##2d2": 9025,
      "12345": 9026,
      "periodically": 9027,
      "iptables": 9028,
      "cer": 9029,
      "mw": 9030,
      "night": 9031,
      "##yaml": 9032,
      "station": 9033,
      "##lox": 9034,
      "##urin": 9035,
      "##under": 9036,
      "##ereg": 9037,
      "pubsub": 9038,
      "openpgp": 9039,
      "extending": 9040,
      "serviceid": 9041,
      "encodes": 9042,
      "optimizer": 9043,
      "engineering": 9044,
      "finalize": 9045,
      "##tests": 9046,
      "priorit": 9047,
      "consumption": 9048,
      "##yyy": 9049,
      "##coder": 9050,
      "synthes": 9051,
      "##fringement": 9052,
      "132": 9053,
      "gender": 9054,
      "il": 9055,
      "##mag": 9056,
      "##wu": 9057,
      "##enot": 9058,
      "areas": 9059,
      "packs": 9060,
      "##logic": 9061,
      "longitude": 9062,
      "largely": 9063,
      "initializing": 9064,
      "forwarding": 9065,
      "ferris": 9066,
      "interoperability": 9067,
      "album": 9068,
      "1m": 9069,
      "lapt": 9070,
      "revis": 9071,
      "##uty": 9072,
      "##rist": 9073,
      "##asy": 9074,
      "##crimin": 9075,
      "##andom": 9076,
      "102": 9077,
      "ampl": 9078,
      "replication": 9079,
      "##appy": 9080,
      "win32": 9081,
      "mpd": 9082,
      "happening": 9083,
      "affili": 9084,
      "explained": 9085,
      "srgb": 9086,
      "nucle": 9087,
      "fingerprint": 9088,
      "hop": 9089,
      "iri": 9090,
      "wake": 9091,
      "xz": 9092,
      "tobytes": 9093,
      "imap": 9094,
      "prng": 9095,
      "##strans": 9096,
      "webgl": 9097,
      "coded": 9098,
      "factors": 9099,
      "404": 9100,
      "student": 9101,
      "ticket": 9102,
      "regarding": 9103,
      "piston": 9104,
      "aux": 9105,
      "ball": 9106,
      "gist": 9107,
      "iced": 9108,
      "##ato": 9109,
      "chan": 9110,
      "spawning": 9111,
      "mods": 9112,
      "compilers": 9113,
      "##phem": 9114,
      "##apture": 9115,
      "officially": 9116,
      "increased": 9117,
      "443": 9118,
      "acceleration": 9119,
      "alsa": 9120,
      "perspective": 9121,
      "bread": 9122,
      "dag": 9123,
      "fff": 9124,
      "vo": 9125,
      "whom": 9126,
      "##import": 9127,
      "park": 9128,
      "0x2": 9129,
      "##fluxdb": 9130,
      "increases": 9131,
      "##ffffffff": 9132,
      "govern": 9133,
      "##acha20": 9134,
      "mel": 9135,
      "mich": 9136,
      "nil": 9137,
      "wd": 9138,
      "##bing": 9139,
      "##atis": 9140,
      "##assy": 9141,
      "webp": 9142,
      "corner": 9143,
      "roots": 9144,
      "maintains": 9145,
      "purely": 9146,
[...]
