{
  "version": "1.0",
  "truncation": null,
  "padding": {
    "strategy": "BatchLongest",
    "direction": "Right",
    "pad_to_multiple_of": null,
    "pad_id": 0,
    "pad_type_id": 0,
    "pad_token": "[PAD]"
  },
  "added_tokens": [
    {
      "id": 0,
      "content": "[PAD]",
      "single_word": false,
      "lstrip": false,
      "rstrip": false,
      "normalized": false,
      "special": true
    },
    {
      "id": 1,
      "content": "[UNK]",
      "single_word": false,
      "lstrip": false,
      "rstrip": false,
      "normalized": false,
      "special": true
    }
  ],
  "normalizer": {
    "type": "BertNormalizer",
    "clean_text": true,
    "handle_chinese_chars": true,
    "strip_accents": true,
    "lowercase": true
  },
  "pre_tokenizer": {
    "type": "BertPreTokenizer"
  },
  "post_processor": null,
  "decoder": {
    "type": "WordPiece",
    "prefix": "##",
    "cleanup": true
  },
  "model": {
    "type": "WordPiece",
    "unk_token": "[UNK]",
    "continuing_subword_prefix": "##",
    "max_input_chars_per_word": 100,
    "vocab": {
      "[PAD]": 0,
      "[UNK]": 1,
      "!": 2,
      "\"": 3,
      "#": 4,
      "$": 5,
      "%": 6,
      "&": 7,
      "'": 8,
      "(": 9,
      ")": 10,
      "*": 11,
      "+": 12,
      ",": 13,
      "-": 14,
      ".": 15,
      "/": 16,
      "0": 17,
      "1": 18,
      "2": 19,
      "3": 20,
      "4": 21,
      "5": 22,
      "6": 23,
      "7": 24,
      "8": 25,
      "9": 26,
      ":": 27,
      ";": 28,
      "<": 29,
      "=": 30,
      ">": 31,
      "?": 32,
      "@": 33,
      "[": 34,
      "\\": 35,
      "]": 36,
      "^": 37,
      "_": 38,
      "`": 39,
      "a": 40,
      "b": 41,
      "c": 42,
      "d": 43,
      "e": 44,
      "f": 45,
      "g": 46,
      "h": 47,
      "i": 48,
      "j": 49,
      "k": 50,
      "l": 51,
      "m": 52,
      "n": 53,
      "o": 54,
      "p": 55,
      "q": 56,
      "r": 57,
      "s": 58,
      "t": 59,
      "u": 60,
      "v": 61,
      "w": 62,
      "x": 63,
      "y": 64,
      "z": 65,
      "{": 66,
      "|": 67,
      "}": 68,
      "~": 69,
      "¡": 70,
      "¢": 71,
      "£": 72,
      "¤": 73,
      "¥": 74,
      "¦": 75,
      "§": 76,
      "¨": 77,
      "©": 78,
      "ª": 79,
      "«": 80,
      "¬": 81,
      "®": 82,
      "¯": 83,
      "°": 84,
      "±": 85,
      "²": 86,
      "³": 87,
      "´": 88,
      "µ": 89,
      "¶": 90,
      "·": 91,
      "¸": 92,
      "¹": 93,
      "º": 94,
      "»": 95,
      "¼": 96,
      "½": 97,
      "¾": 98,
      "¿": 99,
      "×": 100,
      "ß": 101,
      "æ": 102,
      "ð": 103,
      "÷": 104,
      "ø": 105,
      "þ": 106,
      "đ": 107,
      "ħ": 108,
      "ı": 109,
      "ĳ": 110,
      "ĸ": 111,
      "ŀ": 112,
      "ł": 113,
      "ŉ": 114,
      "ŋ": 115,
      "œ": 116,
      "ŧ": 117,
      "ſ": 118,
      "ƃ": 119,
      "ƒ": 120,
      "ƛ": 121,
      "ƥ": 122,
      "ƨ": 123,
      "ƭ": 124,
      "ƴ": 125,
      "ƽ": 126,
      "ǃ": 127,
      "ǆ": 128,
      "ǝ": 129,
      "ǳ": 130,
      "ȝ": 131,
      "ȥ": 132,
      "ɉ": 133,
      "ɐ": 134,
      "ɑ": 135,
      "ɒ": 136,
      "ɔ": 137,
      "ɖ": 138,
      "ə": 139,
      "ɛ": 140,
      "ɡ": 141,
      "ɣ": 142,
      "ɥ": 143,
      "ɪ": 144,
      "ɯ": 145,
      "ɱ": 146,
      "ɲ": 147,
      "ɴ": 148,
      "ɹ": 149,
      "ʀ": 150,
      "ʁ": 151,
      "ʇ": 152,
      "ʊ": 153,
      "ʌ": 154,
      "ʍ": 155,
      "ʎ": 156,
      "ʒ": 157,
      "ʔ": 158,
      "ʕ": 159,
      "ʖ": 160,
      "ʘ": 161,
      "ʟ": 162,
      "ʠ": 163,
      "ʭ": 164,
      "ʮ": 165,
      "ʲ": 166,
      "ʷ": 167,
      "ˆ": 168,
      "ˇ": 169,
      "ˈ": 170,
      "ˉ": 171,
      "ˌ": 172,
      "ˏ": 173,
      "ː": 174,
      "˘": 175,
      "˙": 176,
      "˚": 177,
      "ͱ": 178,
      "ͳ": 179,
      "α": 180,
      "β": 181,
      "γ": 182,
      "δ": 183,
      "ε": 184,
      "η": 185,
      "θ": 186,
      "ι": 187,
      "κ": 188,
      "λ": 189,
      "μ": 190,
      "ν": 191,
      "ξ": 192,
      "ο": 193,
      "π": 194,
      "ρ": 195,
      "ς": 196,
      "σ": 197,
      "τ": 198,
      "υ": 199,
      "φ": 200,
      "χ": 201,
      "ψ": 202,
      "ω": 203,
      "ϗ": 204,
      "ϛ": 205,
      "ϝ": 206,
      "ϟ": 207,
      "ϡ": 208,
      "ϧ": 209,
      "ϰ": 210,
      "ϳ": 211,
      "ϵ": 212,
      "а": 213,
      "б": 214,
      "в": 215,
      "г": 216,
      "д": 217,
      "е": 218,
      "ж": 219,
      "з": 220,
      "и": 221,
      "к": 222,
      "л": 223,
      "м": 224,
      "н": 225,
      "о": 226,
      "п": 227,
      "р": 228,
      "с": 229,
      "т": 230,
      "у": 231,
      "ф": 232,
      "х": 233,
      "ц": 234,
      "ч": 235,
      "ш": 236,
      "щ": 237,
      "ъ": 238,
      "ы": 239,
      "ь": 240,
      "э": 241,
      "ю": 242,
      "я": 243,
      "ѕ": 244,
      "і": 245,
      "ј": 246,
      "џ": 247,
      "ѱ": 248,
      "ѵ": 249,
      "҉": 250,
      "ґ": 251,
      "ғ": 252,
      "ҕ": 253,
      "ӻ": 254,
      "ӿ": 255,
      "ԍ": 256,
      "ԙ": 257,
      "ԛ": 258,
      "ԫ": 259,
      "ա": 260,
      "բ": 261,
      "ե": 262,
      "ի": 263,
      "ծ": 264,
      "վ": 265,
      "ր": 266,
      "ց": 267,
      "փ": 268,
      "օ": 269,
      "և": 270,
      "։": 271,
      "֊": 272,
      "֋": 273,
      "֍": 274,
      "֏": 275,
      "־": 276,
      "׀": 277,
      "׃": 278,
      "׆": 279,
      "׈": 280,
      "׉": 281,
      "׊": 282,
      "׋": 283,
      "א": 284,
      "ב": 285,
      "ד": 286,
      "ו": 287,
      "ח": 288,
      "ט": 289,
      "י": 290,
      "כ": 291,
      "ל": 292,
      "ם": 293,
      "מ": 294,
      "ן": 295,
      "ס": 296,
      "ע": 297,
      "ר": 298,
      "ש": 299,
      "ת": 300,
      "׹": 301,
      "ء": 302,
      "ا": 303,
      "ب": 304,
      "ة": 305,
      "ت": 306,
      "ث": 307,
      "ج": 308,
      "ح": 309,
      "خ": 310,
      "د": 311,
      "ذ": 312,
      "ر": 313,
      "ز": 314,
      "س": 315,
      "ش": 316,
      "ص": 317,
      "ض": 318,
      "ط": 319,
      "ظ": 320,
      "ع": 321,
      "غ": 322,
      "ف": 323,
      "ق": 324,
      "ك": 325,
      "ل": 326,
      "م": 327,
      "ن": 328,
      "ه": 329,
      "و": 330,
      "ى": 331,
      "ي": 332,
      "٣": 333,
      "٩": 334,
      "٪": 335,
      "چ": 336,
      "ک": 337,
      "گ": 338,
      "ھ": 339,
      "ی": 340,
      "۰": 341,
      "۳": 342,
      "۶": 343,
      "۹": 344,
      "ݒ": 345,
      "ݓ": 346,
      "ݔ": 347,
      "ݕ": 348,
      "ݖ": 349,
      "ݗ": 350,
      "ݙ": 351,
      "ݪ": 352,
      "ݫ": 353,
      "ݱ": 354,
      "ݶ": 355,
      "ݷ": 356,
      "ݸ": 357,
      "ݹ": 358,
      "ݺ": 359,
      "߄": 360,
      "ߊ": 361,
      "ߋ": 362,
      "ߌ": 363,
      "ߎ": 364,
      "ߏ": 365,
      "ߕ": 366,
      "ߙ": 367,
      "ߚ": 368,
      "ߠ": 369,
      "ߡ": 370,
      "अ": 371,
      "आ": 372,
      "इ": 373,
      "उ": 374,
      "ए": 375,
      "औ": 376,
      "क": 377,
      "ख": 378,
      "ग": 379,
      "ज": 380,
      "ट": 381,
      "ठ": 382,
      "ड": 383,
      "ण": 384,
      "त": 385,
      "न": 386,
      "प": 387,
      "ब": 388,
      "म": 389,
      "य": 390,
      "र": 391,
      "ल": 392,
      "श": 393,
      "स": 394,
      "ह": 395,
      "ऽ": 396,
      "ा": 397,
      "ि": 398,
      "ी": 399,
      "ो": 400,
      "ौ": 401,
      "।": 402,
      "१": 403,
      "२": 404,
      "५": 405,
      "६": 406,
      "७": 407,
      "८": 408,
      "९": 409,
      "ॳ": 410,
      "ॺ": 411,
      "ং": 412,
      "অ": 413,
      "আ": 414,
      "ই": 415,
      "উ": 416,
      "ও": 417,
      "ক": 418,
      "গ": 419,
      "ঙ": 420,
      "ণ": 421,
      "ত": 422,
      "ধ": 423,
      "ন": 424,
      "প": 425,
      "ফ": 426,
      "ব": 427,
      "ম": 428,
      "য": 429,
      "র": 430,
      "ল": 431,
      "ষ": 432,
      "স": 433,
      "া": 434,
      "ি": 435,
      "ে": 436,
      "০": 437,
      "১": 438,
      "৭": 439,
      "ઉ": 440,
      "ઠ": 441,
      "ળ": 442,
      "૩": 443,
      "૪": 444,
      "ଅ": 445,
      "ଢ": 446,
      "ଣ": 447,
      "ଥ": 448,
      "ମ": 449,
      "୷": 450,
      "ழ": 451,
      "ௗ": 452,
      "௫": 453,
      "௭": 454,
      "௴": 455,
      "ఇ": 456,
      "ఓ": 457,
      "ష": 458,
      "ౙ": 459,
      "ౡ": 460,
      "ಔ": 461,
      "ಟ": 462,
      "ಠ": 463,
      "೪": 464,
      "ആ": 465,
      "ഓ": 466,
      "ഗ": 467,
      "ര": 468,
      "വ": 469,
      "൦": 470,
      "൭": 471,
      "൰": 472,
      "ග": 473,
      "ඤ": 474,
      "ඨ": 475,
      "෴": 476,
      "ก": 477,
      "ข": 478,
      "ค": 479,
      "ง": 480,
      "ฉ": 481,
      "ช": 482,
      "ซ": 483,
      "ด": 484,
      "ต": 485,
      "ถ": 486,
      "ท": 487,
      "น": 488,
      "บ": 489,
      "ป": 490,
      "พ": 491,
      "ภ": 492,
      "ม": 493,
      "ย": 494,
      "ร": 495,
      "ฤ": 496,
      "ล": 497,
      "ว": 498,
      "ษ": 499,
      "ส": 500,
      "ห": 501,
      "อ": 502,
      "ฮ": 503,
      "ะ": 504,
      "า": 505,
      "ำ": 506,
      "฿": 507,
      "เ": 508,
      "แ": 509,
      "โ": 510,
      "ใ": 511,
      "ไ": 512,
      "๐": 513,
      "๑": 514,
      "๗": 515,
      "๙": 516,
      "ດ": 517,
      "ທ": 518,
      "ພ": 519,
      "ມ": 520,
      "ລ": 521,
      "ວ": 522,
      "ສ": 523,
      "າ": 524,
      "ໜ": 525,
      "ໝ": 526,
      "་": 527,
      "༼": 528,
      "༽": 529,
      "ཀ": 530,
      "ད": 531,
      "བ": 532,
      "ལ": 533,
      "ས": 534,
      "ཪ": 535,
      "྾": 536,
      "ဃ": 537,
      "ဏ": 538,
      "န": 539,
      "ဖ": 540,
      "မ": 541,
      "ာ": 542,
      "ြ": 543,
      "၅": 544,
      "၍": 545,
      "ၑ": 546,
      "ၺ": 547,
      "ၾ": 548,
      "႔": 549,
      "ა": 550,
      "ბ": 551,
      "გ": 552,
      "ე": 553,
      "ვ": 554,
      "ი": 555,
      "მ": 556,
      "ო": 557,
      "რ": 558,
      "ძ": 559,
      "ხ": 560,
      "ჯ": 561,
      "ჳ": 562,
      "ჷ": 563,
      "ᄀ": 564,
      "ᄁ": 565,
      "ᄂ": 566,
      "ᄃ": 567,
      "ᄄ": 568,
      "ᄅ": 569,
      "ᄆ": 570,
      "ᄇ": 571,
      "ᄈ": 572,
      "ᄉ": 573,
      "ᄋ": 574,
      "ᄌ": 575,
      "ᄍ": 576,
      "ᄎ": 577,
      "ᄏ": 578,
      "ᄐ": 579,
      "ᄑ": 580,
      "ᄒ": 581,
      "ᅡ": 582,
      "ᅢ": 583,
      "ᅣ": 584,
      "ᅤ": 585,
      "ᅥ": 586,
      "ᅦ": 587,
      "ᅧ": 588,
      "ᅨ": 589,
      "ᅩ": 590,
      "ᅪ": 591,
      "ᅫ": 592,
      "ᅬ": 593,
      "ᅭ": 594,
      "ᅮ": 595,
      "ᅯ": 596,
      "ᅰ": 597,
      "ᅱ": 598,
      "ᅲ": 599,
      "ᅳ": 600,
      "ᅴ": 601,
      "ᅵ": 602,
      "ᆨ": 603,
      "ᆫ": 604,
      "ᆭ": 605,
      "ᆮ": 606,
      "ᆯ": 607,
      "ᆰ": 608,
      "ᆲ": 609,
      "ᆶ": 610,
      "ᆷ": 611,
      "ᆸ": 612,
      "ᆹ": 613,
      "ᆺ": 614,
      "ᆻ": 615,
      "ᆼ": 616,
      "ᆽ": 617,
      "ᆾ": 618,
      "ᆿ": 619,
      "ᇀ": 620,
      "ᇁ": 621,
      "ᇂ": 622,
      "፩": 623,
      "፪": 624,
      "፫": 625,
      "፬": 626,
      "፭": 627,
      "፮": 628,
      "፯": 629,
      "፰": 630,
      "፱": 631,
      "፲": 632,
      "፳": 633,
      "፴": 634,
      "፵": 635,
      "፶": 636,
      "፷": 637,
      "፸": 638,
      "፹": 639,
      "፺": 640,
      "፻": 641,
      "፼": 642,
      "᐀": 643,
      "ᐅ": 644,
      "ᐛ": 645,
      "ᐟ": 646,
      "ᑭ": 647,
      "ᓇ": 648,
      "ᔕ": 649,
      "ᕕ": 650,
      "ᕗ": 651,
      "ᚠ": 652,
      "ᚢ": 653,
      "ᚦ": 654,
      "ᚨ": 655,
      "ᚩ": 656,
      "ᚪ": 657,
      "ᚮ": 658,
      "ᚱ": 659,
      "ᚲ": 660,
      "ᚳ": 661,
      "ᚴ": 662,
      "ᚵ": 663,
      "ᚷ": 664,
      "ᚹ": 665,
      "ᚻ": 666,
      "ᚼ": 667,
      "ᚽ": 668,
      "ᚾ": 669,
      "ᚿ": 670,
      "ᛁ": 671,
      "ᛃ": 672,
      "ᛅ": 673,
      "ᛆ": 674,
      "ᛉ": 675,
      "ᛊ": 676,
      "ᛋ": 677,
      "ᛌ": 678,
      "ᛍ": 679,
      "ᛏ": 680,
      "ᛐ": 681,
      "ᛒ": 682,
      "ᛖ": 683,
      "ᛘ": 684,
      "ᛙ": 685,
      "ᛚ": 686,
      "ᛞ": 687,
      "ក": 688,
      "ង": 689,
      "ជ": 690,
      "ន": 691,
      "ប": 692,
      "ម": 693,
      "រ": 694,
      "វ": 695,
      "អ": 696,
      "ា": 697,
      "ៅ": 698,
      "៤": 699,
      "៧": 700,
      "᠆": 701,
      "᧓": 702,
      "᧗": 703,
      "᱃": 704,
      "᱒": 705,
      "ᴀ": 706,
      "ᴉ": 707,
      "ᴗ": 708,
      "ᴛ": 709,
      "ᴥ": 710,
      "ᵔ": 711,
      "ᵢ": 712,
      "ᵣ": 713,
      "ᵤ": 714,
      "ᵧ": 715,
      "‐": 716,
      "‑": 717,
      "‒": 718,
      "–": 719,
      "—": 720,
      "―": 721,
      "‖": 722,
      "‘": 723,
      "’": 724,
      "“": 725,
      "”": 726,
      "„": 727,
      "‟": 728,
      "†": 729,
      "‡": 730,
      "•": 731,
      "‣": 732,
      "․": 733,
      "…": 734,
      "‰": 735,
      "‱": 736,
      "′": 737,
      "‹": 738,
      "›": 739,
      "※": 740,
      "‼": 741,
      "‽": 742,
      "‾": 743,
      "‿": 744,
      "⁄": 745,
      "⁉": 746,
      "⁓": 747,
      "⁰": 748,
      "⁴": 749,
      "⁵": 750,
      "⁶": 751,
      "⁷": 752,
      "⁸": 753,
      "⁹": 754,
      "⁺": 755,
      "⁻": 756,
      "ⁿ": 757,
      "₀": 758,
      "₁": 759,
      "₂": 760,
      "₃": 761,
      "₄": 762,
      "₅": 763,
      "₆": 764,
      "₇": 765,
      "₈": 766,
      "₉": 767,
      "₊": 768,
      "₋": 769,
      "₍": 770,
      "₎": 771,
      "ₑ": 772,
      "ₓ": 773,
      "ₖ": 774,
      "ₗ": 775,
      "ₘ": 776,
      "ₙ": 777,
      "ₚ": 778,
      "ₛ": 779,
      "ₜ": 780,
      "₥": 781,
      "₧": 782,
      "€": 783,
      "₺": 784,
      "₽": 785,
      "⃝": 786,
      "⃣": 787,
      "⃤": 788,
      "ℂ": 789,
      "℃": 790,
      "℉": 791,
      "ℌ": 792,
      "ℍ": 793,
      "ℏ": 794,
      "ℓ": 795,
      "ℕ": 796,
      "№": 797,
      "ℙ": 798,
      "ℚ": 799,
      "ℝ": 800,
      "™": 801,
      "ℤ": 802,
      "ℹ": 803,
      "⅄": 804,
      "⅐": 805,
      "⅑": 806,
      "⅒": 807,
      "⅓": 808,
      "⅔": 809,
      "⅕": 810,
      "⅖": 811,
      "⅗": 812,
      "⅘": 813,
      "⅙": 814,
      "⅚": 815,
      "⅛": 816,
      "⅜": 817,
      "⅝": 818,
      "⅞": 819,
      "ⅲ": 820,
      "←": 821,
      "↑": 822,
      "→": 823,
      "↓": 824,
      "↔": 825,
      "↕": 826,
      "↖": 827,
      "↗": 828,
      "↘": 829,
      "↙": 830,
      "↣": 831,
      "↤": 832,
      "↦": 833,
      "↨": 834,
      "↩": 835,
      "↪": 836,
      "↳": 837,
      "↴": 838,
      "↵": 839,
      "↷": 840,
      "↻": 841,
      "⇄": 842,
      "⇋": 843,
      "⇒": 844,
      "⇓": 845,
      "⇔": 846,
      "⇡": 847,
      "⇢": 848,
      "⇥": 849,
      "⇦": 850,
      "⇧": 851,
      "⇨": 852,
      "⇩": 853,
      "∀": 854,
      "∂": 855,
      "∃": 856,
      "∅": 857,
      "∆": 858,
      "∈": 859,
      "∊": 860,
      "∎": 861,
      "∑": 862,
      "−": 863,
      "∗": 864,
      "∙": 865,
      "√": 866,
      "∞": 867,
      "∟": 868,
      "∠": 869,
      "∧": 870,
      "∨": 871,
      "∩": 872,
      "∪": 873,
      "∫": 874,
      "∴": 875,
      "∵": 876,
      "∼": 877,
      "∾": 878,
      "≈": 879,
      "≍": 880,
      "≡": 881,
      "≤": 882,
      "≥": 883,
      "≦": 884,
      "⊂": 885,
      "⊆": 886,
      "⊇": 887,
      "⊕": 888,
      "⊤": 889,
      "⊻": 890,
      "⋀": 891,
      "⋁": 892,
      "⋃": 893,
      "⋅": 894,
      "⋆": 895,
      "⋮": 896,
      "⋯": 897,
      "⋰": 898,
      "⋱": 899,
      "⌂": 900,
      "⌈": 901,
      "⌉": 902,
      "⌊": 903,
      "⌋": 904,
      "⌐": 905,
      "⌒": 906,
      "⌘": 907,
      "⌚": 908,
      "⌛": 909,
      "⌠": 910,
      "⌡": 911,
      "⌥": 912,
      "⌨": 913,
      "⎈": 914,
      "⎘": 915,
      "⎛": 916,
      "⎜": 917,
      "⎝": 918,
      "⎞": 919,
      "⎟": 920,
      "⎠": 921,
      "⎡": 922,
      "⎢": 923,
      "⎣": 924,
      "⎤": 925,
      "⎥": 926,
      "⎦": 927,
      "⎬": 928,
      "⎮": 929,
      "⎲": 930,
      "⎳": 931,
      "⎺": 932,
      "⎾": 933,
      "⏋": 934,
      "⏎": 935,
      "⏤": 936,
      "⏬": 937,
      "⏭": 938,
      "⏰": 939,
      "⏱": 940,
      "⏲": 941,
      "⏳": 942,
      "⏸": 943,
      "␀": 944,
      "␛": 945,
      "␟": 946,
      "␡": 947,
      "①": 948,
      "②": 949,
      "⒈": 950,
      "⒉": 951,
      "ⓐ": 952,
      "ⓒ": 953,
      "ⓓ": 954,
      "ⓔ": 955,
      "ⓘ": 956,
      "ⓛ": 957,
      "ⓝ": 958,
      "ⓞ": 959,
      "ⓡ": 960,
      "ⓧ": 961,
      "─": 962,
      "━": 963,
      "│": 964,
      "┃": 965,
      "┄": 966,
      "┆": 967,
      "┈": 968,
      "┊": 969,
      "┌": 970,
      "┍": 971,
      "┏": 972,
      "┐": 973,
      "┒": 974,
      "┓": 975,
      "└": 976,
      "┕": 977,
      "┖": 978,
      "┗": 979,
      "┘": 980,
      "┛": 981,
      "├": 982,
      "┝": 983,
      "┞": 984,
      "┟": 985,
      "┠": 986,
      "┣": 987,
      "┤": 988,
      "┦": 989,
      "┧": 990,
      "┨": 991,
      "┫": 992,
      "┬": 993,
      "┭": 994,
      "┯": 995,
      "┰": 996,
      "┲": 997,
      "┳": 998,
      "┴": 999,
      "┶": 1000,
      "┷": 1001,
      "┹": 1002,
      "┺": 1003,
      "┻": 1004,
      "┼": 1005,
      "╅": 1006,
      "╋": 1007,
      "╌": 1008,
      "╏": 1009,
      "═": 1010,
      "║": 1011,
      "╒": 1012,
      "╓": 1013,
      "╔": 1014,
      "╕": 1015,
      "╖": 1016,
      "╗": 1017,
      "╘": 1018,
      "╙": 1019,
      "╚": 1020,
      "╛": 1021,
      "╜": 1022,
      "╝": 1023,
      "╞": 1024,
      "╟": 1025,
      "╠": 1026,
      "╡": 1027,
      "╢": 1028,
      "╣": 1029,
      "╤": 1030,
      "╥": 1031,
      "╦": 1032,
      "╧": 1033,
      "╨": 1034,
      "╩": 1035,
      "╪": 1036,
      "╫": 1037,
      "╬": 1038,
      "╭": 1039,
      "╮": 1040,
      "╯": 1041,
      "╰": 1042,
      "╳": 1043,
      "╴": 1044,
      "╵": 1045,
      "╶": 1046,
      "╷": 1047,
      "╼": 1048,
      "▀": 1049,
      "▁": 1050,
      "▂": 1051,
      "▃": 1052,
      "▄": 1053,
      "▅": 1054,
      "▆": 1055,
      "▇": 1056,
      "█": 1057,
      "▉": 1058,
      "▊": 1059,
      "▋": 1060,
      "▌": 1061,
      "▍": 1062,
      "▎": 1063,
      "▏": 1064,
      "▐": 1065,
      "░": 1066,
      "▒": 1067,
      "▓": 1068,
      "▕": 1069,
      "▖": 1070,
      "▗": 1071,
      "▘": 1072,
      "▙": 1073,
      "▚": 1074,
      "▛": 1075,
      "▜": 1076,
      "▝": 1077,
      "▞": 1078,
      "▟": 1079,
      "■": 1080,
      "□": 1081,
      "▥": 1082,
      "▩": 1083,
      "▪": 1084,
      "▬": 1085,
      "▮": 1086,
      "▯": 1087,
      "▰": 1088,
      "▱": 1089,
      "▲": 1090,
      "△": 1091,
      "▴": 1092,
      "▶": 1093,
      "▷": 1094,
      "▸": 1095,
      "▹": 1096,
      "►": 1097,
      "▼": 1098,
      "▽": 1099,
      "▾": 1100,
      "◀": 1101,
      "◁": 1102,
      "◄": 1103,
      "◆": 1104,
      "◇": 1105,
      "◉": 1106,
      "◊": 1107,
      "○": 1108,
      "◌": 1109,
      "◎": 1110,
      "●": 1111,
      "◑": 1112,
      "◓": 1113,
      "◔": 1114,
      "◕": 1115,
      "◘": 1116,
      "◙": 1117,
      "◛": 1118,
      "◞": 1119,
      "◟": 1120,
      "◡": 1121,
      "◨": 1122,
      "◪": 1123,
      "◫": 1124,
      "◭": 1125,
      "◯": 1126,
      "◱": 1127,
      "◳": 1128,
      "◶": 1129,
      "◷": 1130,
      "◻": 1131,
      "◼": 1132,
      "◽": 1133,
      "◾": 1134,
      "☀": 1135,
      "☁": 1136,
      "☃": 1137,
      "☄": 1138,
      "★": 1139,
      "☆": 1140,
      "☐": 1141,
      "☑": 1142,
      "☒": 1143,
      "☓": 1144,
      "☔": 1145,
      "☕": 1146,
      "☘": 1147,
      "☝": 1148,
      "☞": 1149,
      "☠": 1150,
      "☢": 1151,
      "☣": 1152,
      "☮": 1153,
      "☰": 1154,
      "☸": 1155,
      "☺": 1156,
      "☻": 1157,
      "☼": 1158,
      "☿": 1159,
      "♀": 1160,
      "♂": 1161,
      "♐": 1162,
      "♔": 1163,
      "♕": 1164,
      "♖": 1165,
      "♗": 1166,
      "♘": 1167,
      "♙": 1168,
      "♚": 1169,
      "♛": 1170,
      "♜": 1171,
      "♝": 1172,
      "♞": 1173,
      "♟": 1174,
      "♠": 1175,
      "♡": 1176,
      "♢": 1177,
      "♣": 1178,
      "♤": 1179,
      "♥": 1180,
      "♦": 1181,
      "♧": 1182,
      "♨": 1183,
      "♪": 1184,
      "♫": 1185,
      "♭": 1186,
      "♻": 1187,
      "♾": 1188,
      "⚐": 1189,
      "⚒": 1190,
      "⚓": 1191,
      "⚔": 1192,
      "⚖": 1193,
      "⚗": 1194,
      "⚙": 1195,
      "⚛": 1196,
      "⚠": 1197,
      "⚡": 1198,
      "⚧": 1199,
      "⚫": 1200,
      "⚰": 1201,
      "⚱": 1202,
      "⚾": 1203,
      "⛅": 1204,
      "⛈": 1205,
      "⛏": 1206,
      "⛑": 1207,
      "⛓": 1208,
      "⛔": 1209,
      "⛭": 1210,
      "⛮": 1211,
      "⛰": 1212,
      "⛴": 1213,
      "⛵": 1214,
      "⛽": 1215,
      "✂": 1216,
      "✅": 1217,
      "✈": 1218,
      "✋": 1219,
      "✌": 1220,
      "✍": 1221,
      "✏": 1222,
      "✓": 1223,
      "✔": 1224,
      "✕": 1225,
      "✖": 1226,
      "✗": 1227,
      "✘": 1228,
      "✚": 1229,
      "✝": 1230,
      "✧": 1231,
      "✨": 1232,
      "✳": 1233,
      "✴": 1234,
      "❄": 1235,
      "❇": 1236,
      "❌": 1237,
      "❍": 1238,
      "❎": 1239,
      "❓": 1240,
      "❔": 1241,
      "❕": 1242,
      "❗": 1243,
      "❘": 1244,
      "❤": 1245,
      "❮": 1246,
      "❯": 1247,
      "❲": 1248,
      "❳": 1249,
      "➔": 1250,
      "➕": 1251,
      "➖": 1252,
      "➜": 1253,
      "➡": 1254,
      "➤": 1255,
      "⟦": 1256,
      "⟧": 1257,
      "⟨": 1258,
      "⟩": 1259,
      "⟪": 1260,
      "⟫": 1261,
      "⟲": 1262,
      "⟳": 1263,
      "⟵": 1264,
      "⟶": 1265,
      "⟷": 1266,
      "⟺": 1267,
      "⠀": 1268,
      "⠁": 1269,
      "⠂": 1270,
      "⠃": 1271,
      "⠄": 1272,
      "⠅": 1273,
      "⠆": 1274,
      "⠇": 1275,
      "⠈": 1276,
      "⠉": 1277,
      "⠊": 1278,
      "⠋": 1279,
      "⠍": 1280,
      "⠎": 1281,
      "⠏": 1282,
      "⠐": 1283,
      "⠑": 1284,
      "⠒": 1285,
      "⠓": 1286,
      "⠔": 1287,
      "⠕": 1288,
      "⠖": 1289,
      "⠗": 1290,
      "⠘": 1291,
      "⠙": 1292,
      "⠚": 1293,
      "⠛": 1294,
      "⠜": 1295,
      "⠝": 1296,
      "⠞": 1297,
      "⠟": 1298,
      "⠠": 1299,
      "⠡": 1300,
      "⠢": 1301,
      "⠣": 1302,
      "⠤": 1303,
      "⠥": 1304,
      "⠦": 1305,
      "⠧": 1306,
      "⠨": 1307,
      "⠩": 1308,
      "⠪": 1309,
      "⠫": 1310,
      "⠭": 1311,
      "⠮": 1312,
      "⠯": 1313,
      "⠰": 1314,
      "⠱": 1315,
      "⠲": 1316,
      "⠳": 1317,
      "⠴": 1318,
      "⠵": 1319,
      "⠶": 1320,
      "⠷": 1321,
      "⠸": 1322,
      "⠹": 1323,
      "⠺": 1324,
      "⠻": 1325,
      "⠼": 1326,
      "⠽": 1327,
      "⠿": 1328,
      "⡀": 1329,
      "⡁": 1330,
      "⡂": 1331,
      "⡃": 1332,
      "⡄": 1333,
      "⡅": 1334,
      "⡆": 1335,
      "⡇": 1336,
      "⡈": 1337,
      "⡋": 1338,
      "⡌": 1339,
      "⡍": 1340,
      "⡎": 1341,
      "⡏": 1342,
      "⡑": 1343,
      "⡒": 1344,
      "⡔": 1345,
      "⡕": 1346,
      "⡙": 1347,
      "⡛": 1348,
      "⡜": 1349,
      "⡝": 1350,
      "⡞": 1351,
      "⡟": 1352,
      "⡠": 1353,
      "⡡": 1354,
      "⡢": 1355,
      "⡣": 1356,
      "⡤": 1357,
      "⡥": 1358,
      "⡦": 1359,
      "⡪": 1360,
      "⡫": 1361,
      "⡬": 1362,
      "⡮": 1363,
      "⡯": 1364,
      "⡰": 1365,
      "⡱": 1366,
      "⡲": 1367,
      "⡳": 1368,
      "⡴": 1369,
      "⡵": 1370,
      "⡶": 1371,
      "⡷": 1372,
      "⡸": 1373,
      "⡹": 1374,
      "⡺": 1375,
      "⡻": 1376,
      "⡼": 1377,
      "⡽": 1378,
      "⡾": 1379,
      "⡿": 1380,
      "⢀": 1381,
      "⢁": 1382,
      "⢂": 1383,
      "⢃": 1384,
      "⢄": 1385,
      "⢆": 1386,
      "⢇": 1387,
      "⢈": 1388,
      "⢊": 1389,
      "⢋": 1390,
      "⢌": 1391,
      "⢍": 1392,
      "⢎": 1393,
      "⢏": 1394,
      "⢑": 1395,
      "⢒": 1396,
      "⢓": 1397,
      "⢕": 1398,
      "⢗": 1399,
      "⢘": 1400,
      "⢙": 1401,
      "⢚": 1402,
      "⢛": 1403,
      "⢜": 1404,
      "⢝": 1405,
      "⢞": 1406,
      "⢟": 1407,
      "⢠": 1408,
      "⢡": 1409,
      "⢢": 1410,
      "⢣": 1411,
      "⢤": 1412,
      "⢥": 1413,
      "⢦": 1414,
      "⢧": 1415,
      "⢪": 1416,
      "⢫": 1417,
      "⢬": 1418,
      "⢮": 1419,
      "⢯": 1420,
      "⢰": 1421,
      "⢱": 1422,
      "⢲": 1423,
      "⢳": 1424,
      "⢴": 1425,
      "⢵": 1426,
      "⢶": 1427,
      "⢷": 1428,
      "⢸": 1429,
      "⢹": 1430,
      "⢺": 1431,
      "⢻": 1432,
      "⢼": 1433,
      "⢽": 1434,
      "⢾": 1435,
      "⢿": 1436,
      "⣀": 1437,
      "⣁": 1438,
      "⣂": 1439,
      "⣄": 1440,
      "⣅": 1441,
      "⣆": 1442,
      "⣇": 1443,
      "⣈": 1444,
      "⣉": 1445,
      "⣊": 1446,
      "⣋": 1447,
      "⣌": 1448,
      "⣍": 1449,
      "⣎": 1450,
      "⣏": 1451,
      "⣒": 1452,
      "⣓": 1453,
      "⣖": 1454,
      "⣗": 1455,
      "⣘": 1456,
      "⣛": 1457,
      "⣜": 1458,
      "⣝": 1459,
      "⣞": 1460,
      "⣟": 1461,
      "⣠": 1462,
      "⣡": 1463,
      "⣣": 1464,
      "⣤": 1465,
      "⣥": 1466,
      "⣦": 1467,
      "⣧": 1468,
      "⣨": 1469,
      "⣪": 1470,
      "⣫": 1471,
      "⣬": 1472,
      "⣭": 1473,
      "⣮": 1474,
      "⣯": 1475,
      "⣰": 1476,
      "⣲": 1477,
      "⣳": 1478,
      "⣴": 1479,
      "⣵": 1480,
      "⣶": 1481,
      "⣷": 1482,
      "⣸": 1483,
      "⣹": 1484,
      "⣺": 1485,
      "⣻": 1486,
      "⣼": 1487,
      "⣽": 1488,
      "⣾": 1489,
      "⣿": 1490,
      "⤬": 1491,
      "⤵": 1492,
      "⤷": 1493,
      "⥪": 1494,
      "⥭": 1495,
      "⦑": 1496,
      "⦒": 1497,
      "⦿": 1498,
      "⧉": 1499,
      "⧼": 1500,
      "⧽": 1501,
      "⨉": 1502,
      "⬀": 1503,
      "⬁": 1504,
      "⬄": 1505,
      "⬅": 1506,
      "⬆": 1507,
      "⬇": 1508,
      "⬛": 1509,
      "⬜": 1510,
      "⬢": 1511,
      "⬤": 1512,
      "⭐": 1513,
      "⭕": 1514,
      "⭠": 1515,
      "⭢": 1516,
      "⭾": 1517,
      "⮀": 1518,
      "⮕": 1519,
      "⮡": 1520,
      "ⱼ": 1521,
      "ⴋ": 1522,
      "ⴌ": 1523,
      "ⴍ": 1524,
      "ⴏ": 1525,
      "ⴕ": 1526,
      "ⴘ": 1527,
      "ⴝ": 1528,
      "ⴡ": 1529,
      "ⴷ": 1530,
      "ⴺ": 1531,
      "ⴼ": 1532,
      "ⵃ": 1533,
      "ⵊ": 1534,
      "ⵍ": 1535,
      "ⵎ": 1536,
      "ⵖ": 1537,
      "ⵙ": 1538,
      "ⵜ": 1539,
      "ⵝ": 1540,
      "ⵡ": 1541,
      "⸌": 1542,
      "⸍": 1543,
      "⸗": 1544,
      "⸚": 1545,
      "⸜": 1546,
      "⸝": 1547,
      "⸰": 1548,
      "⸺": 1549,
      "⸻": 1550,
      "⹀": 1551,
      "⹂": 1552,
      "、": 1553,
      "。": 1554,
      "々": 1555,
      "〇": 1556,
      "〈": 1557,
      "〉": 1558,
      "《": 1559,
      "》": 1560,
      "「": 1561,
      "」": 1562,
      "『": 1563,
      "』": 1564,
      "【": 1565,
      "】": 1566,
      "〚": 1567,
      "〛": 1568,
      "〜": 1569,
      "〝": 1570,
      "〟": 1571,
      "〰": 1572,
      "〵": 1573,
      "〽": 1574,
      "ぁ": 1575,
      "あ": 1576,
      "い": 1577,
      "う": 1578,
      "え": 1579,
      "お": 1580,
      "か": 1581,
      "き": 1582,
      "く": 1583,
      "け": 1584,
      "こ": 1585,
      "さ": 1586,
      "し": 1587,
      "す": 1588,
      "せ": 1589,
      "そ": 1590,
      "た": 1591,
      "ち": 1592,
      "っ": 1593,
      "つ": 1594,
      "て": 1595,
      "と": 1596,
      "な": 1597,
      "に": 1598,
      "ぬ": 1599,
      "ね": 1600,
      "の": 1601,
      "は": 1602,
      "ひ": 1603,
      "ふ": 1604,
      "へ": 1605,
      "ほ": 1606,
      "ま": 1607,
      "み": 1608,
      "む": 1609,
      "め": 1610,
      "も": 1611,
      "ゃ": 1612,
      "や": 1613,
      "ゅ": 1614,
      "ゆ": 1615,
      "ょ": 1616,
      "よ": 1617,
      "ら": 1618,
      "り": 1619,
      "る": 1620,
      "れ": 1621,
      "ろ": 1622,
      "わ": 1623,
      "ゐ": 1624,
      "ゑ": 1625,
      "を": 1626,
      "ん": 1627,
      "゛": 1628,
      "゜": 1629,
      "゠": 1630,
      "ァ": 1631,
      "ア": 1632,
      "ィ": 1633,
      "イ": 1634,
      "ゥ": 1635,
      "ウ": 1636,
      "ェ": 1637,
      "エ": 1638,
      "ォ": 1639,
      "オ": 1640,
      "カ": 1641,
      "キ": 1642,
      "ク": 1643,
      "ケ": 1644,
      "コ": 1645,
      "サ": 1646,
      "シ": 1647,
      "ス": 1648,
      "セ": 1649,
      "ソ": 1650,
      "タ": 1651,
      "チ": 1652,
      "ッ": 1653,
      "ツ": 1654,
      "テ": 1655,
      "ト": 1656,
      "ナ": 1657,
      "ニ": 1658,
      "ヌ": 1659,
      "ネ": 1660,
      "ノ": 1661,
      "ハ": 1662,
      "ヒ": 1663,
      "フ": 1664,
      "ヘ": 1665,
      "ホ": 1666,
      "マ": 1667,
      "ミ": 1668,
      "ム": 1669,
      "メ": 1670,
      "モ": 1671,
      "ャ": 1672,
      "ヤ": 1673,
      "ュ": 1674,
      "ユ": 1675,
      "ョ": 1676,
      "ヨ": 1677,
      "ラ": 1678,
      "リ": 1679,
      "ル": 1680,
      "レ": 1681,
      "ロ": 1682,
      "ヮ": 1683,
      "ワ": 1684,
      "ヲ": 1685,
      "ン": 1686,
      "ヶ": 1687,
      "・": 1688,
      "ー": 1689,
      "ヽ": 1690,
      "ㄱ": 1691,
      "ㄴ": 1692,
      "ㄷ": 1693,
      "ㄹ": 1694,
      "ㅂ": 1695,
      "ㅅ": 1696,
      "ㅇ": 1697,
      "ㅊ": 1698,
      "ㅋ": 1699,
      "ㅌ": 1700,
      "ㅍ": 1701,
      "ㅏ": 1702,
      "ㅓ": 1703,
      "ㅗ": 1704,
      "ㅤ": 1705,
      "㋡": 1706,
      "㌀": 1707,
      "㌐": 1708,
      "㌔": 1709,
      "㌢": 1710,
      "㌥": 1711,
      "㌨": 1712,
      "㌰": 1713,
      "㍃": 1714,
      "㍉": 1715,
      "㍋": 1716,
      "㎐": 1717,
      "㎞": 1718,
      "㎨": 1719,
      "㐿": 1720,
      "㑈": 1721,
      "㓱": 1722,
      "㕃": 1723,
      "㕫": 1724,
      "㯿": 1725,
      "㰪": 1726,
      "㷶": 1727,
      "㸿": 1728,
      "㹨": 1729,
      "㹼": 1730,
      "㽃": 1731,
      "䖏": 1732,
      "䩲": 1733,
      "䷯": 1734,
      "一": 1735,
      "丁": 1736,
      "七": 1737,
      "万": 1738,
      "三": 1739,
      "上": 1740,
      "下": 1741,
      "不": 1742,
      "与": 1743,
      "丑": 1744,
      "专": 1745,
      "且": 1746,
      "世": 1747,
      "业": 1748,
      "东": 1749,
      "丝": 1750,
      "両": 1751,
      "丢": 1752,
      "两": 1753,
      "严": 1754,
      "並": 1755,
      "个": 1756,
      "中": 1757,
      "丰": 1758,
      "串": 1759,
      "临": 1760,
      "丸": 1761,
      "丹": 1762,
      "为": 1763,
      "主": 1764,
      "举": 1765,
      "乃": 1766,
      "久": 1767,
      "乇": 1768,
      "么": 1769,
      "义": 1770,
      "之": 1771,
      "乎": 1772,
      "乏": 1773,
      "乐": 1774,
      "乗": 1775,
      "乘": 1776,
      "九": 1777,
      "也": 1778,
      "习": 1779,
      "书": 1780,
      "买": 1781,
      "乱": 1782,
      "乳": 1783,
      "乾": 1784,
      "了": 1785,
      "予": 1786,
      "争": 1787,
      "事": 1788,
      "二": 1789,
      "于": 1790,
      "云": 1791,
      "互": 1792,
      "五": 1793,
      "井": 1794,
      "亚": 1795,
      "些": 1796,
      "亞": 1797,
      "亡": 1798,
      "交": 1799,
      "亦": 1800,
      "产": 1801,
      "享": 1802,
      "京": 1803,
      "亮": 1804,
      "亰": 1805,
      "人": 1806,
      "亿": 1807,
      "什": 1808,
      "仁": 1809,
      "仂": 1810,
      "仅": 1811,
      "今": 1812,
      "介": 1813,
      "仍": 1814,
      "从": 1815,
      "仏": 1816,
      "仓": 1817,
      "仔": 1818,
      "仕": 1819,
      "他": 1820,
      "付": 1821,
      "代": 1822,
      "令": 1823,
      "以": 1824,
      "仪": 1825,
      "们": 1826,
      "仮": 1827,
      "仰": 1828,
      "仲": 1829,
      "件": 1830,
      "价": 1831,
      "任": 1832,
      "份": 1833,
      "仿": 1834,
      "企": 1835,
      "伊": 1836,
      "伍": 1837,
      "伏": 1838,
      "休": 1839,
      "众": 1840,
      "优": 1841,
      "伙": 1842,
      "会": 1843,
      "伝": 1844,
      "传": 1845,
      "伤": 1846,
      "伪": 1847,
      "伯": 1848,
      "估": 1849,
      "伴": 1850,
      "伺": 1851,
      "似": 1852,
      "伽": 1853,
      "但": 1854,
      "佈": 1855,
      "位": 1856,
      "低": 1857,
      "住": 1858,
      "佐": 1859,
      "体": 1860,
      "何": 1861,
      "余": 1862,
      "佛": 1863,
      "作": 1864,
      "你": 1865,
      "佣": 1866,
      "佬": 1867,
      "佰": 1868,
      "佳": 1869,
      "併": 1870,
      "使": 1871,
      "侄": 1872,
      "來": 1873,
      "例": 1874,
      "供": 1875,
      "依": 1876,
      "侠": 1877,
      "価": 1878,
      "侣": 1879,
      "侧": 1880,
      "侵": 1881,
      "便": 1882,
      "係": 1883,
      "促": 1884,
      "俄": 1885,
      "俑": 1886,
      "保": 1887,
      "信": 1888,
      "俩": 1889,
      "修": 1890,
      "俱": 1891,
      "俳": 1892,
      "俵": 1893,
      "倉": 1894,
      "個": 1895,
      "倍": 1896,
      "們": 1897,
      "倒": 1898,
      "候": 1899,
      "借": 1900,
      "値": 1901,
      "债": 1902,
      "值": 1903,
      "倾": 1904,
      "假": 1905,
      "偏": 1906,
      "做": 1907,
      "停": 1908,
      "健": 1909,
      "側": 1910,
      "偶": 1911,
      "偷": 1912,
      "備": 1913,
      "傣": 1914,
      "储": 1915,
      "傳": 1916,
      "傷": 1917,
      "傻": 1918,
      "僅": 1919,
      "働": 1920,
      "像": 1921,
      "僕": 1922,
      "僧": 1923,
      "儀": 1924,
      "億": 1925,
      "儒": 1926,
      "優": 1927,
      "儿": 1928,
      "允": 1929,
      "元": 1930,
      "兄": 1931,
      "充": 1932,
      "兆": 1933,
      "先": 1934,
      "光": 1935,
      "克": 1936,
      "免": 1937,
      "児": 1938,
      "兑": 1939,
      "兔": 1940,
      "党": 1941,
      "兜": 1942,
      "入": 1943,
      "全": 1944,
      "兩": 1945,
      "八": 1946,
      "公": 1947,
      "六": 1948,
      "兰": 1949,
      "共": 1950,
      "关": 1951,
      "兴": 1952,
      "兵": 1953,
      "其": 1954,
      "具": 1955,
      "典": 1956,
      "兼": 1957,
      "兽": 1958,
      "内": 1959,
      "円": 1960,
      "冇": 1961,
      "冊": 1962,
      "册": 1963,
      "再": 1964,
      "冗": 1965,
      "写": 1966,
      "军": 1967,
      "农": 1968,
      "冠": 1969,
      "冥": 1970,
      "冪": 1971,
      "冬": 1972,
      "冲": 1973,
      "决": 1974,
      "况": 1975,
      "冷": 1976,
      "冻": 1977,
      "净": 1978,
      "准": 1979,
      "凉": 1980,
      "凌": 1981,
      "凍": 1982,
      "减": 1983,
      "凑": 1984,
      "凝": 1985,
      "几": 1986,
      "凤": 1987,
      "処": 1988,
      "凭": 1989,
      "凯": 1990,
      "凸": 1991,
      "出": 1992,
      "击": 1993,
      "函": 1994,
      "刀": 1995,
      "分": 1996,
      "切": 1997,
      "刊": 1998,
      "划": 1999,
      "列": 2000,
      "刘": 2001,
      "则": 2002,
      "刚": 2003,
      "创": 2004,
      "初": 2005,
      "删": 2006,
      "判": 2007,
      "別": 2008,
      "利": 2009,
      "别": 2010,
      "到": 2011,
      "制": 2012,
      "刷": 2013,
      "券": 2014,
      "刺": 2015,
      "刻": 2016,
      "則": 2017,
      "削": 2018,
      "前": 2019,
      "剔": 2020,
      "剥": 2021,
      "剧": 2022,
      "剩": 2023,
      "剪": 2024,
      "副": 2025,
      "割": 2026,
      "創": 2027,
      "劃": 2028,
      "劇": 2029,
      "劍": 2030,
      "力": 2031,
      "办": 2032,
      "功": 2033,
      "加": 2034,
      "务": 2035,
      "劣": 2036,
      "动": 2037,
      "助": 2038,
      "努": 2039,
      "劫": 2040,
      "励": 2041,
      "劲": 2042,
      "劳": 2043,
      "労": 2044,
      "効": 2045,
      "势": 2046,
      "勇": 2047,
      "勉": 2048,
      "勋": 2049,
      "勒": 2050,
      "動": 2051,
      "勘": 2052,
      "務": 2053,
      "勝": 2054,
      "勢": 2055,
      "勤": 2056,
      "勧": 2057,
      "勾": 2058,
      "勿": 2059,
      "包": 2060,
      "匕": 2061,
      "化": 2062,
      "北": 2063,
      "匹": 2064,
      "区": 2065,
      "医": 2066,
      "匿": 2067,
      "區": 2068,
      "十": 2069,
      "千": 2070,
      "升": 2071,
      "午": 2072,
      "半": 2073,
      "华": 2074,
      "协": 2075,
      "卒": 2076,
      "卓": 2077,
      "協": 2078,
      "单": 2079,
      "卖": 2080,
      "南": 2081,
      "単": 2082,
      "博": 2083,
      "占": 2084,
      "卡": 2085,
      "卢": 2086,
      "卦": 2087,
      "卫": 2088,
      "印": 2089,
      "危": 2090,
      "即": 2091,
      "却": 2092,
      "卵": 2093,
      "卷": 2094,
      "厂": 2095,
      "历": 2096,
      "厉": 2097,
      "压": 2098,
      "厘": 2099,
      "厚": 2100,
      "原": 2101,
      "厦": 2102,
      "厳": 2103,
      "去": 2104,
      "叁": 2105,
      "参": 2106,
      "參": 2107,
      "叄": 2108,
      "又": 2109,
      "叉": 2110,
      "及": 2111,
      "友": 2112,
      "双": 2113,
      "反": 2114,
      "収": 2115,
      "发": 2116,
      "叔": 2117,
      "取": 2118,
      "受": 2119,
      "变": 2120,
      "叙": 2121,
      "叛": 2122,
      "叠": 2123,
      "口": 2124,
      "古": 2125,
      "句": 2126,
      "另": 2127,
      "叩": 2128,
      "只": 2129,
      "叫": 2130,
      "召": 2131,
      "可": 2132,
      "台": 2133,
      "史": 2134,
      "右": 2135,
      "号": 2136,
      "司": 2137,
      "叻": 2138,
      "吁": 2139,
      "吃": 2140,
      "各": 2141,
      "合": 2142,
      "吉": 2143,
      "同": 2144,
      "名": 2145,
      "后": 2146,
      "吐": 2147,
      "向": 2148,
      "吖": 2149,
      "吗": 2150,
      "君": 2151,
      "吞": 2152,
      "否": 2153,
      "吧": 2154,
      "含": 2155,
      "听": 2156,
      "启": 2157,
      "吴": 2158,
      "吶": 2159,
      "吸": 2160,
      "吹": 2161,
      "吼": 2162,
      "吽": 2163,
      "吾": 2164,
      "呂": 2165,
      "呆": 2166,
      "呈": 2167,
      "告": 2168,
      "呋": 2169,
      "呐": 2170,
      "呗": 2171,
      "员": 2172,
      "呢": 2173,
      "呦": 2174,
      "周": 2175,
      "呱": 2176,
      "味": 2177,
      "呵": 2178,
      "呼": 2179,
      "命": 2180,
      "和": 2181,
      "咒": 2182,
      "咔": 2183,
      "咕": 2184,
      "咖": 2185,
      "咤": 2186,
      "咨": 2187,
      "咪": 2188,
      "咬": 2189,
      "咯": 2190,
      "咲": 2191,
      "品": 2192,
      "哆": 2193,
      "哇": 2194,
      "哈": 2195,
      "响": 2196,
      "哔": 2197,
      "哞": 2198,
      "員": 2199,
      "哥": 2200,
      "哦": 2201,
      "哩": 2202,
      "哪": 2203,
      "哮": 2204,
      "哲": 2205,
      "唐": 2206,
      "唔": 2207,
      "唤": 2208,
      "唬": 2209,
      "售": 2210,
      "唯": 2211,
      "唱": 2212,
      "商": 2213,
      "啊": 2214,
      "問": 2215,
      "啟": 2216,
      "啡": 2217,
      "啥": 2218,
      "啦": 2219,
      "啰": 2220,
      "啽": 2221,
      "喀": 2222,
      "喂": 2223,
      "喃": 2224,
      "善": 2225,
      "喜": 2226,
      "喝": 2227,
      "喬": 2228,
      "單": 2229,
      "営": 2230,
      "喼": 2231,
      "喽": 2232,
      "嗄": 2233,
      "嗅": 2234,
      "嗎": 2235,
      "嗒": 2236,
      "嗚": 2237,
      "嗡": 2238,
      "嗥": 2239,
      "嗯": 2240,
      "嗷": 2241,
      "嘅": 2242,
      "嘇": 2243,
      "嘍": 2244,
      "嘚": 2245,
      "嘶": 2246,
      "嘿": 2247,
      "噌": 2248,
      "噔": 2249,
      "噗": 2250,
      "噢": 2251,
      "噤": 2252,
      "器": 2253,
      "嚁": 2254,
      "嚄": 2255,
      "嚓": 2256,
      "嚤": 2257,
      "嚩": 2258,
      "嚴": 2259,
      "囉": 2260,
      "囊": 2261,
      "囑": 2262,
      "四": 2263,
      "回": 2264,
      "因": 2265,
      "团": 2266,
      "団": 2267,
      "园": 2268,
      "困": 2269,
      "囲": 2270,
      "図": 2271,
      "围": 2272,
      "固": 2273,
      "国": 2274,
      "图": 2275,
      "圆": 2276,
      "圈": 2277,
      "國": 2278,
      "圏": 2279,
      "園": 2280,
      "圖": 2281,
      "團": 2282,
      "土": 2283,
      "圣": 2284,
      "圧": 2285,
      "在": 2286,
      "地": 2287,
      "圳": 2288,
      "场": 2289,
      "圾": 2290,
      "址": 2291,
      "坂": 2292,
      "均": 2293,
      "坊": 2294,
      "坏": 2295,
      "坐": 2296,
      "坑": 2297,
      "块": 2298,
      "坚": 2299,
      "坡": 2300,
      "坤": 2301,
      "坦": 2302,
      "垂": 2303,
      "垃": 2304,
      "垄": 2305,
      "型": 2306,
      "垓": 2307,
      "埃": 2308,
      "埋": 2309,
      "城": 2310,
      "域": 2311,
      "執": 2312,
      "基": 2313,
      "埼": 2314,
      "堂": 2315,
      "堅": 2316,
      "堆": 2317,
      "報": 2318,
      "場": 2319,
      "堵": 2320,
      "塑": 2321,
      "塔": 2322,
      "塞": 2323,
      "塩": 2324,
      "填": 2325,
      "境": 2326,
      "墓": 2327,
      "増": 2328,
      "墙": 2329,
      "增": 2330,
      "墨": 2331,
      "壤": 2332,
      "士": 2333,
      "壮": 2334,
      "声": 2335,
      "売": 2336,
      "壹": 2337,
      "处": 2338,
      "备": 2339,
      "変": 2340,
      "复": 2341,
      "夏": 2342,
      "夕": 2343,
      "外": 2344,
      "多": 2345,
      "夜": 2346,
      "够": 2347,
      "夢": 2348,
      "大": 2349,
      "天": 2350,
      "太": 2351,
      "夫": 2352,
      "央": 2353,
      "失": 2354,
      "头": 2355,
      "夷": 2356,
      "夹": 2357,
      "夺": 2358,
      "奇": 2359,
      "奈": 2360,
      "奉": 2361,
      "奏": 2362,
      "契": 2363,
      "奔": 2364,
      "套": 2365,
      "奢": 2366,
      "奥": 2367,
      "奧": 2368,
      "奨": 2369,
      "奮": 2370,
      "女": 2371,
      "奴": 2372,
      "奶": 2373,
      "她": 2374,
      "好": 2375,
      "如": 2376,
      "妈": 2377,
      "妙": 2378,
      "妥": 2379,
      "妨": 2380,
      "妮": 2381,
      "妹": 2382,
      "妻": 2383,
      "姆": 2384,
      "姉": 2385,
      "始": 2386,
      "姓": 2387,
      "委": 2388,
      "姪": 2389,
      "姫": 2390,
      "姬": 2391,
      "姿": 2392,
      "威": 2393,
      "娃": 2394,
      "娅": 2395,
      "娑": 2396,
      "娘": 2397,
      "娲": 2398,
      "娴": 2399,
      "婆": 2400,
      "婉": 2401,
      "婦": 2402,
      "婪": 2403,
      "婷": 2404,
      "媒": 2405,
      "嫩": 2406,
      "子": 2407,
      "孕": 2408,
      "字": 2409,
      "存": 2410,
      "孙": 2411,
      "孝": 2412,
      "孟": 2413,
      "季": 2414,
      "孤": 2415,
      "学": 2416,
      "孪": 2417,
      "孫": 2418,
      "學": 2419,
      "宁": 2420,
      "它": 2421,
      "宅": 2422,
      "宇": 2423,
      "守": 2424,
      "安": 2425,
      "完": 2426,
      "宏": 2427,
      "宕": 2428,
      "宗": 2429,
      "官": 2430,
      "宙": 2431,
      "定": 2432,
      "宝": 2433,
      "实": 2434,
      "実": 2435,
      "审": 2436,
      "客": 2437,
      "宣": 2438,
      "室": 2439,
      "宪": 2440,
      "宮": 2441,
      "害": 2442,
      "家": 2443,
      "容": 2444,
      "宽": 2445,
      "宾": 2446,
      "宿": 2447,
      "寂": 2448,
      "寄": 2449,
      "密": 2450,
      "寇": 2451,
      "富": 2452,
      "寒": 2453,
      "察": 2454,
      "寡": 2455,
      "實": 2456,
      "寨": 2457,
      "寫": 2458,
      "寶": 2459,
      "寸": 2460,
      "对": 2461,
      "寺": 2462,
      "寻": 2463,
      "导": 2464,
      "対": 2465,
      "寿": 2466,
      "封": 2467,
      "専": 2468,
      "射": 2469,
      "将": 2470,
      "尊": 2471,
      "尋": 2472,
      "對": 2473,
      "導": 2474,
      "小": 2475,
      "少": 2476,
      "尔": 2477,
      "尖": 2478,
      "尚": 2479,
      "尝": 2480,
      "尤": 2481,
      "就": 2482,
      "尺": 2483,
      "尼": 2484,
      "尽": 2485,
      "尾": 2486,
      "局": 2487,
      "层": 2488,
      "居": 2489,
      "届": 2490,
      "屋": 2491,
      "屏": 2492,
      "展": 2493,
      "属": 2494,
      "層": 2495,
      "履": 2496,
      "山": 2497,
      "岁": 2498,
      "岐": 2499,
      "岗": 2500,
      "岛": 2501,
      "岡": 2502,
      "岩": 2503,
      "岳": 2504,
      "岸": 2505,
      "峨": 2506,
      "峰": 2507,
      "島": 2508,
      "崩": 2509,
      "嵌": 2510,
      "嶽": 2511,
      "川": 2512,
      "州": 2513,
      "巣": 2514,
      "工": 2515,
      "左": 2516,
      "巧": 2517,
      "巨": 2518,
      "巫": 2519,
      "差": 2520,
      "己": 2521,
      "已": 2522,
      "巴": 2523,
      "巻": 2524,
      "巽": 2525,
      "币": 2526,
      "市": 2527,
      "布": 2528,
      "师": 2529,
      "希": 2530,
      "帐": 2531,
      "帕": 2532,
      "帘": 2533,
      "帝": 2534,
      "带": 2535,
      "帧": 2536,
      "師": 2537,
      "席": 2538,
      "帮": 2539,
      "帯": 2540,
      "帰": 2541,
      "帳": 2542,
      "帶": 2543,
      "常": 2544,
      "幂": 2545,
      "幅": 2546,
      "幌": 2547,
      "幕": 2548,
      "干": 2549,
      "平": 2550,
      "年": 2551,
      "并": 2552,
      "幸": 2553,
      "幹": 2554,
      "幻": 2555,
      "幼": 2556,
      "幾": 2557,
      "广": 2558,
      "庁": 2559,
      "広": 2560,
      "庆": 2561,
      "庇": 2562,
      "序": 2563,
      "库": 2564,
      "应": 2565,
      "底": 2566,
      "店": 2567,
      "庙": 2568,
      "庚": 2569,
      "府": 2570,
      "庞": 2571,
      "废": 2572,
      "度": 2573,
      "座": 2574,
      "庫": 2575,
      "庭": 2576,
      "康": 2577,
      "庸": 2578,
      "廉": 2579,
      "廟": 2580,
      "廣": 2581,
      "延": 2582,
      "建": 2583,
      "开": 2584,
      "弁": 2585,
      "异": 2586,
      "弃": 2587,
      "弈": 2588,
      "式": 2589,
      "弓": 2590,
      "引": 2591,
      "弗": 2592,
      "弟": 2593,
      "张": 2594,
      "弥": 2595,
      "弦": 2596,
      "弧": 2597,
      "弯": 2598,
      "弱": 2599,
      "張": 2600,
      "強": 2601,
      "弹": 2602,
      "强": 2603,
      "彌": 2604,
      "归": 2605,
      "当": 2606,
      "录": 2607,
      "彙": 2608,
      "彝": 2609,
      "形": 2610,
      "彦": 2611,
      "彩": 2612,
      "影": 2613,
      "役": 2614,
      "往": 2615,
      "征": 2616,
      "径": 2617,
      "待": 2618,
      "很": 2619,
      "律": 2620,
      "後": 2621,
      "徐": 2622,
      "徒": 2623,
      "従": 2624,
      "得": 2625,
      "從": 2626,
      "御": 2627,
      "復": 2628,
      "循": 2629,
      "微": 2630,
      "徳": 2631,
      "徴": 2632,
      "德": 2633,
      "心": 2634,
      "必": 2635,
      "忍": 2636,
      "志": 2637,
      "忘": 2638,
      "忙": 2639,
      "応": 2640,
      "忠": 2641,
      "忧": 2642,
      "快": 2643,
      "念": 2644,
      "忽": 2645,
      "怀": 2646,
      "态": 2647,
      "怎": 2648,
      "怖": 2649,
      "怛": 2650,
      "怜": 2651,
      "思": 2652,
      "怠": 2653,
      "急": 2654,
      "性": 2655,
      "怪": 2656,
      "怯": 2657,
      "总": 2658,
      "恐": 2659,
      "恒": 2660,
      "恢": 2661,
      "恤": 2662,
      "恩": 2663,
      "息": 2664,
      "恰": 2665,
      "恵": 2666,
      "恶": 2667,
      "悄": 2668,
      "悉": 2669,
      "悟": 2670,
      "您": 2671,
      "悪": 2672,
      "悬": 2673,
      "悲": 2674,
      "情": 2675,
      "惊": 2676,
      "惜": 2677,
      "惠": 2678,
      "惯": 2679,
      "想": 2680,
      "愍": 2681,
      "意": 2682,
      "愛": 2683,
      "感": 2684,
      "愤": 2685,
      "愿": 2686,
      "慈": 2687,
      "態": 2688,
      "慎": 2689,
      "慘": 2690,
      "慢": 2691,
      "慣": 2692,
      "慧": 2693,
      "慮": 2694,
      "憂": 2695,
      "憑": 2696,
      "憲": 2697,
      "憾": 2698,
      "應": 2699,
      "懒": 2700,
      "戊": 2701,
      "戌": 2702,
      "戏": 2703,
      "成": 2704,
      "我": 2705,
      "或": 2706,
      "战": 2707,
      "戦": 2708,
      "截": 2709,
      "戳": 2710,
      "户": 2711,
      "戸": 2712,
      "戻": 2713,
      "房": 2714,
      "所": 2715,
      "手": 2716,
      "才": 2717,
      "扎": 2718,
      "打": 2719,
      "払": 2720,
      "托": 2721,
      "扣": 2722,
      "执": 2723,
      "扩": 2724,
      "扫": 2725,
      "扭": 2726,
      "扰": 2727,
      "扱": 2728,
      "批": 2729,
      "找": 2730,
      "承": 2731,
      "技": 2732,
      "抄": 2733,
      "把": 2734,
      "抑": 2735,
      "抓": 2736,
      "投": 2737,
      "抖": 2738,
      "抗": 2739,
      "折": 2740,
      "択": 2741,
      "护": 2742,
      "报": 2743,
      "披": 2744,
      "抱": 2745,
      "抵": 2746,
      "抹": 2747,
      "押": 2748,
      "抽": 2749,
      "担": 2750,
      "拆": 2751,
      "拉": 2752,
      "拍": 2753,
      "拒": 2754,
      "拓": 2755,
      "拖": 2756,
      "拙": 2757,
      "招": 2758,
      "拝": 2759,
      "拟": 2760,
      "拠": 2761,
      "拡": 2762,
      "拥": 2763,
      "拦": 2764,
      "拨": 2765,
      "择": 2766,
      "括": 2767,
      "拷": 2768,
      "拼": 2769,
      "拽": 2770,
      "拾": 2771,
      "拿": 2772,
      "持": 2773,
      "挂": 2774,
      "指": 2775,
      "按": 2776,
      "挑": 2777,
      "挖": 2778,
      "挙": 2779,
      "挝": 2780,
      "挡": 2781,
      "挤": 2782,
      "挥": 2783,
      "挫": 2784,
      "振": 2785,
      "挺": 2786,
      "挿": 2787,
      "捉": 2788,
      "捍": 2789,
      "捐": 2790,
      "捕": 2791,
      "捗": 2792,
      "损": 2793,
      "换": 2794,
      "捨": 2795,
      "据": 2796,
      "捷": 2797,
      "掀": 2798,
      "授": 2799,
      "掉": 2800,
      "掌": 2801,
      "排": 2802,
      "掘": 2803,
      "掛": 2804,
      "採": 2805,
      "探": 2806,
      "接": 2807,
      "控": 2808,
      "推": 2809,
      "掩": 2810,
      "揃": 2811,
      "描": 2812,
      "提": 2813,
      "插": 2814,
      "換": 2815,
      "握": 2816,
      "揭": 2817,
      "揮": 2818,
      "援": 2819,
      "損": 2820,
      "搜": 2821,
      "搞": 2822,
      "搬": 2823,
      "搭": 2824,
      "携": 2825,
      "摄": 2826,
      "摆": 2827,
      "摘": 2828,
      "摩": 2829,
      "撃": 2830,
      "撑": 2831,
      "撒": 2832,
      "撤": 2833,
      "播": 2834,
      "撰": 2835,
      "撸": 2836,
      "擇": 2837,
      "擊": 2838,
      "操": 2839,
      "擎": 2840,
      "據": 2841,
      "擲": 2842,
      "擴": 2843,
      "攥": 2844,
      "攫": 2845,
      "支": 2846,
      "收": 2847,
      "改": 2848,
      "攻": 2849,
      "放": 2850,
      "政": 2851,
      "故": 2852,
      "效": 2853,
      "敏": 2854,
      "救": 2855,
      "敗": 2856,
      "教": 2857,
      "敢": 2858,
      "散": 2859,
      "敦": 2860,
      "敬": 2861,
      "数": 2862,
      "敲": 2863,
      "整": 2864,
      "敵": 2865,
      "數": 2866,
      "文": 2867,
      "斐": 2868,
      "斗": 2869,
      "料": 2870,
      "斟": 2871,
      "斥": 2872,
      "断": 2873,
      "斯": 2874,
      "新": 2875,
      "斷": 2876,
      "方": 2877,
      "於": 2878,
      "施": 2879,
      "旁": 2880,
      "旅": 2881,
      "旋": 2882,
      "族": 2883,
      "旗": 2884,
      "无": 2885,
      "既": 2886,
      "日": 2887,
      "旦": 2888,
      "旧": 2889,
      "旨": 2890,
      "早": 2891,
      "时": 2892,
      "昆": 2893,
      "昌": 2894,
      "明": 2895,
      "易": 2896,
      "昔": 2897,
      "星": 2898,
      "映": 2899,
      "春": 2900,
      "昨": 2901,
      "昭": 2902,
      "是": 2903,
      "昵": 2904,
      "昼": 2905,
      "显": 2906,
      "時": 2907,
      "晒": 2908,
      "晓": 2909,
      "晚": 2910,
      "晨": 2911,
      "晩": 2912,
      "普": 2913,
      "景": 2914,
      "晰": 2915,
      "晴": 2916,
      "晶": 2917,
      "智": 2918,
      "暂": 2919,
      "暑": 2920,
      "暖": 2921,
      "暗": 2922,
      "暮": 2923,
      "暴": 2924,
      "曆": 2925,
      "曜": 2926,
      "曰": 2927,
      "曲": 2928,
      "曳": 2929,
      "更": 2930,
      "書": 2931,
      "曼": 2932,
      "曾": 2933,
      "替": 2934,
      "最": 2935,
      "會": 2936,
      "月": 2937,
      "有": 2938,
      "朋": 2939,
      "服": 2940,
      "朗": 2941,
      "望": 2942,
      "朝": 2943,
      "期": 2944,
      "木": 2945,
      "未": 2946,
      "末": 2947,
      "本": 2948,
      "札": 2949,
      "术": 2950,
      "朴": 2951,
      "机": 2952,
      "朽": 2953,
      "杀": 2954,
      "杂": 2955,
      "权": 2956,
      "杉": 2957,
      "李": 2958,
      "材": 2959,
      "村": 2960,
      "杜": 2961,
      "杞": 2962,
      "束": 2963,
      "杠": 2964,
      "条": 2965,
      "来": 2966,
      "杭": 2967,
      "杯": 2968,
      "杰": 2969,
      "東": 2970,
      "松": 2971,
      "板": 2972,
      "极": 2973,
      "构": 2974,
      "析": 2975,
      "林": 2976,
      "枚": 2977,
      "果": 2978,
      "枝": 2979,
      "枪": 2980,
      "架": 2981,
      "枸": 2982,
      "柄": 2983,
      "某": 2984,
      "染": 2985,
      "柔": 2986,
      "查": 2987,
      "柯": 2988,
      "柱": 2989,
      "査": 2990,
      "栄": 2991,
      "栅": 2992,
      "标": 2993,
      "栈": 2994,
      "栏": 2995,
      "树": 2996,
      "栗": 2997,
      "校": 2998,
      "株": 2999,
      "样": 3000,
      "核": 3001,
      "根": 3002,
      "格": 3003,
      "桁": 3004,
      "桃": 3005,
      "框": 3006,
      "案": 3007,
      "桌": 3008,
      "桑": 3009,
      "桜": 3010,
      "档": 3011,
      "桥": 3012,
      "梁": 3013,
      "梅": 3014,
      "條": 3015,
      "梦": 3016,
      "梨": 3017,
      "梭": 3018,
      "梯": 3019,
      "械": 3020,
      "梵": 3021,
      "检": 3022,
      "棉": 3023,
      "棋": 3024,
      "棒": 3025,
      "棕": 3026,
      "棘": 3027,
      "棚": 3028,
      "森": 3029,
      "棵": 3030,
      "植": 3031,
      "検": 3032,
      "椭": 3033,
      "楚": 3034,
      "楞": 3035,
      "業": 3036,
      "極": 3037,
      "楼": 3038,
      "楽": 3039,
      "概": 3040,
      "榨": 3041,
      "槃": 3042,
      "構": 3043,
      "様": 3044,
      "槛": 3045,
      "槽": 3046,
      "樂": 3047,
      "樓": 3048,
      "標": 3049,
      "模": 3050,
      "樣": 3051,
      "権": 3052,
      "横": 3053,
      "樹": 3054,
      "橋": 3055,
      "機": 3056,
      "檢": 3057,
      "欄": 3058,
      "權": 3059,
      "欠": 3060,
      "次": 3061,
      "欢": 3062,
      "欣": 3063,
      "欧": 3064,
      "欲": 3065,
      "欺": 3066,
      "款": 3067,
      "歇": 3068,
      "歉": 3069,
      "歌": 3070,
      "歐": 3071,
      "歡": 3072,
      "止": 3073,
      "正": 3074,
      "此": 3075,
      "步": 3076,
      "武": 3077,
      "歧": 3078,
      "歩": 3079,
      "歯": 3080,
      "歴": 3081,
      "歷": 3082,
      "死": 3083,
      "殃": 3084,
      "殊": 3085,
      "残": 3086,
      "殴": 3087,
      "段": 3088,
      "殺": 3089,
      "殿": 3090,
      "毁": 3091,
      "母": 3092,
      "毎": 3093,
      "每": 3094,
      "毒": 3095,
      "比": 3096,
      "毕": 3097,
      "毘": 3098,
      "毛": 3099,
      "毫": 3100,
      "氏": 3101,
      "民": 3102,
      "气": 3103,
      "気": 3104,
      "水": 3105,
      "氷": 3106,
      "永": 3107,
      "求": 3108,
      "汇": 3109,
      "汉": 3110,
      "汎": 3111,
      "江": 3112,
      "池": 3113,
      "汤": 3114,
      "決": 3115,
      "汽": 3116,
      "沉": 3117,
      "沌": 3118,
      "沐": 3119,
      "沒": 3120,
      "沙": 3121,
      "沟": 3122,
      "没": 3123,
      "沪": 3124,
      "河": 3125,
      "油": 3126,
      "治": 3127,
      "沿": 3128,
      "況": 3129,
      "泄": 3130,
      "泉": 3131,
      "泊": 3132,
      "法": 3133,
      "泛": 3134,
      "波": 3135,
      "泣": 3136,
      "注": 3137,
      "泰": 3138,
      "泳": 3139,
      "洁": 3140,
      "洋": 3141,
      "洗": 3142,
      "洛": 3143,
      "洞": 3144,
      "津": 3145,
      "洪": 3146,
      "洲": 3147,
      "活": 3148,
      "派": 3149,
      "流": 3150,
      "浅": 3151,
      "浆": 3152,
      "测": 3153,
      "济": 3154,
      "浏": 3155,
      "浙": 3156,
      "浜": 3157,
      "浦": 3158,
      "浩": 3159,
      "浪": 3160,
      "浮": 3161,
      "浴": 3162,
      "海": 3163,
      "涅": 3164,
      "消": 3165,
      "涉": 3166,
      "润": 3167,
      "涧": 3168,
      "涨": 3169,
      "液": 3170,
      "涵": 3171,
      "涼": 3172,
      "淆": 3173,
      "淑": 3174,
      "淘": 3175,
      "淚": 3176,
      "淡": 3177,
      "深": 3178,
      "混": 3179,
      "添": 3180,
      "清": 3181,
      "済": 3182,
      "渋": 3183,
      "渐": 3184,
      "渗": 3185,
      "減": 3186,
      "渡": 3187,
      "温": 3188,
      "測": 3189,
      "港": 3190,
      "渲": 3191,
      "渴": 3192,
      "游": 3193,
      "湖": 3194,
      "湯": 3195,
      "湾": 3196,
      "満": 3197,
      "溃": 3198,
      "源": 3199,
      "準": 3200,
      "溜": 3201,
      "溝": 3202,
      "溢": 3203,
      "溫": 3204,
      "溯": 3205,
      "滅": 3206,
      "滑": 3207,
      "滚": 3208,
      "滞": 3209,
      "满": 3210,
      "滤": 3211,
      "滥": 3212,
      "滴": 3213,
      "漁": 3214,
      "漂": 3215,
      "演": 3216,
      "漠": 3217,
      "漢": 3218,
      "漫": 3219,
      "潔": 3220,
      "潜": 3221,
      "潮": 3222,
      "澗": 3223,
      "澜": 3224,
      "澤": 3225,
      "澳": 3226,
      "激": 3227,
      "濁": 3228,
      "濯": 3229,
      "灣": 3230,
      "火": 3231,
      "灭": 3232,
      "灯": 3233,
      "灰": 3234,
      "灵": 3235,
      "災": 3236,
      "灾": 3237,
      "炎": 3238,
      "炭": 3239,
      "点": 3240,
      "為": 3241,
      "烁": 3242,
      "烏": 3243,
      "烛": 3244,
      "烟": 3245,
      "烦": 3246,
      "热": 3247,
      "無": 3248,
      "焦": 3249,
      "焰": 3250,
      "然": 3251,
      "焼": 3252,
      "照": 3253,
      "煩": 3254,
      "熊": 3255,
      "熙": 3256,
      "熟": 3257,
      "熱": 3258,
      "燃": 3259,
      "營": 3260,
      "燥": 3261,
      "燭": 3262,
      "爆": 3263,
      "爍": 3264,
      "爪": 3265,
      "爬": 3266,
      "爱": 3267,
      "父": 3268,
      "爾": 3269,
      "片": 3270,
      "版": 3271,
      "牌": 3272,
      "牙": 3273,
      "牛": 3274,
      "牟": 3275,
      "牧": 3276,
      "物": 3277,
      "牵": 3278,
      "特": 3279,
      "犀": 3280,
      "犬": 3281,
      "犯": 3282,
      "状": 3283,
      "犹": 3284,
      "狂": 3285,
      "狄": 3286,
      "狐": 3287,
      "狗": 3288,
      "独": 3289,
      "狮": 3290,
      "狸": 3291,
      "狼": 3292,
      "猜": 3293,
      "猪": 3294,
      "猫": 3295,
      "献": 3296,
      "猴": 3297,
      "猶": 3298,
      "獻": 3299,
      "玄": 3300,
      "率": 3301,
      "玉": 3302,
      "王": 3303,
      "玩": 3304,
      "环": 3305,
      "现": 3306,
      "珠": 3307,
      "班": 3308,
      "現": 3309,
      "球": 3310,
      "理": 3311,
      "琉": 3312,
      "琐": 3313,
      "琴": 3314,
      "瑞": 3315,
      "瑟": 3316,
      "瑶": 3317,
      "璃": 3318,
      "環": 3319,
      "瓜": 3320,
      "瓣": 3321,
      "瓦": 3322,
      "瓶": 3323,
      "甘": 3324,
      "甚": 3325,
      "生": 3326,
      "產": 3327,
      "産": 3328,
      "用": 3329,
      "甩": 3330,
      "田": 3331,
      "由": 3332,
      "甲": 3333,
      "申": 3334,
      "电": 3335,
      "男": 3336,
      "甸": 3337,
      "町": 3338,
      "画": 3339,
      "界": 3340,
      "畑": 3341,
      "留": 3342,
      "略": 3343,
      "番": 3344,
      "畫": 3345,
      "異": 3346,
      "畴": 3347,
      "畵": 3348,
      "當": 3349,
      "疆": 3350,
      "疑": 3351,
      "疗": 3352,
      "疫": 3353,
      "疯": 3354,
      "疲": 3355,
      "疾": 3356,
      "病": 3357,
      "痛": 3358,
      "痪": 3359,
      "瘫": 3360,
      "療": 3361,
      "発": 3362,
      "登": 3363,
      "發": 3364,
      "白": 3365,
      "百": 3366,
      "皂": 3367,
      "的": 3368,
      "皆": 3369,
      "皇": 3370,
      "皤": 3371,
      "皮": 3372,
      "皿": 3373,
      "盈": 3374,
      "益": 3375,
      "监": 3376,
      "盒": 3377,
      "盖": 3378,
      "盘": 3379,
      "盛": 3380,
      "盜": 3381,
      "盟": 3382,
      "盡": 3383,
      "監": 3384,
      "盤": 3385,
      "盧": 3386,
      "目": 3387,
      "盲": 3388,
      "直": 3389,
      "相": 3390,
      "盾": 3391,
      "省": 3392,
      "眉": 3393,
      "看": 3394,
      "県": 3395,
      "真": 3396,
      "眠": 3397,
      "眼": 3398,
      "眾": 3399,
      "着": 3400,
      "督": 3401,
      "瞥": 3402,
      "瞬": 3403,
      "矛": 3404,
      "矢": 3405,
      "知": 3406,
      "矩": 3407,
      "短": 3408,
      "石": 3409,
      "矶": 3410,
      "码": 3411,
      "砂": 3412,
      "研": 3413,
      "砖": 3414,
      "破": 3415,
      "础": 3416,
      "硕": 3417,
      "硬": 3418,
      "确": 3419,
      "碁": 3420,
      "碎": 3421,
      "碟": 3422,
      "碰": 3423,
      "確": 3424,
      "碼": 3425,
      "碾": 3426,
      "磁": 3427,
      "磋": 3428,
      "磨": 3429,
      "礎": 3430,
      "礙": 3431,
      "示": 3432,
      "礼": 3433,
      "社": 3434,
      "祇": 3435,
      "祐": 3436,
      "祖": 3437,
      "祗": 3438,
      "祝": 3439,
      "神": 3440,
      "祥": 3441,
      "票": 3442,
      "祭": 3443,
      "禁": 3444,
      "禍": 3445,
      "福": 3446,
      "离": 3447,
      "禾": 3448,
      "秀": 3449,
      "私": 3450,
      "秋": 3451,
      "种": 3452,
      "科": 3453,
      "秒": 3454,
      "秘": 3455,
      "租": 3456,
      "秭": 3457,
      "积": 3458,
      "称": 3459,
      "移": 3460,
      "程": 3461,
      "税": 3462,
      "種": 3463,
      "稱": 3464,
      "稳": 3465,
      "稼": 3466,
      "稿": 3467,
      "穀": 3468,
      "穆": 3469,
      "積": 3470,
      "穩": 3471,
      "穰": 3472,
      "穴": 3473,
      "究": 3474,
      "穷": 3475,
      "空": 3476,
      "穿": 3477,
      "突": 3478,
      "窃": 3479,
      "窄": 3480,
      "窓": 3481,
      "窗": 3482,
      "立": 3483,
      "竖": 3484,
      "站": 3485,
      "竞": 3486,
      "竟": 3487,
      "章": 3488,
      "童": 3489,
      "竭": 3490,
      "端": 3491,
      "競": 3492,
      "竹": 3493,
      "竺": 3494,
      "笑": 3495,
      "笔": 3496,
      "笛": 3497,
      "符": 3498,
      "笨": 3499,
      "第": 3500,
      "笹": 3501,
      "筆": 3502,
      "等": 3503,
      "筋": 3504,
      "答": 3505,
      "策": 3506,
      "筛": 3507,
      "签": 3508,
      "简": 3509,
      "算": 3510,
      "管": 3511,
      "箭": 3512,
      "箱": 3513,
      "節": 3514,
      "範": 3515,
      "篇": 3516,
      "築": 3517,
      "篡": 3518,
      "簡": 3519,
      "簿": 3520,
      "籍": 3521,
      "籤": 3522,
      "米": 3523,
      "类": 3524,
      "粉": 3525,
      "粒": 3526,
      "粗": 3527,
      "粘": 3528,
      "粟": 3529,
      "粵": 3530,
      "粹": 3531,
      "精": 3532,
      "糖": 3533,
      "糸": 3534,
      "系": 3535,
      "紀": 3536,
      "約": 3537,
      "紅": 3538,
      "納": 3539,
      "紐": 3540,
      "純": 3541,
      "紙": 3542,
      "級": 3543,
      "素": 3544,
      "索": 3545,
      "紧": 3546,
      "紫": 3547,
      "累": 3548,
      "細": 3549,
      "紹": 3550,
      "終": 3551,
      "組": 3552,
      "経": 3553,
      "結": 3554,
      "絞": 3555,
      "絡": 3556,
      "給": 3557,
      "統": 3558,
      "絵": 3559,
      "絶": 3560,
      "絹": 3561,
      "綁": 3562,
      "続": 3563,
      "維": 3564,
      "網": 3565,
      "綻": 3566,
      "綿": 3567,
      "総": 3568,
      "緑": 3569,
      "緒": 3570,
      "線": 3571,
      "締": 3572,
      "編": 3573,
      "練": 3574,
      "縦": 3575,
      "縮": 3576,
      "績": 3577,
      "繁": 3578,
      "織": 3579,
      "繰": 3580,
      "纠": 3581,
      "红": 3582,
      "约": 3583,
      "级": 3584,
      "纪": 3585,
      "纬": 3586,
      "纯": 3587,
      "纱": 3588,
      "纳": 3589,
      "纵": 3590,
      "纷": 3591,
      "纸": 3592,
      "纹": 3593,
      "纽": 3594,
      "线": 3595,
      "练": 3596,
      "组": 3597,
      "细": 3598,
      "织": 3599,
      "终": 3600,
      "绊": 3601,
      "绍": 3602,
      "经": 3603,
      "绑": 3604,
      "结": 3605,
      "绕": 3606,
      "绘": 3607,
      "给": 3608,
      "络": 3609,
      "绝": 3610,
      "统": 3611,
      "继": 3612,
      "绩": 3613,
      "绪": 3614,
      "续": 3615,
      "维": 3616,
      "综": 3617,
      "缀": 3618,
      "缅": 3619,
      "缓": 3620,
      "编": 3621,
      "缘": 3622,
      "缝": 3623,
      "缩": 3624,
      "缺": 3625,
      "缽": 3626,
      "网": 3627,
      "罗": 3628,
      "罚": 3629,
      "罨": 3630,
      "罪": 3631,
      "置": 3632,
      "罰": 3633,
      "署": 3634,
      "羅": 3635,
      "羊": 3636,
      "美": 3637,
      "群": 3638,
      "義": 3639,
      "羯": 3640,
      "羲": 3641,
      "羽": 3642,
      "翌": 3643,
      "習": 3644,
      "翠": 3645,
      "翰": 3646,
      "翻": 3647,
      "翼": 3648,
      "老": 3649,
      "考": 3650,
      "者": 3651,
      "而": 3652,
      "耐": 3653,
      "耕": 3654,
      "耗": 3655,
      "耦": 3656,
      "耨": 3657,
      "耳": 3658,
      "耶": 3659,
      "聊": 3660,
      "职": 3661,
      "联": 3662,
      "聖": 3663,
      "聚": 3664,
      "聞": 3665,
      "職": 3666,
      "肃": 3667,
      "肅": 3668,
      "肆": 3669,
      "肉": 3670,
      "肖": 3671,
      "股": 3672,
      "肥": 3673,
      "肯": 3674,
      "育": 3675,
      "肺": 3676,
      "胀": 3677,
      "胁": 3678,
      "胃": 3679,
      "背": 3680,
      "胜": 3681,
      "胞": 3682,
      "胧": 3683,
      "胸": 3684,
      "能": 3685,
      "脂": 3686,
      "脇": 3687,
      "脈": 3688,
      "脏": 3689,
      "脑": 3690,
      "脖": 3691,
      "脚": 3692,
      "脱": 3693,
      "脳": 3694,
      "腊": 3695,
      "腐": 3696,
      "腸": 3697,
      "腹": 3698,
      "腻": 3699,
      "腾": 3700,
      "膨": 3701,
      "臓": 3702,
      "臘": 3703,
      "臣": 3704,
      "臨": 3705,
      "自": 3706,
      "臭": 3707,
      "至": 3708,
      "致": 3709,
      "臺": 3710,
      "舆": 3711,
      "與": 3712,
      "興": 3713,
      "舌": 3714,
      "舍": 3715,
      "舎": 3716,
      "舟": 3717,
      "航": 3718,
      "般": 3719,
      "船": 3720,
      "良": 3721,
      "色": 3722,
      "艺": 3723,
      "节": 3724,
      "芝": 3725,
      "芯": 3726,
      "花": 3727,
      "芸": 3728,
      "芽": 3729,
      "苏": 3730,
      "若": 3731,
      "苦": 3732,
      "英": 3733,
      "范": 3734,
      "茶": 3735,
      "荀": 3736,
      "荆": 3737,
      "草": 3738,
      "荐": 3739,
      "荣": 3740,
      "荧": 3741,
      "药": 3742,
      "荷": 3743,
      "莉": 3744,
      "莊": 3745,
      "莫": 3746,
      "获": 3747,
      "莹": 3748,
      "菁": 3749,
      "菜": 3750,
      "菩": 3751,
      "華": 3752,
      "菱": 3753,
      "萌": 3754,
      "萍": 3755,
      "营": 3756,
      "萦": 3757,
      "萨": 3758,
      "萬": 3759,
      "萱": 3760,
      "落": 3761,
      "葉": 3762,
      "著": 3763,
      "董": 3764,
      "葩": 3765,
      "蒙": 3766,
      "蒸": 3767,
      "蓝": 3768,
      "蔵": 3769,
      "蔽": 3770,
      "蕾": 3771,
      "薄": 3772,
      "薩": 3773,
      "薫": 3774,
      "薬": 3775,
      "藏": 3776,
      "藐": 3777,
      "藝": 3778,
      "蘇": 3779,
      "虎": 3780,
      "虑": 3781,
      "處": 3782,
      "虚": 3783,
      "號": 3784,
      "虫": 3785,
      "虽": 3786,
      "蚍": 3787,
      "蚕": 3788,
      "蛇": 3789,
      "蛩": 3790,
      "蜂": 3791,
      "蜉": 3792,
      "蜜": 3793,
      "蝶": 3794,
      "螃": 3795,
      "融": 3796,
      "蟹": 3797,
      "血": 3798,
      "衆": 3799,
      "行": 3800,
      "衍": 3801,
      "術": 3802,
      "衔": 3803,
      "街": 3804,
      "衛": 3805,
      "衡": 3806,
      "衣": 3807,
      "补": 3808,
      "表": 3809,
      "衰": 3810,
      "衷": 3811,
      "袋": 3812,
      "被": 3813,
      "袭": 3814,
      "裁": 3815,
      "裂": 3816,
      "装": 3817,
      "裏": 3818,
      "補": 3819,
      "裝": 3820,
      "裸": 3821,
      "裹": 3822,
      "製": 3823,
      "複": 3824,
      "褒": 3825,
      "襲": 3826,
      "西": 3827,
      "要": 3828,
      "覆": 3829,
      "見": 3830,
      "規": 3831,
      "視": 3832,
      "覚": 3833,
      "覧": 3834,
      "親": 3835,
      "観": 3836,
      "覺": 3837,
      "见": 3838,
      "观": 3839,
      "规": 3840,
      "觅": 3841,
      "视": 3842,
      "览": 3843,
      "觉": 3844,
      "角": 3845,
      "解": 3846,
      "触": 3847,
      "言": 3848,
      "計": 3849,
      "訊": 3850,
      "討": 3851,
      "訓": 3852,
      "記": 3853,
      "訪": 3854,
      "設": 3855,
      "許": 3856,
      "訳": 3857,
      "訴": 3858,
      "訶": 3859,
      "註": 3860,
      "証": 3861,
      "評": 3862,
      "詞": 3863,
      "詢": 3864,
      "試": 3865,
      "詩": 3866,
      "話": 3867,
      "該": 3868,
      "詳": 3869,
      "誉": 3870,
      "誌": 3871,
      "認": 3872,
      "誒": 3873,
      "誕": 3874,
      "誘": 3875,
      "語": 3876,
      "誠": 3877,
      "誤": 3878,
      "說": 3879,
      "説": 3880,
      "読": 3881,
      "誰": 3882,
      "課": 3883,
      "調": 3884,
      "談": 3885,
      "請": 3886,
      "論": 3887,
      "諦": 3888,
      "諳": 3889,
      "諸": 3890,
      "講": 3891,
      "謝": 3892,
      "謹": 3893,
      "證": 3894,
      "識": 3895,
      "譜": 3896,
      "警": 3897,
      "譯": 3898,
      "議": 3899,
      "護": 3900,
      "變": 3901,
      "讓": 3902,
      "计": 3903,
      "订": 3904,
      "认": 3905,
      "讨": 3906,
      "让": 3907,
      "训": 3908,
      "议": 3909,
      "讯": 3910,
      "记": 3911,
      "讲": 3912,
      "许": 3913,
      "论": 3914,
      "设": 3915,
      "访": 3916,
      "证": 3917,
      "诃": 3918,
      "评": 3919,
      "识": 3920,
      "诉": 3921,
      "诊": 3922,
      "词": 3923,
      "译": 3924,
      "试": 3925,
      "诚": 3926,
      "话": 3927,
      "诞": 3928,
      "询": 3929,
      "该": 3930,
      "详": 3931,
      "语": 3932,
      "误": 3933,
      "诱": 3934,
      "说": 3935,
      "诵": 3936,
      "请": 3937,
      "诸": 3938,
      "诺": 3939,
      "读": 3940,
      "课": 3941,
      "谁": 3942,
      "调": 3943,
      "谐": 3944,
      "谓": 3945,
      "谛": 3946,
      "谢": 3947,
      "谨": 3948,
      "谱": 3949,
      "谴": 3950,
      "谷": 3951,
      "豆": 3952,
      "豊": 3953,
      "象": 3954,
      "豪": 3955,
      "貓": 3956,
      "貝": 3957,
      "負": 3958,
      "財": 3959,
      "貢": 3960,
      "貧": 3961,
      "貨": 3962,
      "責": 3963,
      "貯": 3964,
      "貳": 3965,
      "貴": 3966,
      "買": 3967,
      "貸": 3968,
      "費": 3969,
      "貿": 3970,
      "賀": 3971,
      "賃": 3972,
      "資": 3973,
      "賛": 3974,
      "賞": 3975,
      "賢": 3976,
      "質": 3977,
      "賴": 3978,
      "購": 3979,
      "贝": 3980,
      "贞": 3981,
      "负": 3982,
      "贡": 3983,
      "财": 3984,
      "责": 3985,
      "败": 3986,
      "账": 3987,
      "货": 3988,
      "质": 3989,
      "贪": 3990,
      "贫": 3991,
      "购": 3992,
      "贰": 3993,
      "贴": 3994,
      "贵": 3995,
      "贷": 3996,
      "贸": 3997,
      "费": 3998,
      "资": 3999,
      "赋": 4000,
      "赖": 4001,
      "赚": 4002,
      "赛": 4003,
      "赞": 4004,
      "赠": 4005,
      "赤": 4006,
      "走": 4007,
      "赴": 4008,
      "起": 4009,
      "超": 4010,
      "越": 4011,
      "趋": 4012,
      "趣": 4013,
      "趨": 4014,
      "足": 4015,
      "跃": 4016,
      "跋": 4017,
      "跌": 4018,
      "跑": 4019,
      "距": 4020,
      "跟": 4021,
      "跡": 4022,
      "跨": 4023,
      "路": 4024,
      "跳": 4025,
      "践": 4026,
      "踊": 4027,
      "踏": 4028,
      "踢": 4029,
      "踩": 4030,
      "踪": 4031,
      "身": 4032,
      "躺": 4033,
      "車": 4034,
      "軍": 4035,
      "軟": 4036,
      "転": 4037,
      "軸": 4038,
      "軽": 4039,
      "較": 4040,
      "載": 4041,
      "輔": 4042,
      "輩": 4043,
      "輪": 4044,
      "輸": 4045,
      "轉": 4046,
      "车": 4047,
      "转": 4048,
      "轮": 4049,
      "软": 4050,
      "轴": 4051,
      "轻": 4052,
      "载": 4053,
      "较": 4054,
      "辅": 4055,
      "辑": 4056,
      "输": 4057,
      "辛": 4058,
      "辞": 4059,
      "辨": 4060,
      "辩": 4061,
      "辰": 4062,
      "農": 4063,
      "边": 4064,
      "辺": 4065,
      "込": 4066,
      "达": 4067,
      "迁": 4068,
      "迂": 4069,
      "迅": 4070,
      "过": 4071,
      "迎": 4072,
      "运": 4073,
      "近": 4074,
      "返": 4075,
      "还": 4076,
      "这": 4077,
      "进": 4078,
      "远": 4079,
      "违": 4080,
      "连": 4081,
      "迟": 4082,
      "迦": 4083,
      "迫": 4084,
      "迭": 4085,
      "述": 4086,
      "迷": 4087,
      "追": 4088,
      "退": 4089,
      "送": 4090,
      "适": 4091,
      "逃": 4092,
      "逆": 4093,
      "选": 4094,
      "逊": 4095,
      "透": 4096,
      "逐": 4097,
      "递": 4098,
      "途": 4099,
      "逗": 4100,
      "這": 4101,
      "通": 4102,
      "逝": 4103,
      "速": 4104,
      "造": 4105,
      "連": 4106,
      "週": 4107,
      "進": 4108,
      "逸": 4109,
      "逻": 4110,
      "逼": 4111,
      "遇": 4112,
      "遊": 4113,
      "運": 4114,
      "遍": 4115,
      "過": 4116,
      "遐": 4117,
      "道": 4118,
      "達": 4119,
      "違": 4120,
      "遗": 4121,
      "遠": 4122,
      "適": 4123,
      "遭": 4124,
      "遮": 4125,
      "遵": 4126,
      "選": 4127,
      "遺": 4128,
      "避": 4129,
      "邀": 4130,
      "邊": 4131,
      "那": 4132,
      "邦": 4133,
      "邮": 4134,
      "邸": 4135,
      "邻": 4136,
      "郎": 4137,
      "郡": 4138,
      "部": 4139,
      "郵": 4140,
      "郷": 4141,
      "都": 4142,
      "酉": 4143,
      "酌": 4144,
      "配": 4145,
      "酒": 4146,
      "酷": 4147,
      "酸": 4148,
      "醒": 4149,
      "醯": 4150,
      "采": 4151,
      "释": 4152,
      "里": 4153,
      "重": 4154,
      "野": 4155,
      "量": 4156,
      "金": 4157,
      "釘": 4158,
      "針": 4159,
      "鈴": 4160,
      "鉄": 4161,
      "鉱": 4162,
      "鉴": 4163,
      "銀": 4164,
      "銅": 4165,
      "銭": 4166,
      "鋪": 4167,
      "鋼": 4168,
      "錄": 4169,
      "錆": 4170,
      "錢": 4171,
      "錯": 4172,
      "録": 4173,
      "鍵": 4174,
      "鏡": 4175,
      "针": 4176,
      "钉": 4177,
      "钞": 4178,
      "钟": 4179,
      "钢": 4180,
      "钥": 4181,
      "钮": 4182,
      "钱": 4183,
      "铁": 4184,
      "银": 4185,
      "链": 4186,
      "销": 4187,
      "锁": 4188,
      "锐": 4189,
      "错": 4190,
      "锚": 4191,
      "锡": 4192,
      "键": 4193,
      "镑": 4194,
      "镜": 4195,
      "長": 4196,
      "长": 4197,
      "門": 4198,
      "閉": 4199,
      "開": 4200,
      "間": 4201,
      "関": 4202,
      "閣": 4203,
      "閲": 4204,
      "闍": 4205,
      "關": 4206,
      "门": 4207,
      "闪": 4208,
      "闭": 4209,
      "问": 4210,
      "闯": 4211,
      "闲": 4212,
      "间": 4213,
      "闻": 4214,
      "阅": 4215,
      "阐": 4216,
      "队": 4217,
      "阪": 4218,
      "阱": 4219,
      "防": 4220,
      "阳": 4221,
      "阴": 4222,
      "阵": 4223,
      "阶": 4224,
      "阻": 4225,
      "阿": 4226,
      "陀": 4227,
      "附": 4228,
      "际": 4229,
      "陆": 4230,
      "陈": 4231,
      "陋": 4232,
      "陌": 4233,
      "降": 4234,
      "限": 4235,
      "陛": 4236,
      "院": 4237,
      "陣": 4238,
      "除": 4239,
      "险": 4240,
      "陰": 4241,
      "陵": 4242,
      "陷": 4243,
      "陸": 4244,
      "険": 4245,
      "陽": 4246,
      "隆": 4247,
      "隊": 4248,
      "階": 4249,
      "随": 4250,
      "隐": 4251,
      "隔": 4252,
      "隙": 4253,
      "際": 4254,
      "障": 4255,
      "隣": 4256,
      "隧": 4257,
      "隶": 4258,
      "隸": 4259,
      "隻": 4260,
      "难": 4261,
      "雀": 4262,
      "雅": 4263,
      "集": 4264,
      "雇": 4265,
      "雑": 4266,
      "雛": 4267,
      "雜": 4268,
      "離": 4269,
      "難": 4270,
      "雨": 4271,
      "雪": 4272,
      "雲": 4273,
      "零": 4274,
      "雷": 4275,
      "電": 4276,
      "雾": 4277,
      "需": 4278,
      "霍": 4279,
      "霧": 4280,
      "露": 4281,
      "霸": 4282,
      "青": 4283,
      "静": 4284,
      "非": 4285,
      "靠": 4286,
      "面": 4287,
      "革": 4288,
      "靴": 4289,
      "韓": 4290,
      "韩": 4291,
      "音": 4292,
      "頂": 4293,
      "頃": 4294,
      "項": 4295,
      "順": 4296,
      "須": 4297,
      "預": 4298,
      "領": 4299,
      "頡": 4300,
      "頭": 4301,
      "頻": 4302,
      "頼": 4303,
      "題": 4304,
      "額": 4305,
      "顔": 4306,
      "願": 4307,
      "顛": 4308,
      "類": 4309,
      "页": 4310,
      "顶": 4311,
      "项": 4312,
      "顺": 4313,
      "须": 4314,
      "顾": 4315,
      "顿": 4316,
      "预": 4317,
      "领": 4318,
      "颈": 4319,
      "颉": 4320,
      "频": 4321,
      "颖": 4322,
      "颗": 4323,
      "题": 4324,
      "颜": 4325,
      "额": 4326,
      "颠": 4327,
      "風": 4328,
      "风": 4329,
      "飛": 4330,
      "飞": 4331,
      "食": 4332,
      "飯": 4333,
      "飲": 4334,
      "飼": 4335,
      "養": 4336,
      "餐": 4337,
      "館": 4338,
      "饰": 4339,
      "饶": 4340,
      "饿": 4341,
      "馆": 4342,
      "馈": 4343,
      "首": 4344,
      "香": 4345,
      "馬": 4346,
      "駅": 4347,
      "駒": 4348,
      "駕": 4349,
      "験": 4350,
      "马": 4351,
      "驱": 4352,
      "驶": 4353,
      "驼": 4354,
      "驾": 4355,
      "骂": 4356,
      "验": 4357,
      "骑": 4358,
      "骗": 4359,
      "骤": 4360,
      "骨": 4361,
      "骰": 4362,
      "體": 4363,
      "高": 4364,
      "鬱": 4365,
      "魔": 4366,
      "魚": 4367,
      "鱼": 4368,
      "鲁": 4369,
      "鲜": 4370,
      "鳥": 4371,
      "鳴": 4372,
      "鸟": 4373,
      "鸡": 4374,
      "鸣": 4375,
      "鹿": 4376,
      "麗": 4377,
      "麦": 4378,
      "麻": 4379,
      "麼": 4380,
      "麽": 4381,
      "黄": 4382,
      "黎": 4383,
      "黑": 4384,
      "黒": 4385,
      "默": 4386,
      "黙": 4387,
      "鼓": 4388,
      "鼠": 4389,
      "鼻": 4390,
      "齐": 4391,
      "龄": 4392,
      "龍": 4393,
      "龙": 4394,
      "龜": 4395,
      "ꈍ": 4396,
      "꒳": 4397,
      "ꙮ": 4398,
      "ꜱ": 4399,
      "ꞁ": 4400,
      "꣖": 4401,
      "꤂": 4402,
      "꩗": 4403,
      "ꮰ": 4404,
      "﫴": 4405,
      "ﬁ": 4406,
      "ﬂ": 4407,
      "ﬄ": 4408,
      "ﱘ": 4409,
      "ﴃ": 4410,
      "ﷺ": 4411,
      "︙": 4412,
      "︱": 4413,
      "︲": 4414,
      "︵": 4415,
      "﹁": 4416,
      "﹄": 4417,
      "﹘": 4418,
      "﹣": 4419,
      "ﻌ": 4420,
      "！": 4421,
      "＂": 4422,
      "＃": 4423,
      "＆": 4424,
      "＇": 4425,
      "（": 4426,
      "）": 4427,
      "＋": 4428,
      "，": 4429,
      "－": 4430,
      "．": 4431,
      "／": 4432,
      "０": 4433,
      "１": 4434,
      "２": 4435,
      "３": 4436,
      "４": 4437,
      "６": 4438,
      "７": 4439,
      "：": 4440,
      "；": 4441,
      "＜": 4442,
      "＞": 4443,
      "？": 4444,
      "＠": 4445,
      "＼": 4446,
      "＾": 4447,
      "＿": 4448,
      "｀": 4449,
      "ａ": 4450,
      "ｂ": 4451,
      "ｃ": 4452,
      "ｄ": 4453,
      "ｅ": 4454,
      "ｆ": 4455,
      "ｇ": 4456,
      "ｈ": 4457,
      "ｉ": 4458,
      "ｌ": 4459,
      "ｍ": 4460,
      "ｎ": 4461,
      "ｏ": 4462,
      "ｐ": 4463,
      "ｒ": 4464,
      "ｓ": 4465,
      "ｔ": 4466,
      "ｕ": 4467,
      "ｖ": 4468,
      "ｗ": 4469,
      "ｙ": 4470,
      "｜": 4471,
      "～": 4472,
      "｡": 4473,
      "｢": 4474,
      "｣": 4475,
      "､": 4476,
      "･": 4477,
      "ｪ": 4478,
      "ｬ": 4479,
      "ｮ": 4480,
      "ｱ": 4481,
      "ｲ": 4482,
      "ｳ": 4483,
      "ｴ": 4484,
      "ｵ": 4485,
      "ｶ": 4486,
      "ｸ": 4487,
      "ｼ": 4488,
      "ﾀ": 4489,
      "ﾂ": 4490,
      "ﾃ": 4491,
      "ﾅ": 4492,
      "ﾉ": 4493,
      "ﾊ": 4494,
      "ﾌ": 4495,
      "ﾏ": 4496,
      "ﾔ": 4497,
      "ﾙ": 4498,
      "ﾝ": 4499,
      "ﾞ": 4500,
      "ﾟ": 4501,
      "￥": 4502,
      "￼": 4503,
      "𐁄": 4504,
      "𐄂": 4505,
      "𐺭": 4506,
      "𑃰": 4507,
      "𑃶": 4508,
      "𒀝": 4509,
      "𒀭": 4510,
      "𓁐": 4511,
      "𓋇": 4512,
      "𓏏": 4513,
      "𝆤": 4514,
      "𝈉": 4515,
      "𝌆": 4516,
      "𝍸": 4517,
      "𝐁": 4518,
      "𝐄": 4519,
      "𝐇": 4520,
      "𝐌": 4521,
      "𝐛": 4522,
      "𝐝": 4523,
      "𝐥": 4524,
      "𝐨": 4525,
      "𝐴": 4526,
      "𝐵": 4527,
      "𝐶": 4528,
      "𝐷": 4529,
      "𝐼": 4530,
      "𝑀": 4531,
      "𝑁": 4532,
      "𝑉": 4533,
      "𝑋": 4534,
      "𝑎": 4535,
      "𝑐": 4536,
      "𝑒": 4537,
      "𝑖": 4538,
      "𝑙": 4539,
      "𝑚": 4540,
      "𝑛": 4541,
      "𝑝": 4542,
      "𝑟": 4543,
      "𝑡": 4544,
      "𝑥": 4545,
      "𝑩": 4546,
      "𝑰": 4547,
      "𝒂": 4548,
      "𝒃": 4549,
      "𝒄": 4550,
      "𝒅": 4551,
      "𝒊": 4552,
      "𝒍": 4553,
      "𝒐": 4554,
      "𝒕": 4555,
      "𝒸": 4556,
      "𝒾": 4557,
      "𝓅": 4558,
      "𝓇": 4559,
      "𝓈": 4560,
      "𝓉": 4561,
      "𝓝": 4562,
      "𝓣": 4563,
      "𝓫": 4564,
      "𝓬": 4565,
      "𝓭": 4566,
      "𝓮": 4567,
      "𝓲": 4568,
      "𝓳": 4569,
      "𝓵": 4570,
      "𝓷": 4571,
      "𝓸": 4572,
      "𝓹": 4573,
      "𝓻": 4574,
      "𝓼": 4575,
      "𝓽": 4576,
      "𝔂": 4577,
      "𝔞": 4578,
      "𝔟": 4579,
      "𝔢": 4580,
      "𝔣": 4581,
      "𝔨": 4582,
      "𝔩": 4583,
      "𝔪": 4584,
      "𝔬": 4585,
      "𝔭": 4586,
      "𝔯": 4587,
      "𝔰": 4588,
      "𝔱": 4589,
      "𝔲": 4590,
      "𝔵": 4591,
      "𝔶": 4592,
      "𝔻": 4593,
      "𝔼": 4594,
      "𝔽": 4595,
      "𝔾": 4596,
      "𝕃": 4597,
      "𝕆": 4598,
      "𝕊": 4599,
      "𝕌": 4600,
      "𝕏": 4601,
      "𝕓": 4602,
      "𝕔": 4603,
      "𝕕": 4604,
      "𝕖": 4605,
      "𝕜": 4606,
      "𝕝": 4607,
      "𝕠": 4608,
      "𝕡": 4609,
      "𝕣": 4610,
      "𝕤": 4611,
      "𝕥": 4612,
      "𝕦": 4613,
      "𝖆": 4614,
      "𝖇": 4615,
      "𝖉": 4616,
      "𝖋": 4617,
      "𝖐": 4618,
      "𝖑": 4619,
      "𝖔": 4620,
      "𝖗": 4621,
      "𝖙": 4622,
      "𝖚": 4623,
      "𝖺": 4624,
      "𝖾": 4625,
      "𝖿": 4626,
      "𝗂": 4627,
      "𝗇": 4628,
      "𝗋": 4629,
      "𝗌": 4630,
      "𝗮": 4631,
      "𝗯": 4632,
      "𝗱": 4633,
      "𝗲": 4634,
      "𝗳": 4635,
      "𝗶": 4636,
      "𝗹": 4637,
      "𝗻": 4638,
      "𝗼": 4639,
      "𝗿": 4640,
      "𝘀": 4641,
      "𝘢": 4642,
      "𝘤": 4643,
      "𝘦": 4644,
      "𝘧": 4645,
      "𝘪": 4646,
      "𝘭": 4647,
      "𝘯": 4648,
      "𝘳": 4649,
      "𝘴": 4650,
      "𝘵": 4651,
      "𝙖": 4652,
      "𝙗": 4653,
      "𝙘": 4654,
      "𝙙": 4655,
      "𝙚": 4656,
      "𝙛": 4657,
      "𝙞": 4658,
      "𝙠": 4659,
      "𝙡": 4660,
      "𝙢": 4661,
      "𝙣": 4662,
      "𝙤": 4663,
      "𝙦": 4664,
      "𝙧": 4665,
      "𝙨": 4666,
      "𝙩": 4667,
      "𝙪": 4668,
      "𝙮": 4669,
      "𝚊": 4670,
      "𝚌": 4671,
      "𝚎": 4672,
      "𝚖": 4673,
      "𝚗": 4674,
      "𝚘": 4675,
      "𝚙": 4676,
      "𝚜": 4677,
      "𝛆": 4678,
      "𝛼": 4679,
      "𝛿": 4680,
      "𝜋": 4681,
      "𝜑": 4682,
      "𝝗": 4683,
      "𝝨": 4684,
      "𝝰": 4685,
      "𝝳": 4686,
      "𝝴": 4687,
      "𝝸": 4688,
      "𝝺": 4689,
      "𝝼": 4690,
      "𝝾": 4691,
      "𝞀": 4692,
      "𝞂": 4693,
      "𝞅": 4694,
      "𝟘": 4695,
      "𝟙": 4696,
      "𝟚": 4697,
      "𝟛": 4698,
      "𝟽": 4699,
      "🀽": 4700,
      "🁫": 4701,
      "🃞": 4702,
      "🃪": 4703,
      "🅐": 4704,
      "🅑": 4705,
      "🅒": 4706,
      "🅰": 4707,
      "🅱": 4708,
      "🅿": 4709,
      "🆎": 4710,
      "🆒": 4711,
      "🆕": 4712,
      "🆗": 4713,
      "🆙": 4714,
      "🇦": 4715,
      "🇧": 4716,
      "🇨": 4717,
      "🇩": 4718,
      "🇪": 4719,
      "🇫": 4720,
      "🇬": 4721,
      "🇭": 4722,
      "🇮": 4723,
      "🇯": 4724,
      "🇰": 4725,
      "🇱": 4726,
      "🇲": 4727,
      "🇳": 4728,
      "🇵": 4729,
      "🇶": 4730,
      "🇷": 4731,
      "🇸": 4732,
      "🇹": 4733,
      "🇺": 4734,
      "🇻": 4735,
      "🇼": 4736,
      "🇿": 4737,
      "🌀": 4738,
      "🌂": 4739,
      "🌅": 4740,
      "🌆": 4741,
      "🌇": 4742,
      "🌈": 4743,
      "🌊": 4744,
      "🌋": 4745,
      "🌌": 4746,
      "🌍": 4747,
      "🌎": 4748,
      "🌏": 4749,
      "🌐": 4750,
      "🌑": 4751,
      "🌕": 4752,
      "🌖": 4753,
      "🌗": 4754,
      "🌘": 4755,
      "🌙": 4756,
      "🌚": 4757,
      "🌞": 4758,
      "🌟": 4759,
      "🌠": 4760,
      "🌡": 4761,
      "🌤": 4762,
      "🌧": 4763,
      "🌫": 4764,
      "🌭": 4765,
      "🌱": 4766,
      "🌲": 4767,
      "🌳": 4768,
      "🌴": 4769,
      "🌵": 4770,
      "🌶": 4771,
      "🌸": 4772,
      "🌹": 4773,
      "🌻": 4774,
      "🌼": 4775,
      "🌽": 4776,
      "🌾": 4777,
      "🌿": 4778,
      "🍀": 4779,
      "🍁": 4780,
      "🍃": 4781,
      "🍄": 4782,
      "🍅": 4783,
      "🍆": 4784,
      "🍇": 4785,
      "🍊": 4786,
      "🍍": 4787,
      "🍎": 4788,
      "🍏": 4789,
      "🍑": 4790,
      "🍒": 4791,
      "🍓": 4792,
      "🍕": 4793,
      "🍗": 4794,
      "🍜": 4795,
      "🍞": 4796,
      "🍟": 4797,
      "🍣": 4798,
      "🍤": 4799,
      "🍩": 4800,
      "🍪": 4801,
      "🍫": 4802,
      "🍬": 4803,
      "🍭": 4804,
      "🍯": 4805,
      "🍱": 4806,
      "🍲": 4807,
      "🍳": 4808,
      "🍴": 4809,
      "🍵": 4810,
      "🍷": 4811,
      "🍺": 4812,
      "🍻": 4813,
      "🍼": 4814,
      "🍿": 4815,
      "🎀": 4816,
      "🎁": 4817,
      "🎂": 4818,
      "🎃": 4819,
      "🎄": 4820,
      "🎆": 4821,
      "🎇": 4822,
      "🎈": 4823,
      "🎉": 4824,
      "🎊": 4825,
      "🎓": 4826,
      "🎙": 4827,
      "🎚": 4828,
      "🎛": 4829,
      "🎞": 4830,
      "🎡": 4831,
      "🎢": 4832,
      "🎤": 4833,
      "🎥": 4834,
      "🎨": 4835,
      "🎩": 4836,
      "🎪": 4837,
      "🎫": 4838,
      "🎬": 4839,
      "🎭": 4840,
      "🎮": 4841,
      "🎯": 4842,
      "🎱": 4843,
      "🎲": 4844,
      "🎳": 4845,
      "🎴": 4846,
      "🎵": 4847,
      "🎶": 4848,
      "🎷": 4849,
      "🎸": 4850,
      "🎹": 4851,
      "🎺": 4852,
      "🎻": 4853,
      "🎼": 4854,
      "🏀": 4855,
      "🏁": 4856,
      "🏃": 4857,
      "🏄": 4858,
      "🏆": 4859,
      "🏇": 4860,
      "🏋": 4861,
      "🏍": 4862,
      "🏎": 4863,
      "🏏": 4864,
      "🏓": 4865,
      "🏔": 4866,
      "🏕": 4867,
      "🏖": 4868,
      "🏗": 4869,
      "🏘": 4870,
      "🏛": 4871,
      "🏝": 4872,
      "🏞": 4873,
      "🏟": 4874,
      "🏠": 4875,
      "🏣": 4876,
      "🏥": 4877,
      "🏦": 4878,
      "🏨": 4879,
      "🏪": 4880,
      "🏫": 4881,
      "🏭": 4882,
      "🏰": 4883,
      "🏳": 4884,
      "🏴": 4885,
      "🏷": 4886,
      "🏹": 4887,
      "🏻": 4888,
      "🏼": 4889,
      "🏽": 4890,
      "🏾": 4891,
      "🏿": 4892,
      "🐀": 4893,
      "🐄": 4894,
      "🐅": 4895,
      "🐆": 4896,
      "🐇": 4897,
      "🐈": 4898,
      "🐉": 4899,
      "🐊": 4900,
      "🐋": 4901,
      "🐌": 4902,
      "🐍": 4903,
      "🐎": 4904,
      "🐏": 4905,
      "🐑": 4906,
      "🐓": 4907,
      "🐔": 4908,
      "🐕": 4909,
      "🐗": 4910,
      "🐘": 4911,
      "🐙": 4912,
      "🐚": 4913,
      "🐛": 4914,
      "🐜": 4915,
      "🐝": 4916,
      "🐟": 4917,
      "🐠": 4918,
      "🐡": 4919,
      "🐢": 4920,
      "🐣": 4921,
      "🐤": 4922,
      "🐥": 4923,
      "🐦": 4924,
      "🐧": 4925,
      "🐨": 4926,
      "🐩": 4927,
      "🐪": 4928,
      "🐫": 4929,
      "🐬": 4930,
      "🐮": 4931,
      "🐰": 4932,
      "🐱": 4933,
      "🐲": 4934,
      "🐳": 4935,
      "🐴": 4936,
      "🐵": 4937,
      "🐶": 4938,
      "🐺": 4939,
      "🐻": 4940,
      "🐼": 4941,
      "🐾": 4942,
      "🐿": 4943,
      "👀": 4944,
      "👁": 4945,
      "👂": 4946,
      "👃": 4947,
      "👄": 4948,
      "👆": 4949,
      "👇": 4950,
      "👈": 4951,
      "👉": 4952,
      "👊": 4953,
      "👋": 4954,
      "👌": 4955,
      "👍": 4956,
      "👎": 4957,
      "👏": 4958,
      "👐": 4959,
      "👑": 4960,
      "👔": 4961,
      "👜": 4962,
      "👣": 4963,
      "👤": 4964,
      "👥": 4965,
      "👦": 4966,
      "👧": 4967,
      "👨": 4968,
      "👩": 4969,
      "👪": 4970,
      "👫": 4971,
      "👭": 4972,
      "👮": 4973,
      "👯": 4974,
      "👲": 4975,
      "👷": 4976,
      "👻": 4977,
      "👽": 4978,
      "👾": 4979,
      "💀": 4980,
      "💁": 4981,
      "💃": 4982,
      "💄": 4983,
      "💅": 4984,
      "💉": 4985,
      "💊": 4986,
      "💋": 4987,
      "💌": 4988,
      "💍": 4989,
      "💎": 4990,
      "💐": 4991,
      "💓": 4992,
      "💔": 4993,
      "💕": 4994,
      "💖": 4995,
      "💗": 4996,
      "💘": 4997,
      "💙": 4998,
      "💚": 4999,
      "💛": 5000,
      "💜": 5001,
      "💝": 5002,
      "💟": 5003,
      "💠": 5004,
      "💡": 5005,
      "💢": 5006,
      "💣": 5007,
      "💤": 5008,
      "💥": 5009,
      "💦": 5010,
      "💧": 5011,
      "💨": 5012,
      "💩": 5013,
      "💪": 5014,
      "💫": 5015,
      "💬": 5016,
      "💭": 5017,
      "💯": 5018,
      "💱": 5019,
      "💲": 5020,
      "💳": 5021,
      "💴": 5022,
      "💵": 5023,
      "💶": 5024,
      "💷": 5025,
      "💸": 5026,
      "💹": 5027,
      "💻": 5028,
      "💼": 5029,
      "💽": 5030,
      "💾": 5031,
      "💿": 5032,
      "📀": 5033,
      "📁": 5034,
      "📂": 5035,
      "📃": 5036,
      "📄": 5037,
      "📅": 5038,
      "📆": 5039,
      "📇": 5040,
      "📈": 5041,
      "📊": 5042,
      "📋": 5043,
      "📌": 5044,
      "📍": 5045,
      "📎": 5046,
      "📏": 5047,
      "📐": 5048,
      "📑": 5049,
      "📒": 5050,
      "📓": 5051,
      "📔": 5052,
      "📕": 5053,
      "📖": 5054,
      "📗": 5055,
      "📘": 5056,
      "📙": 5057,
      "📚": 5058,
      "📜": 5059,
      "📝": 5060,
      "📟": 5061,
      "📠": 5062,
      "📡": 5063,
      "📢": 5064,
      "📣": 5065,
      "📤": 5066,
      "📥": 5067,
      "📦": 5068,
      "📧": 5069,
      "📨": 5070,
      "📩": 5071,
      "📫": 5072,
      "📭": 5073,
      "📰": 5074,
      "📱": 5075,
      "📲": 5076,
      "📶": 5077,
      "📷": 5078,
      "📸": 5079,
      "📹": 5080,
      "📺": 5081,
      "🔀": 5082,
      "🔁": 5083,
      "🔂": 5084,
      "🔃": 5085,
      "🔄": 5086,
      "🔆": 5087,
      "🔈": 5088,
      "🔊": 5089,
      "🔋": 5090,
      "🔌": 5091,
      "🔍": 5092,
      "🔎": 5093,
      "🔏": 5094,
      "🔐": 5095,
      "🔑": 5096,
      "🔒": 5097,
      "🔓": 5098,
      "🔔": 5099,
      "🔖": 5100,
      "🔗": 5101,
      "🔘": 5102,
      "🔜": 5103,
      "🔠": 5104,
      "🔢": 5105,
      "🔣": 5106,
      "🔤": 5107,
      "🔥": 5108,
      "🔦": 5109,
      "🔧": 5110,
      "🔨": 5111,
      "🔩": 5112,
      "🔪": 5113,
      "🔫": 5114,
      "🔬": 5115,
      "🔭": 5116,
      "🔮": 5117,
      "🔰": 5118,
      "🔱": 5119,
      "🔲": 5120,
      "🔳": 5121,
      "🔴": 5122,
      "🔵": 5123,
      "🔶": 5124,
      "🔸": 5125,
      "🔹": 5126,
      "🔺": 5127,
      "🔼": 5128,
      "🔽": 5129,
      "🕊": 5130,
      "🕐": 5131,
      "🕑": 5132,
      "🕒": 5133,
      "🕘": 5134,
      "🕙": 5135,
      "🕛": 5136,
      "🕜": 5137,
      "🕝": 5138,
      "🕥": 5139,
      "🕧": 5140,
      "🕮": 5141,
      "🕯": 5142,
      "🕴": 5143,
      "🕵": 5144,
      "🕶": 5145,
      "🕷": 5146,
      "🕸": 5147,
      "🕹": 5148,
      "🕺": 5149,
      "🖋": 5150,
      "🖌": 5151,
      "🖖": 5152,
      "🖤": 5153,
      "🖥": 5154,
      "🖨": 5155,
      "🖱": 5156,
      "🖼": 5157,
      "🗂": 5158,
      "🗃": 5159,
      "🗄": 5160,
      "🗎": 5161,
      "🗑": 5162,
      "🗒": 5163,
      "🗓": 5164,
      "🗙": 5165,
      "🗜": 5166,
      "🗝": 5167,
      "🗠": 5168,
      "🗡": 5169,
      "🗣": 5170,
      "🗨": 5171,
      "🗩": 5172,
      "🗲": 5173,
      "🗸": 5174,
      "🗺": 5175,
      "🗼": 5176,
      "🗽": 5177,
      "😀": 5178,
      "😁": 5179,
      "😂": 5180,
      "😃": 5181,
      "😄": 5182,
      "😅": 5183,
      "😆": 5184,
      "😇": 5185,
      "😈": 5186,
      "😉": 5187,
      "😊": 5188,
      "😋": 5189,
      "😌": 5190,
      "😍": 5191,
      "😎": 5192,
      "😏": 5193,
      "😐": 5194,
      "😒": 5195,
      "😓": 5196,
      "😔": 5197,
      "😕": 5198,
      "😖": 5199,
      "😗": 5200,
      "😘": 5201,
      "😚": 5202,
      "😛": 5203,
      "😜": 5204,
      "😝": 5205,
      "😞": 5206,
      "😡": 5207,
      "😢": 5208,
      "😥": 5209,
      "😧": 5210,
      "😨": 5211,
      "😩": 5212,
      "😫": 5213,
      "😬": 5214,
      "😭": 5215,
      "😮": 5216,
      "😯": 5217,
      "😱": 5218,
      "😲": 5219,
      "😳": 5220,
      "😴": 5221,
      "😵": 5222,
      "😶": 5223,
      "😺": 5224,
      "😻": 5225,
      "😼": 5226,
      "🙁": 5227,
      "🙂": 5228,
      "🙃": 5229,
      "🙄": 5230,
      "🙆": 5231,
      "🙇": 5232,
      "🙈": 5233,
      "🙉": 5234,
      "🙋": 5235,
      "🙌": 5236,
      "🙏": 5237,
      "🚀": 5238,
      "🚁": 5239,
      "🚂": 5240,
      "🚄": 5241,
      "🚇": 5242,
      "🚉": 5243,
      "🚋": 5244,
      "🚍": 5245,
      "🚑": 5246,
      "🚕": 5247,
      "🚗": 5248,
      "🚚": 5249,
      "🚡": 5250,
      "🚢": 5251,
      "🚣": 5252,
      "🚥": 5253,
      "🚦": 5254,
      "🚧": 5255,
      "🚨": 5256,
      "🚩": 5257,
      "🚪": 5258,
      "🚫": 5259,
      "🚲": 5260,
      "🚴": 5261,
      "🚶": 5262,
      "🚸": 5263,
      "🚽": 5264,
      "🛈": 5265,
      "🛌": 5266,
      "🛎": 5267,
      "🛑": 5268,
      "🛠": 5269,
      "🛡": 5270,
      "🛢": 5271,
      "🛤": 5272,
      "🛩": 5273,
      "🛫": 5274,
      "🛬": 5275,
      "🛰": 5276,
      "🛳": 5277,
      "🛸": 5278,
      "🛹": 5279,
      "🞂": 5280,
      "🞅": 5281,
      "🞈": 5282,
      "🟊": 5283,
      "🟠": 5284,
      "🟡": 5285,
      "🟢": 5286,
      "🟣": 5287,
      "🟥": 5288,
      "🟦": 5289,
      "🟧": 5290,
      "🟨": 5291,
      "🟩": 5292,
      "🟪": 5293,
      "🟫": 5294,
      "🠕": 5295,
      "🠗": 5296,
      "🢅": 5297,
      "🢒": 5298,
      "🤌": 5299,
      "🤏": 5300,
      "🤐": 5301,
      "🤑": 5302,
      "🤓": 5303,
      "🤔": 5304,
      "🤖": 5305,
      "🤗": 5306,
      "🤘": 5307,
      "🤙": 5308,
      "🤚": 5309,
      "🤛": 5310,
      "🤜": 5311,
      "🤝": 5312,
      "🤞": 5313,
      "🤟": 5314,
      "🤠": 5315,
      "🤢": 5316,
      "🤣": 5317,
      "🤤": 5318,
      "🤦": 5319,
      "🤨": 5320,
      "🤩": 5321,
      "🤪": 5322,
      "🤫": 5323,
      "🤬": 5324,
      "🤭": 5325,
      "🤯": 5326,
      "🤲": 5327,
      "🤳": 5328,
      "🤷": 5329,
      "🤸": 5330,
      "🤹": 5331,
      "🤿": 5332,
      "🥁": 5333,
      "🥂": 5334,
      "🥇": 5335,
      "🥐": 5336,
      "🥒": 5337,
      "🥓": 5338,
      "🥖": 5339,
      "🥗": 5340,
      "🥘": 5341,
      "🥚": 5342,
      "🥞": 5343,
      "🥠": 5344,
      "🥣": 5345,
      "🥧": 5346,
      "🥩": 5347,
      "🥪": 5348,
      "🥬": 5349,
      "🥯": 5350,
      "🥲": 5351,
      "🥳": 5352,
      "🥷": 5353,
      "🥸": 5354,
      "🥺": 5355,
      "🥼": 5356,
      "🥽": 5357,
      "🦀": 5358,
      "🦃": 5359,
      "🦄": 5360,
      "🦅": 5361,
      "🦆": 5362,
      "🦈": 5363,
      "🦉": 5364,
      "🦊": 5365,
      "🦋": 5366,
      "🦌": 5367,
      "🦎": 5368,
      "🦐": 5369,
      "🦑": 5370,
      "🦔": 5371,
      "🦕": 5372,
      "🦖": 5373,
      "🦘": 5374,
      "🦙": 5375,
      "🦚": 5376,
      "🦜": 5377,
      "🦝": 5378,
      "🦞": 5379,
      "🦢": 5380,
      "🦤": 5381,
      "🦥": 5382,
      "🦦": 5383,
      "🦫": 5384,
      "🦮": 5385,
      "🦯": 5386,
      "🦲": 5387,
      "🦸": 5388,
      "🦺": 5389,
      "🦾": 5390,
      "🧀": 5391,
      "🧂": 5392,
      "🧃": 5393,
      "🧅": 5394,
      "🧊": 5395,
      "🧋": 5396,
      "🧍": 5397,
      "🧐": 5398,
      "🧑": 5399,
      "🧔": 5400,
      "🧙": 5401,
      "🧛": 5402,
      "🧞": 5403,
      "🧟": 5404,
      "🧠": 5405,
      "🧡": 5406,
      "🧢": 5407,
      "🧣": 5408,
      "🧦": 5409,
      "🧨": 5410,
      "🧩": 5411,
      "🧪": 5412,
      "🧬": 5413,
      "🧭": 5414,
      "🧮": 5415,
      "🧰": 5416,
      "🧱": 5417,
      "🧲": 5418,
      "🧵": 5419,
      "🧶": 5420,
      "🧷": 5421,
      "🧸": 5422,
      "🧹": 5423,
      "🧼": 5424,
      "🧾": 5425,
      "🩳": 5426,
      "🩸": 5427,
      "🩹": 5428,
      "🩺": 5429,
      "🪀": 5430,
      "🪂": 5431,
      "🪃": 5432,
      "🪄": 5433,
      "🪆": 5434,
      "🪐": 5435,
      "🪓": 5436,
      "🪙": 5437,
      "🪛": 5438,
      "🪜": 5439,
      "🪟": 5440,
      "🪦": 5441,
      "🪧": 5442,
      "🪪": 5443,
      "🪲": 5444,
      "🪳": 5445,
      "🪶": 5446,
      "🪸": 5447,
      "🫀": 5448,
      "🫂": 5449,
      "🫡": 5450,
      "##a": 5451,
      "##g": 5452,
      "##e": 5453,
      "##i": 5454,
      "##d": 5455,
      "##r": 5456,
      "##n": 5457,
      "##z": 5458,
      "##o": 5459,
      "##x": 5460,
      "##9": 5461,
      "##0": 5462,
      "##6": 5463,
      "##t": 5464,
      "##s": 5465,
      "##c": 5466,
      "##l": 5467,
      "##b": 5468,
      "##y": 5469,
      "##4": 5470,
      "##p": 5471,
      "##m": 5472,
      "##1": 5473,
      "##5": 5474,
      "##7": 5475,
      "##u": 5476,
      "##f": 5477,
      "##2": 5478,
      "##3": 5479,
      "##h": 5480,
      "##v": 5481,
      "##w": 5482,
      "##⠼": 5483,
      "##⠛": 5484,
      "##て": 5485,
      "##は": 5486,
      "##れ": 5487,
      "##ま": 5488,
      "##す": 5489,
      "##の": 5490,
      "##q": 5491,
      "##k": 5492,
      "##8": 5493,
      "##и": 5494,
      "##р": 5495,
      "##た": 5496,
      "##j": 5497,
      "##┄": 5498,
      "##æ": 5499,
      "##þ": 5500,
      "##б": 5501,
      "##ъ": 5502,
      "##е": 5503,
      "##д": 5504,
      "##н": 5505,
      "##т": 5506,
      "##ь": 5507,
      "##đ": 5508,
      "##か": 5509,
      "##α": 5510,
      "##β": 5511,
      "##ε": 5512,
      "##в": 5513,
      "##о": 5514,
      "##ы": 5515,
      "##ッ": 5516,
      "##ク": 5517,
      "##ア": 5518,
      "##フ": 5519,
      "##ᅵ": 5520,
      "##ᄒ": 5521,
      "##ᅢ": 5522,
      "##ᅡ": 5523,
      "##ᄂ": 5524,
      "##ᅳ": 5525,
      "##ᆫ": 5526,
      "##─": 5527,
      "##┘": 5528,
      "##а": 5529,
      "##с": 5530,
      "##ф": 5531,
      "##м": 5532,
      "##ц": 5533,
      "##ю": 5534,
      "##を": 5535,
      "##₽": 5536,
      "##┼": 5537,
      "##┤": 5538,
      "##×": 5539,
      "##▄": 5540,
      "##█": 5541,
      "##▀": 5542,
      "##る": 5543,
      "##と": 5544,
      "##ᵤ": 5545,
      "##ₜ": 5546,
      "##₁": 5547,
      "##せ": 5548,
      "##ん": 5549,
      "##✨": 5550,
      "##つ": 5551,
      "##ⵜ": 5552,
      "##к": 5553,
      "##у": 5554,
      "##も": 5555,
      "##シ": 5556,
      "##ョ": 5557,
      "##ー": 5558,
      "##ソ": 5559,
      "##ト": 5560,
      "##л": 5561,
      "##く": 5562,
      "##さ": 5563,
      "##い": 5564,
      "##═": 5565,
      "##╤": 5566,
      "##╗": 5567,
      "##し": 5568,
      "##ツ": 5569,
      "##ね": 5570,
      "##µ": 5571,
      "##╯": 5572,
      "##ᄀ": 5573,
      "##ᆯ": 5574,
      "##░": 5575,
      "##⣠": 5576,
      "##⠴": 5577,
      "##⠋": 5578,
      "##⠈": 5579,
      "##⠁": 5580,
      "##⠑": 5581,
      "##⠃": 5582,
      "##⠸": 5583,
      "##⢄": 5584,
      "##ᄉ": 5585,
      "##ᄋ": 5586,
      "##ᅣ": 5587,
      "##ホ": 5588,
      "##オ": 5589,
      "##ン": 5590,
      "##ч": 5591,
      "##™": 5592,
      "##ᅧ": 5593,
      "##ᆼ": 5594,
      "##ᄅ": 5595,
      "##ᄎ": 5596,
      "##ᅥ": 5597,
      "##ß": 5598,
      "##ħ": 5599,
      "##ı": 5600,
      "##ĳ": 5601,
      "##ĸ": 5602,
      "##ŀ": 5603,
      "##ł": 5604,
      "##¤": 5605,
      "##ŋ": 5606,
      "##œ": 5607,
      "##ŧ": 5608,
      "##ſ": 5609,
      "##ɲ": 5610,
      "##ŉ": 5611,
      "##®": 5612,
      "##з": 5613,
      "##щ": 5614,
      "##х": 5615,
      "##ₖ": 5616,
      "##я": 5617,
      "##ｱ": 5618,
      "##ｲ": 5619,
      "##ｳ": 5620,
      "##ᛆ": 5621,
      "##ᚦ": 5622,
      "##ᚽ": 5623,
      "##ᚱ": 5624,
      "##ﾝ": 5625,
      "##ｶ": 5626,
      "##ｸ": 5627,
      "##ﾅ": 5628,
      "##∎": 5629,
      "##⠀": 5630,
      "##⠽": 5631,
      "##⢿": 5632,
      "##⠚": 5633,
      "##⠿": 5634,
      "##⡿": 5635,
      "##⣿": 5636,
      "##⠙": 5637,
      "##⠘": 5638,
      "##⠫": 5639,
      "##⠉": 5640,
      "##п": 5641,
      "##ᅮ": 5642,
      "##ᄆ": 5643,
      "##ᆷ": 5644,
      "##ᄐ": 5645,
      "##ᅩ": 5646,
      "##ｅ": 5647,
      "##ｖ": 5648,
      "##ｎ": 5649,
      "##ｕ": 5650,
      "##コ": 5651,
      "##😺": 5652,
      "##ち": 5653,
      "##よ": 5654,
      "##ょ": 5655,
      "##う": 5656,
      "##│": 5657,
      "##г": 5658,
      "##ᆨ": 5659,
      "##ᅴ": 5660,
      "##ᆻ": 5661,
      "##ᆸ": 5662,
      "##ᄃ": 5663,
      "##🏿": 5664,
      "##👇": 5665,
      "##🏾": 5666,
      "##👈": 5667,
      "##ค": 5668,
      "##ด": 5669,
      "##น": 5670,
      "##ส": 5671,
      "##า": 5672,
      "##ม": 5673,
      "##ร": 5674,
      "##ถ": 5675,
      "##แ": 5676,
      "##ก": 5677,
      "##ไ": 5678,
      "##ข": 5679,
      "##ล": 5680,
      "##ะ": 5681,
      "##セ": 5682,
      "##テ": 5683,
      "##ィ": 5684,
      "##エ": 5685,
      "##あ": 5686,
      "##め": 5687,
      "##ロ": 5688,
      "##ハ": 5689,
      "##な": 5690,
      "##り": 5691,
      "##▼": 5692,
      "##┐": 5693,
      "##║": 5694,
      "##𝝰": 5695,
      "##𝝼": 5696,
      "##𝞂": 5697,
      "##ᚾ": 5698,
      "##ж": 5699,
      "##●": 5700,
      "##±": 5701,
      "##²": 5702,
      "##³": 5703,
      "##´": 5704,
      "##┴": 5705,
      "##ら": 5706,
      "##ш": 5707,
      "##⡠": 5708,
      "##⠤": 5709,
      "##⢤": 5710,
      "##⢞": 5711,
      "##┬": 5712,
      "##ₓ": 5713,
      "##リ": 5714,
      "##ا": 5715,
      "##ب": 5716,
      "##ل": 5717,
      "##ی": 5718,
      "##ت": 5719,
      "##₄": 5720,
      "##イ": 5721,
      "##キ": 5722,
      "##に": 5723,
      "##き": 5724,
      "##ラ": 5725,
      "##ɪ": 5726,
      "##チ": 5727,
      "##ェ": 5728,
      "##і": 5729,
      "##🦄": 5730,
      "##𝖺": 5731,
      "##𝗇": 5732,
      "##𝗌": 5733,
      "##╔": 5734,
      "##╝": 5735,
      "##╰": 5736,
      "##₃": 5737,
      "##サ": 5738,
      "##ᄇ": 5739,
      "##レ": 5740,
      "##ᅦ": 5741,
      "##ᅬ": 5742,
      "##ᄌ": 5743,
      "##⡏": 5744,
      "##ル": 5745,
      "##▒": 5746,
      "##お": 5747,
      "##こ": 5748,
      "##λ": 5749,
      "##ャ": 5750,
      "##ナ": 5751,
      "##ァ": 5752,
      "##ス": 5753,
      "##ム": 5754,
      "##ォ": 5755,
      "##マ": 5756,
      "##₂": 5757,
      "##タ": 5758,
      "##ウ": 5759,
      "##⢲": 5760,
      "##╢": 5761,
      "##モ": 5762,
      "##╮": 5763,
      "##ו": 5764,
      "##♀": 5765,
      "##⡇": 5766,
      "##⢻": 5767,
      "##っ": 5768,
      "##▊": 5769,
      "##👉": 5770,
      "##🏽": 5771,
      "##🏼": 5772,
      "##🏻": 5773,
      "##ュ": 5774,
      "##😘": 5775,
      "##🔥": 5776,
      "##°": 5777,
      "##ᅯ": 5778,
      "##ᄏ": 5779,
      "##♂": 5780,
      "##ᅭ": 5781,
      "##⃣": 5782,
      "##⡆": 5783,
      "##▓": 5784,
      "##💖": 5785,
      "##や": 5786,
      "##ヒ": 5787,
      "##💯": 5788,
      "##¹": 5789,
      "##ㅋ": 5790,
      "##⢰": 5791,
      "##⣒": 5792,
      "##⢶": 5793,
      "##⡦": 5794,
      "##⠒": 5795,
      "##ω": 5796,
      "##╩": 5797,
      "##━": 5798,
      "##┻": 5799,
      "##┓": 5800,
      "##⢴": 5801,
      "##⣶": 5802,
      "##⣦": 5803,
      "##⠟": 5804,
      "##⋆": 5805,
      "##ρ": 5806,
      "##⌘": 5807,
      "##↑": 5808,
      "##ᆲ": 5809,
      "##⡀": 5810,
      "##⡄": 5811,
      "##₉": 5812,
      "##₇": 5813,
      "##₀": 5814,
      "##μ": 5815,
      "##ワ": 5816,
      "##け": 5817,
      "##🟦": 5818,
      "##メ": 5819,
      "##🦺": 5820,
      "##ヨ": 5821,
      "##▏": 5822,
      "##¢": 5823,
      "##⠱": 5824,
      "##ᄑ": 5825,
      "##🏟": 5826,
      "##⠏": 5827,
      "##▚": 5828,
      "##⏱": 5829,
      "##💪": 5830,
      "##⢀": 5831,
      "##⢬": 5832,
      "##⢪": 5833,
      "##⡪": 5834,
      "##⡎": 5835,
      "##⣆": 5836,
      "##⡈": 5837,
      "##⠜": 5838,
      "##⠕": 5839,
      "##⠇": 5840,
      "##⠗": 5841,
      "##⠝": 5842,
      "##⢕": 5843,
      "##⢯": 5844,
      "##⢫": 5845,
      "##⣞": 5846,
      "##⣯": 5847,
      "##⣻": 5848,
      "##⡽": 5849,
      "##⣏": 5850,
      "##⢗": 5851,
      "##⣗": 5852,
      "##└": 5853,
      "##╬": 5854,
      "##╪": 5855,
      "##╣": 5856,
      "##🤩": 5857,
      "##😝": 5858,
      "##😎": 5859,
      "##👆": 5860,
      "##⢼": 5861,
      "##⣀": 5862,
      "##⡤": 5863,
      "##ₛ": 5864,
      "##ᅨ": 5865,
      "##€": 5866,
      "##ე": 5867,
      "##ჷ": 5868,
      "##🐾": 5869,
      "##ː": 5870,
      "##ə": 5871,
      "##ɹ": 5872,
      "##ⴌ": 5873,
      "##ⴘ": 5874,
      "##🇷": 5875,
      "##ᅪ": 5876,
      "##🇿": 5877,
      "##ネ": 5878,
      "##ﾟ": 5879,
      "##ヮ": 5880,
      "##ᅲ": 5881,
      "##ى": 5882,
      "##ミ": 5883,
      "##カ": 5884,
      "##⣟": 5885,
      "##⢒": 5886,
      "##→": 5887,
      "##⁻": 5888,
      "##ₗ": 5889,
      "##🇭": 5890,
      "##ι": 5891,
      "##ϰ": 5892,
      "##⠳": 5893,
      "##👩": 5894,
      "##👧": 5895,
      "##👦": 5896,
      "##▎": 5897,
      "##▶": 5898,
      "##ᵢ": 5899,
      "##₊": 5900,
      "##อ": 5901,
      "##ง": 5902,
      "##ป": 5903,
      "##ช": 5904,
      "##♖": 5905,
      "##♗": 5906,
      "##♘": 5907,
      "##♙": 5908,
      "##♚": 5909,
      "##ن": 5910,
      "##ه": 5911,
      "##ケ": 5912,
      "##ⁿ": 5913,
      "##🧦": 5914,
      "##⁴": 5915,
      "##⁵": 5916,
      "##╧": 5917,
      "##２": 5918,
      "##０": 5919,
      "##௫": 5920,
      "##╚": 5921,
      "##｜": 5922,
      "##⋯": 5923,
      "##ᵧ": 5924,
      "##ₙ": 5925,
      "##₥": 5926,
      "##ƭ": 5927,
      "##⎺": 5928,
      "##╼": 5929,
      "##┖": 5930,
      "##╅": 5931,
      "##┺": 5932,
      "##┶": 5933,
      "##◫": 5934,
      "##┹": 5935,
      "##◪": 5936,
      "##┲": 5937,
      "##┧": 5938,
      "##┦": 5939,
      "##💻": 5940,
      "##🐙": 5941,
      "##⏤": 5942,
      "##►": 5943,
      "##┗": 5944,
      "##┛": 5945,
      "##ニ": 5946,
      "##ₘ": 5947,
      "##ₚ": 5948,
      "##ｓ": 5949,
      "##ｔ": 5950,
      "##✅": 5951,
      "##🙂": 5952,
      "##𝙤": 5953,
      "##𝙠": 5954,
      "##𝕠": 5955,
      "##𝕦": 5956,
      "##𝕓": 5957,
      "##𝕝": 5958,
      "##𝕖": 5959,
      "##♣": 5960,
      "##↓": 5961,
      "##⠢": 5962,
      "##♦": 5963,
      "##🚀": 5964,
      "##🇮": 5965,
      "##╭": 5966,
      "##ｈ": 5967,
      "##ｉ": 5968,
      "##ｃ": 5969,
      "##♠": 5970,
      "##½": 5971,
      "##⣾": 5972,
      "##₅": 5973,
      "##そ": 5974,
      "##ₑ": 5975,
      "##╴": 5976,
      "##ᄁ": 5977,
      "##┌": 5978,
      "##া": 5979,
      "##ল": 5980,
      "##ি": 5981,
      "##ক": 5982,
      "##⠄": 5983,
      "##ο": 5984,
      "##🌖": 5985,
      "##🌗": 5986,
      "##🌘": 5987,
      "##🌑": 5988,
      "##ﾞ": 5989,
      "##ｼ": 5990,
      "##ｮ": 5991,
      "##⢷": 5992,
      "##♪": 5993,
      "##🥺": 5994,
      "##⠯": 5995,
      "##⢍": 5996,
      "##ᅱ": 5997,
      "##ᛚ": 5998,
      "##ᚵ": 5999,
      "##ひ": 6000,
      "##𝝴": 6001,
      "##𝞀": 6002,
      "##𝝸": 6003,
      "##𝞅": 6004,
      "##🌈": 6005,
      "##£": 6006,
      "##٣": 6007,
      "##🌫": 6008,
      "##ғ": 6009,
      "##╌": 6010,
      "##▋": 6011,
      "##𝒕": 6012,
      "##𝒂": 6013,
      "##𝒍": 6014,
      "##𝒊": 6015,
      "##𝒄": 6016,
      "##🟩": 6017,
      "##🟨": 6018,
      "##ヘ": 6019,
      "##┫": 6020,
      "##ⱼ": 6021,
      "##∈": 6022,
      "##π": 6023,
      "##▌": 6024,
      "##⠨": 6025,
      "##⣺": 6026,
      "##⡺": 6027,
      "##⡕": 6028,
      "##⡱": 6029,
      "##⡑": 6030,
      "##⡅": 6031,
      "##⡜": 6032,
      "##⡼": 6033,
      "##⢽": 6034,
      "##⡻": 6035,
      "##💨": 6036,
      "##ユ": 6037,
      "##γ": 6038,
      "##🔮": 6039,
      "##💩": 6040,
      "##⡟": 6041,
      "##⡾": 6042,
      "##⢵": 6043,
      "##⣽": 6044,
      "##⣼": 6045,
      "##⣘": 6046,
      "##⢸": 6047,
      "##ჳ": 6048,
      "##╦": 6049,
      "##◯": 6050,
      "##ａ": 6051,
      "##ｂ": 6052,
      "##ѕ": 6053,
      "##ј": 6054,
      "##⚡": 6055,
      "##ᛞ": 6056,
      "##ᛖ": 6057,
      "##▇": 6058,
      "##💤": 6059,
      "##▂": 6060,
      "##▆": 6061,
      "##▁": 6062,
      "##ð": 6063,
      "##🇪": 6064,
      "##🇬": 6065,
      "##🇧": 6066,
      "##𝓬": 6067,
      "##𝓻": 6068,
      "##𝓲": 6069,
      "##𝓹": 6070,
      "##𝓽": 6071,
      "##ᐟ": 6072,
      "##เ": 6073,
      "##ย": 6074,
      "##ว": 6075,
      "##⠺": 6076,
      "##⠥": 6077,
      "##⠞": 6078,
      "##🚧": 6079,
      "##⬛": 6080,
      "##⌒": 6081,
      "##📦": 6082,
      "##✌": 6083,
      "##😜": 6084,
      "##𝕥": 6085,
      "##𝕣": 6086,
      "##𝕔": 6087,
      "##𝕜": 6088,
      "##ל": 6089,
      "##ם": 6090,
      "##⠻": 6091,
      "##ø": 6092,
      "##ｇ": 6093,
      "##ふ": 6094,
      "##わ": 6095,
      "##へ": 6096,
      "##〇": 6097,
      "##↨": 6098,
      "##←": 6099,
      "##∟": 6100,
      "##↔": 6101,
      "##▲": 6102,
      "##🇦": 6103,
      "##♥": 6104,
      "##प": 6105,
      "##ि": 6106,
      "##त": 6107,
      "##ो": 6108,
      "##⁷": 6109,
      "##╥": 6110,
      "##╙": 6111,
      "##╘": 6112,
      "##╒": 6113,
      "##╓": 6114,
      "##╫": 6115,
      "##▐": 6116,
      "##ろ": 6117,
      "##ノ": 6118,
      "##✓": 6119,
      "##τ": 6120,
      "##ν": 6121,
      "##ز": 6122,
      "##╡": 6123,
      "##🛸": 6124,
      "##１": 6125,
      "##₈": 6126,
      "##ر": 6127,
      "##ℓ": 6128,
      "##🚚": 6129,
      "##🚗": 6130,
      "##◟": 6131,
      "##🤪": 6132,
      "##꣖": 6133,
      "##፩": 6134,
      "##፻": 6135,
      "##፲": 6136,
      "##⢓": 6137,
      "##⡶": 6138,
      "##ゃ": 6139,
      "##み": 6140,
      "##ⴼ": 6141,
      "##ⵊ": 6142,
      "##ⵍ": 6143,
      "##𝔶": 6144,
      "##ي": 6145,
      "##م": 6146,
      "##ع": 6147,
      "##ك": 6148,
      "##و": 6149,
      "##د": 6150,
      "##ف": 6151,
      "##س": 6152,
      "##ق": 6153,
      "##ث": 6154,
      "##ش": 6155,
      "##⚠": 6156,
      "##⢣": 6157,
      "##😈": 6158,
      "##🇵": 6159,
      "##□": 6160,
      "##┯": 6161,
      "##ᆺ": 6162,
      "##₋": 6163,
      "##₆": 6164,
      "##🏭": 6165,
      "##ȝ": 6166,
      "##न": 6167,
      "##म": 6168,
      "##स": 6169,
      "##📺": 6170,
      "##🤚": 6171,
      "##❄": 6172,
      "##พ": 6173,
      "##፷": 6174,
      "##፮": 6175,
      "##⣰": 6176,
      "##ᆽ": 6177,
      "##σ": 6178,
      "##φ": 6179,
      "##θ": 6180,
      "##δ": 6181,
      "##∞": 6182,
      "##∩": 6183,
      "##ⴷ": 6184,
      "##ⴺ": 6185,
      "##♢": 6186,
      "##♤": 6187,
      "##♧": 6188,
      "##★": 6189,
      "##○": 6190,
      "##■": 6191,
      "##☆": 6192,
      "##◇": 6193,
      "##♡": 6194,
      "##⚐": 6195,
      "##◀": 6196,
      "##◁": 6197,
      "##🇱": 6198,
      "##ძ": 6199,
      "##ი": 6200,
      "##┨": 6201,
      "##ʌ": 6202,
      "##⢚": 6203,
      "##🐕": 6204,
      "##🏎": 6205,
      "##⡞": 6206,
      "##👍": 6207,
      "##∗": 6208,
      "##💦": 6209,
      "##🦲": 6210,
      "##🧔": 6211,
      "##ד": 6212,
      "##ר": 6213,
      "##ב": 6214,
      "##🤝": 6215,
      "##👨": 6216,
      "##🦀": 6217,
      "##ᆰ": 6218,
      "##ং": 6219,
      "##👌": 6220,
      "##😁": 6221,
      "##😍": 6222,
      "##❤": 6223,
      "##💕": 6224,
      "##🎶": 6225,
      "##😏": 6226,
      "##＾": 6227,
      "##ˈ": 6228,
      "##ぬ": 6229,
      "##▗": 6230,
      "##🔦": 6231,
      "##🎲": 6232,
      "##🐬": 6233,
      "##🍀": 6234,
      "##🍟": 6235,
      "##🔋": 6236,
      "##🎁": 6237,
      "##💧": 6238,
      "##👂": 6239,
      "##🚪": 6240,
      "##👣": 6241,
      "##🌍": 6242,
      "##🍤": 6243,
      "##🐗": 6244,
      "##υ": 6245,
      "##−": 6246,
      "##ำ": 6247,
      "##⣭": 6248,
      "##⠶": 6249,
      "##🤔": 6250,
      "##🇹": 6251,
      "##⋅": 6252,
      "##え": 6253,
      "##💀": 6254,
      "##✝": 6255,
      "##🟪": 6256,
      "##⁄": 6257,
      "##𝑟": 6258,
      "##𝑒": 6259,
      "##𝑚": 6260,
      "##𝑎": 6261,
      "##𝑝": 6262,
      "##＜": 6263,
      "##¯": 6264,
      "##๑": 6265,
      "##🌌": 6266,
      "##🕹": 6267,
      "##⢙": 6268,
      "##⡯": 6269,
      "##ｏ": 6270,
      "##ｒ": 6271,
      "##⡁": 6272,
      "##🇸": 6273,
      "##ɐ": 6274,
      "##ذ": 6275,
      "##ة": 6276,
      "##خ": 6277,
      "##ص": 6278,
      "##ض": 6279,
      "##ء": 6280,
      "##η": 6281,
      "##κ": 6282,
      "##χ": 6283,
      "##ς": 6284,
      "##🐵": 6285,
      "##ा": 6286,
      "##ख": 6287,
      "##😅": 6288,
      "##🇺": 6289,
      "##ᛁ": 6290,
      "##ヽ": 6291,
      "##ߚ": 6292,
      "##▃": 6293,
      "##▅": 6294,
      "##ᆮ": 6295,
      "##🌟": 6296,
      "##ⓝ": 6297,
      "##ᛅ": 6298,
      "##ᛒ": 6299,
      "##ᛋ": 6300,
      "##ᛏ": 6301,
      "##ᚠ": 6302,
      "##ᚴ": 6303,
      "##ᚼ": 6304,
      "##ᛘ": 6305,
      "##ᚢ": 6306,
      "##҉": 6307,
      "##🌸": 6308,
      "##⢳": 6309,
      "##ᄍ": 6310,
      "##ⓡ": 6311,
      "##𝔂": 6312,
      "##ȥ": 6313,
      "##ґ": 6314,
      "##☕": 6315,
      "##ᚻ": 6316,
      "##ᚷ": 6317,
      "##ɑ": 6318,
      "##🏃": 6319,
      "##♭": 6320,
      "##𝓸": 6321,
      "##𝓵": 6322,
      "##𝓭": 6323,
      "##▝": 6324,
      "##▟": 6325,
      "##▘": 6326,
      "##ͱ": 6327,
      "##㎞": 6328,
      "##↵": 6329,
      "##ש": 6330,
      "##י": 6331,
      "##ⵙ": 6332,
      "##ⓐ": 6333,
      "##⤵": 6334,
      "##֍": 6335,
      "##֏": 6336,
      "##׹": 6337,
      "##⎞": 6338,
      "##𝓣": 6339,
      "##↴": 6340,
      "##🇳": 6341,
      "##ต": 6342,
      "##ա": 6343,
      "##ր": 6344,
      "##ե": 6345,
      "##վ": 6346,
      "##ᆭ": 6347,
      "##🔔": 6348,
      "##∅": 6349,
      "##⠖": 6350,
      "##⠷": 6351,
      "##🧑": 6352,
      "##ͳ": 6353,
      "##ௗ": 6354,
      "##㌀": 6355,
      "##০": 6356,
      "##৭": 6357,
      "##𝘢": 6358,
      "##𝘯": 6359,
      "##𝘴": 6360,
      "##⠓": 6361,
      "##º": 6362,
      "##⠔": 6363,
      "##⡮": 6364,
      "##⢱": 6365,
      "##╕": 6366,
      "##ゅ": 6367,
      "##⡷": 6368,
      "##⣛": 6369,
      "##⠂": 6370,
      "##ʲ": 6371,
      "##⠊": 6372,
      "##⣷": 6373,
      "##🐛": 6374,
      "##🦋": 6375,
      "##🇩": 6376,
      "##🚶": 6377,
      "##©": 6378,
      "##ψ": 6379,
      "##ⵃ": 6380,
      "##ⵝ": 6381,
      "##▖": 6382,
      "##▛": 6383,
      "##▜": 6384,
      "##✗": 6385,
      "##⣤": 6386,
      "##◼": 6387,
      "##┭": 6388,
      "##◷": 6389,
      "##▱": 6390,
      "##▙": 6391,
      "##┆": 6392,
      "##◌": 6393,
      "##🔗": 6394,
      "##╟": 6395,
      "##⢊": 6396,
      "##⠧": 6397,
      "##፼": 6398,
      "##ɒ": 6399,
      "##¼": 6400,
      "##🌭": 6401,
      "##𝙩": 6402,
      "##├": 6403,
      "##ｌ": 6404,
      "##🌙": 6405,
      "##ǝ": 6406,
      "##🤫": 6407,
      "##⡂": 6408,
      "##⡬": 6409,
      "##ᅫ": 6410,
      "##ᆶ": 6411,
      "##ᅤ": 6412,
      "##ᄈ": 6413,
      "##ᇂ": 6414,
      "##ᇁ": 6415,
      "##ʷ": 6416,
      "##ᆿ": 6417,
      "##ㅗ": 6418,
      "##😵": 6419,
      "##␛": 6420,
      "##🔑": 6421,
      "##🦆": 6422,
      "##🎵": 6423,
      "##🫂": 6424,
      "##⢆": 6425,
      "##र": 6426,
      "##ड": 6427,
      "##ℏ": 6428,
      "##🤙": 6429,
      "##🌼": 6430,
      "##🍄": 6431,
      "##🌿": 6432,
      "##💠": 6433,
      "##▾": 6434,
      "##˘": 6435,
      "##🇰": 6436,
      "##⡰": 6437,
      "##ヌ": 6438,
      "##ｄ": 6439,
      "##⠲": 6440,
      "##✧": 6441,
      "##य": 6442,
      "##ߙ": 6443,
      "##ߋ": 6444,
      "##ब": 6445,
      "##ح": 6446,
      "##¬": 6447,
      "##⚖": 6448,
      "##🔴": 6449,
      "##🚥": 6450,
      "##¾": 6451,
      "##𝍸": 6452,
      "##⢇": 6453,
      "##ა": 6454,
      "##მ": 6455,
      "##რ": 6456,
      "##ჯ": 6457,
      "##ო": 6458,
      "##ბ": 6459,
      "##┃": 6460,
      "##┳": 6461,
      "##⎟": 6462,
      "##🇼": 6463,
      "##⠰": 6464,
      "##⁶": 6465,
      "##⣸": 6466,
      "##⠆": 6467,
      "##ᇀ": 6468,
      "##⠭": 6469,
      "##➡": 6470,
      "##ᄄ": 6471,
      "##🌶": 6472,
      "##🖖": 6473,
      "##𝔢": 6474,
      "##𝔩": 6475,
      "##𝔭": 6476,
      "##▥": 6477,
      "##┷": 6478,
      "##ʇ": 6479,
      "##✋": 6480,
      "##😭": 6481,
      "##😚": 6482,
      "##🤟": 6483,
      "##𝗼": 6484,
      "##𝗹": 6485,
      "##𝗱": 6486,
      "##𝔞": 6487,
      "##𝔰": 6488,
      "##ⓔ": 6489,
      "##ⓛ": 6490,
      "##⢠": 6491,
      "##⣄": 6492,
      "##ៅ": 6493,
      "##ក": 6494,
      "##ន": 6495,
      "##ង": 6496,
      "##ា": 6497,
      "##រ": 6498,
      "##ប": 6499,
      "##អ": 6500,
      "##ជ": 6501,
      "##វ": 6502,
      "##ម": 6503,
      "##♨": 6504,
      "##⡴": 6505,
      "##ヤ": 6506,
      "##🌾": 6507,
      "##🐔": 6508,
      "##🐓": 6509,
      "##🐣": 6510,
      "##🐤": 6511,
      "##🐥": 6512,
      "##🐦": 6513,
      "##🐧": 6514,
      "##🕊": 6515,
      "##🦅": 6516,
      "##🦢": 6517,
      "##🦉": 6518,
      "##🦚": 6519,
      "##🦜": 6520,
      "##⢛": 6521,
      "##⡔": 6522,
      "##🍕": 6523,
      "##𝙖": 6524,
      "##𝙡": 6525,
      "##𝙞": 6526,
      "##𝙘": 6527,
      "##⣨": 6528,
      "##⣧": 6529,
      "##⣈": 6530,
      "##ᵣ": 6531,
      "##ʍ": 6532,
      "##▉": 6533,
      "##ʀ": 6534,
      "##🏴": 6535,
      "##☠": 6536,
      "##🔱": 6537,
      "##▽": 6538,
      "##｀": 6539,
      "##ט": 6540,
      "##ʊ": 6541,
      "##🇲": 6542,
      "##ㅅ": 6543,
      "##ㅇ": 6544,
      "##⠦": 6545,
      "##☮": 6546,
      "##ʎ": 6547,
      "##ᓇ": 6548,
      "##ซ": 6549,
      "##７": 6550,
      "##🐈": 6551,
      "##ƥ": 6552,
      "##ƨ": 6553,
      "##😩": 6554,
      "##ﾀ": 6555,
      "##ˉ": 6556,
      "##⠩": 6557,
      "##⠡": 6558,
      "##⠠": 6559,
      "##ी": 6560,
      "##ᚨ": 6561,
      "##ᛉ": 6562,
      "##🔧": 6563,
      "##𝖗": 6564,
      "##𝖆": 6565,
      "##𝖐": 6566,
      "##𝖙": 6567,
      "##𝖚": 6568,
      "##➤": 6569,
      "##ط": 6570,
      "##👁": 6571,
      "##⃤": 6572,
      "##স": 6573,
      "##୷": 6574,
      "##ས": 6575,
      "##ҕ": 6576,
      "##ၑ": 6577,
      "##ಟ": 6578,
      "##ဖ": 6579,
      "##௴": 6580,
      "##ϳ": 6581,
      "##ӻ": 6582,
      "##आ": 6583,
      "##इ": 6584,
      "##ԛ": 6585,
      "##џ": 6586,
      "##വ": 6587,
      "##ফ": 6588,
      "##ඤ": 6589,
      "##ળ": 6590,
      "##श": 6591,
      "##ϗ": 6592,
      "##ⴋ": 6593,
      "##ॳ": 6594,
      "##۹": 6595,
      "##ঙ": 6596,
      "##ఓ": 6597,
      "##ց": 6598,
      "##ʮ": 6599,
      "##ര": 6600,
      "##ౡ": 6601,
      "##ଣ": 6602,
      "##ౙ": 6603,
      "##ഗ": 6604,
      "##૩": 6605,
      "##ໜ": 6606,
      "##ໝ": 6607,
      "##औ": 6608,
      "##ཀ": 6609,
      "##ඨ": 6610,
      "##ɉ": 6611,
      "##ઉ": 6612,
      "##ທ": 6613,
      "##ઠ": 6614,
      "##ග": 6615,
      "##ऽ": 6616,
      "##ƽ": 6617,
      "##೪": 6618,
      "##ⴡ": 6619,
      "##ಔ": 6620,
      "##ດ": 6621,
      "##և": 6622,
      "##ѱ": 6623,
      "##ʟ": 6624,
      "##ॺ": 6625,
      "##ଅ": 6626,
      "##ի": 6627,
      "##ଢ": 6628,
      "##྾": 6629,
      "##ვ": 6630,
      "##ʭ": 6631,
      "##ମ": 6632,
      "##ԙ": 6633,
      "##उ": 6634,
      "##ଥ": 6635,
      "##ও": 6636,
      "##ϧ": 6637,
      "##ၺ": 6638,
      "##ழ": 6639,
      "##ဃ": 6640,
      "##൰": 6641,
      "##১": 6642,
      "##ⴍ": 6643,
      "##ᆹ": 6644,
      "##🛠": 6645,
      "##🕷": 6646,
      "##⣴": 6647,
      "##ᚩ": 6648,
      "##⢈": 6649,
      "##⠣": 6650,
      "##⡣": 6651,
      "##⡫": 6652,
      "##⣂": 6653,
      "##ल": 6654,
      "##𝗮": 6655,
      "##𝗻": 6656,
      "##𝘀": 6657,
      "##〵": 6658,
      "##⚧": 6659,
      "##😀": 6660,
      "##𝗲": 6661,
      "##𝗿": 6662,
      "##𝗶": 6663,
      "##𝗳": 6664,
      "##🐉": 6665,
      "##⢾": 6666,
      "##⣇": 6667,
      "##⣹": 6668,
      "##⢧": 6669,
      "##𝚘": 6670,
      "##𝚗": 6671,
      "##𝚜": 6672,
      "##𝚙": 6673,
      "##𝚊": 6674,
      "##𝚌": 6675,
      "##𝚎": 6676,
      "##᧓": 6677,
      "##ϟ": 6678,
      "##🏫": 6679,
      "##ɣ": 6680,
      "##⣁": 6681,
      "##⠍": 6682,
      "##⡍": 6683,
      "##९": 6684,
      "##५": 6685,
      "##६": 6686,
      "##७": 6687,
      "##८": 6688,
      "##ˌ": 6689,
      "##ｗ": 6690,
      "##э": 6691,
      "##⠐": 6692,
      "##𝕌": 6693,
      "##ℕ": 6694,
      "##ｙ": 6695,
      "##🍑": 6696,
      "##⬇": 6697,
      "##⠪": 6698,
      "##⣪": 6699,
      "##⢺": 6700,
      "##⢢": 6701,
      "##⢮": 6702,
      "##𝙚": 6703,
      "##ｪ": 6704,
      "##⣡": 6705,
      "##⣬": 6706,
      "##ɥ": 6707,
      "##क": 6708,
      "##ษ": 6709,
      "##ท": 6710,
      "##ﾂ": 6711,
      "##ｵ": 6712,
      "##ѵ": 6713,
      "##ㅓ": 6714,
      "##ㅏ": 6715,
      "##ㄹ": 6716,
      "##ᅰ": 6717,
      "##႔": 6718,
      "##፰": 6719,
      "##׉": 6720,
      "##׊": 6721,
      "##׋": 6722,
      "##⡸": 6723,
      "##⢁": 6724,
      "##⢏": 6725,
      "##⡳": 6726,
      "##⡝": 6727,
      "##⣎": 6728,
      "##⣳": 6729,
      "##⣫": 6730,
      "##⚙": 6731,
      "##𝐨": 6732,
      "##𝐥": 6733,
      "##𝐝": 6734,
      "##⁹": 6735,
      "##၅": 6736,
      "##ס": 6737,
      "##ᴀ": 6738,
      "##ᴛ": 6739,
      "##⡵": 6740,
      "##⣝": 6741,
      "##⣮": 6742,
      "##⣜": 6743,
      "##⢝": 6744,
      "##◔": 6745,
      "##۶": 6746,
      "##𝔵": 6747,
      "##𝔬": 6748,
      "##𝔯": 6749,
      "##𝔱": 6750,
      "##▪": 6751,
      "##ᆾ": 6752,
      "##🌏": 6753,
      "##♟": 6754,
      "##🍺": 6755,
      "##ᚮ": 6756,
      "##ｴ": 6757,
      "##∂": 6758,
      "##ƒ": 6759,
      "##∫": 6760,
      "##ন": 6761,
      "##ষ": 6762,
      "##ほ": 6763,
      "##ज": 6764,
      "##😨": 6765,
      "##🏖": 6766,
      "##⢹": 6767,
      "##🎓": 6768,
      "##ɱ": 6769,
      "##🎉": 6770,
      "##ภ": 6771,
      "##ใ": 6772,
      "##ฤ": 6773,
      "##⅓": 6774,
      "##য": 6775,
      "##🎨": 6776,
      "##🔬": 6777,
      "##３": 6778,
      "##◄": 6779,
      "##ˆ": 6780,
      "##◙": 6781,
      "##♫": 6782,
      "##☼": 6783,
      "##✚": 6784,
      "##🧸": 6785,
      "##🦯": 6786,
      "##𝙣": 6787,
      "##𝙨": 6788,
      "##👮": 6789,
      "##ɔ": 6790,
      "##ﾙ": 6791,
      "##🤣": 6792,
      "##🟥": 6793,
      "##▞": 6794,
      "##ㅌ": 6795,
      "##ㄴ": 6796,
      "##ㄷ": 6797,
      "##🛌": 6798,
      "##غ": 6799,
      "##ʒ": 6800,
      "##ᴥ": 6801,
      "##ᵔ": 6802,
      "##┈": 6803,
      "##✔": 6804,
      "##🍆": 6805,
      "##⣉": 6806,
      "##╖": 6807,
      "##╜": 6808,
      "##╛": 6809,
      "##𝕆": 6810,
      "##ℂ": 6811,
      "##ℍ": 6812,
      "##𝔼": 6813,
      "##𝕊": 6814,
      "##😴": 6815,
      "##າ": 6816,
      "##ສ": 6817,
      "##ລ": 6818,
      "##ວ": 6819,
      "##ມ": 6820,
      "##፳": 6821,
      "##፫": 6822,
      "##ߡ": 6823,
      "##🔜": 6824,
      "##◓": 6825,
      "##◑": 6826,
      "##◉": 6827,
      "##ﾌ": 6828,
      "##র": 6829,
      "##ব": 6830,
      "##ত": 6831,
      "##😳": 6832,
      "##ϛ": 6833,
      "##📖": 6834,
      "##゜": 6835,
      "##🤓": 6836,
      "##𝒐": 6837,
      "##𝒅": 6838,
      "##𝔨": 6839,
      "##𝔲": 6840,
      "##ণ": 6841,
      "##ে": 6842,
      "##√": 6843,
      "##🕧": 6844,
      "##🕐": 6845,
      "##🕜": 6846,
      "##🕑": 6847,
      "##🕝": 6848,
      "##🕒": 6849,
      "##א": 6850,
      "##⁰": 6851,
      "##⢌": 6852,
      "##⡢": 6853,
      "##⣣": 6854,
      "##☝": 6855,
      "##ⵖ": 6856,
      "##🟧": 6857,
      "##ک": 6858,
      "##🛹": 6859,
      "##፪": 6860,
      "##⠮": 6861,
      "##✈": 6862,
      "##∨": 6863,
      "##⎦": 6864,
      "##⎠": 6865,
      "##▍": 6866,
      "##ᛌ": 6867,
      "##ᛐ": 6868,
      "##ᚿ": 6869,
      "##🚫": 6870,
      "##⎥": 6871,
      "##🐚": 6872,
      "##ᚳ": 6873,
      "##⣵": 6874,
      "##⡡": 6875,
      "##⢑": 6876,
      "##⢜": 6877,
      "##😃": 6878,
      "##😄": 6879,
      "##😆": 6880,
      "##😂": 6881,
      "##💫": 6882,
      "##ꜱ": 6883,
      "##ݓ": 6884,
      "##ݔ": 6885,
      "##ݕ": 6886,
      "##ݖ": 6887,
      "##ݗ": 6888,
      "##ݙ": 6889,
      "##ݪ": 6890,
      "##˚": 6891,
      "##ゐ": 6892,
      "##🎃": 6893,
      "##👻": 6894,
      "##𝐷": 6895,
      "##𝙪": 6896,
      "##𝙧": 6897,
      "##𝙮": 6898,
      "##🐳": 6899,
      "##ᛊ": 6900,
      "##◳": 6901,
      "##◱": 6902,
      "##◛": 6903,
      "##◆": 6904,
      "##◽": 6905,
      "##ﾊ": 6906,
      "##🔒": 6907,
      "##ြ": 6908,
      "##န": 6909,
      "##မ": 6910,
      "##ာ": 6911,
      "##🥩": 6912,
      "##ݱ": 6913,
      "##ݶ": 6914,
      "##ݷ": 6915,
      "##ݸ": 6916,
      "##ݹ": 6917,
      "##ݺ": 6918,
      "##⊕": 6919,
      "##گ": 6920,
      "##💡": 6921,
      "##🇫": 6922,
      "##߄": 6923,
      "##ߊ": 6924,
      "##ই": 6925,
      "##⏋": 6926,
      "##⎾": 6927,
      "##🥗": 6928,
      "##🦔": 6929,
      "##🕶": 6930,
      "##🤳": 6931,
      "##🎮": 6932,
      "##𝑡": 6933,
      "##𝑙": 6934,
      "##𝑖": 6935,
      "##𝑐": 6936,
      "##ゆ": 6937,
      "##⎤": 6938,
      "##ɡ": 6939,
      "##む": 6940,
      "##ｐ": 6941,
      "##𝙛": 6942,
      "##🤛": 6943,
      "##⠅": 6944,
      "##๐": 6945,
      "##⣋": 6946,
      "##⣖": 6947,
      "##⎜": 6948,
      "##⎢": 6949,
      "##🗡": 6950,
      "##◶": 6951,
      "##◞": 6952,
      "##▰": 6953,
      "##┞": 6954,
      "##╳": 6955,
      "##╋": 6956,
      "##▩": 6957,
      "##ɯ": 6958,
      "##ɛ": 6959,
      "##ˏ": 6960,
      "##ᴗ": 6961,
      "##ꈍ": 6962,
      "##¥": 6963,
      "##₧": 6964,
      "##ད": 6965,
      "##⣲": 6966,
      "##ﾉ": 6967,
      "##🌹": 6968,
      "##🧶": 6969,
      "##⡙": 6970,
      "##⡃": 6971,
      "##⣌": 6972,
      "##😱": 6973,
      "##𝑉": 6974,
      "##⌨": 6975,
      "##🖱": 6976,
      "##⡒": 6977,
      "##🗨": 6978,
      "##≈": 6979,
      "##４": 6980,
      "##๗": 6981,
      "##📸": 6982,
      "##🏄": 6983,
      "##🚨": 6984,
      "##꩗": 6985,
      "##१": 6986,
      "##௭": 6987,
      "##⢎": 6988,
      "##💙": 6989,
      "##⠵": 6990,
      "##⡛": 6991,
      "##⡥": 6992,
      "##⡲": 6993,
      "##⢂": 6994,
      "##⢘": 6995,
      "##ম": 6996,
      "##￼": 6997,
      "##⣅": 6998,
      "##🤭": 6999,
      "##👷": 7000,
      "##🎤": 7001,
      "##💔": 7002,
      "##៧": 7003,
      "##᧗": 7004,
      "##፴": 7005,
      "##፬": 7006,
      "##ج": 7007,
      "##ª": 7008,
      "##╞": 7009,
      "##╠": 7010,
      "##ߌ": 7011,
      "##⢡": 7012,
      "##บ": 7013,
      "##𝘵": 7014,
      "##𝘭": 7015,
      "##𝘪": 7016,
      "##𝘤": 7017,
      "##ן": 7018,
      "##⁸": 7019,
      "##ʁ": 7020,
      "##⢃": 7021,
      "##⢋": 7022,
      "##🖥": 7023,
      "##ƴ": 7024,
      "##📈": 7025,
      "##𝖾": 7026,
      "##𝗋": 7027,
      "##𝗂": 7028,
      "##𝖿": 7029,
      "##ゥ": 7030,
      "##ㅂ": 7031,
      "##🏀": 7032,
      "##⠎": 7033,
      "##↕": 7034,
      "##㎨": 7035,
      "##❍": 7036,
      "##⋃": 7037,
      "##⁺": 7038,
      "##☺": 7039,
      "##☻": 7040,
      "##𝛆": 7041,
      "##ᚲ": 7042,
      "##ण": 7043,
      "##𝝾": 7044,
      "##𝝺": 7045,
      "##𝝳": 7046,
      "##℃": 7047,
      "##⣓": 7048,
      "##⣍": 7049,
      "##∧": 7050,
      "##𝐶": 7051,
      "##𒀝": 7052,
      "##ゑ": 7053,
      "##🧬": 7054,
      "##𝘦": 7055,
      "##𝘳": 7056,
      "##𝘧": 7057,
      "##𝒸": 7058,
      "##𝓇": 7059,
      "##𝒾": 7060,
      "##𝓅": 7061,
      "##𝓉": 7062,
      "##👎": 7063,
      "##ߎ": 7064,
      "##⡋": 7065,
      "##۰": 7066,
      "##ǆ": 7067,
      "##⚛": 7068,
      "##🌠": 7069,
      "##ⵡ": 7070,
      "##≥": 7071,
      "##≤": 7072,
      "##⌠": 7073,
      "##⌡": 7074,
      "##÷": 7075,
      "##∙": 7076,
      "##６": 7077,
      "##👲": 7078,
      "##ठ": 7079,
      "##💓": 7080,
      "##🛑": 7081,
      "##🥘": 7082,
      "##🍲": 7083,
      "##🚩": 7084,
      "##🏁": 7085,
      "##🗠": 7086,
      "##ぁ": 7087,
      "##🏍": 7088,
      "##⬜": 7089,
      "##🇻": 7090,
      "##ट": 7091,
      "##🧨": 7092,
      "##▹": 7093,
      "##◨": 7094,
      "##┒": 7095,
      "##┟": 7096,
      "##┰": 7097,
      "##゛": 7098,
      "##ह": 7099,
      "##𝌆": 7100,
      "##ߏ": 7101,
      "##ौ": 7102,
      "##☣": 7103,
      "##օ": 7104,
      "##ⵎ": 7105,
      "##⌛": 7106,
      "##💼": 7107,
      "##𝟚": 7108,
      "##𝟛": 7109,
      "##𝙙": 7110,
      "##𓏏": 7111,
      "##𓁐": 7112,
      "##😲": 7113,
      "##🧋": 7114,
      "##⢦": 7115,
      "##٩": 7116,
      "##𑃶": 7117,
      "##᱒": 7118,
      "##①": 7119,
      "##🐶": 7120,
      "##⎣": 7121,
      "##ᛃ": 7122,
      "##𝖔": 7123,
      "##𝖑": 7124,
      "##𝖉": 7125,
      "##ԫ": 7126,
      "##🕸": 7127,
      "##🍏": 7128,
      "##𝓷": 7129,
      "##𝓳": 7130,
      "##𝓮": 7131,
      "##ㅊ": 7132,
      "##ㄱ": 7133,
      "##⠹": 7134,
      "##⢟": 7135,
      "##⡌": 7136,
      "##⎡": 7137,
      "##⣊": 7138,
      "##⣥": 7139,
      "##🤗": 7140,
      "##⥪": 7141,
      "##⥭": 7142,
      "##ծ": 7143,
      "##ആ": 7144,
      "##ԍ": 7145,
      "##ཪ": 7146,
      "##ɖ": 7147,
      "##ⴕ": 7148,
      "##ష": 7149,
      "##ϡ": 7150,
      "##ဏ": 7151,
      "##ၾ": 7152,
      "##ഓ": 7153,
      "##ఇ": 7154,
      "##૪": 7155,
      "##൦": 7156,
      "##ⴏ": 7157,
      "##🏛": 7158,
      "##er": 7159,
      "##on": 7160,
      "th": 7161,
      "##es": 7162,
      "##at": 7163,
      "##in": 7164,
      "##en": 7165,
      "##or": 7166,
      "the": 7167,
      "##ion": 7168,
      "##it": 7169,
      "##ed": 7170,
      "##le": 7171,
      "in": 7172,
      "##ing": 7173,
      "##st": 7174,
      "to": 7175,
      "##ar": 7176,
      "##al": 7177,
      "##an": 7178,
      "##et": 7179,
      "##ou": 7180,
      "##ic": 7181,
      "an": 7182,
      "##om": 7183,
      "##se": 7184,
      "##re": 7185,
      "re": 7186,
      "##ct": 7187,
      "##ent": 7188,
      "##il": 7189,
      "##ut": 7190,
      "for": 7191,
      "st": 7192,
      "##ro": 7193,
      "and": 7194,
      "##am": 7195,
      "##is": 7196,
      "##ad": 7197,
      "of": 7198,
      "##ri": 7199,
      "is": 7200,
      "##ation": 7201,
      "##ac": 7202,
      "##pt": 7203,
      "##el": 7204,
      "con": 7205,
      "you": 7206,
      "##ate": 7207,
      "de": 7208,
      "##ith": 7209,
      "ex": 7210,
      "##as": 7211,
      "##od": 7212,
      "ru": 7213,
      "pro": 7214,
      "##oc": 7215,
      "as": 7216,
      "##ag": 7217,
      "##ow": 7218,
      "##ly": 7219,
      "##ol": 7220,
      "us": 7221,
      "##ul": 7222,
      "##ot": 7223,
      "##ur": 7224,
      "li": 7225,
      "##ec": 7226,
      "##me": 7227,
      "al": 7228,
      "com": 7229,
      "##ment": 7230,
      "##ple": 7231,
      "##ption": 7232,
      "this": 7233,
      "it": 7234,
      "be": 7235,
      "on": 7236,
      "with": 7237,
      "##ers": 7238,
      "##ab": 7239,
      "des": 7240,
      "read": 7241,
      "##est": 7242,
      "or": 7243,
      "##ch": 7244,
      "##ra": 7245,
      "##cri": 7246,
      "use": 7247,
      "##id": 7248,
      "##ve": 7249,
      "##pp": 7250,
      "##ig": 7251,
      "su": 7252,
      "##ess": 7253,
      "cr": 7254,
      "##icen": 7255,
      "un": 7256,
      "en": 7257,
      "licen": 7258,
      "##ect": 7259,
      "let": 7260,
      "descri": 7261,
      "wh": 7262,
      "ma": 7263,
      "description": 7264,
      "rust": 7265,
      "##ce": 7266,
      "fi": 7267,
      "##age": 7268,
      "##ter": 7269,
      "readme": 7270,
      "can": 7271,
      "fr": 7272,
      "##ver": 7273,
      "##all": 7274,
      "ne": 7275,
      "##pl": 7276,
      "##ort": 7277,
      "str": 7278,
      "im": 7279,
      "##ult": 7280,
      "bu": 7281,
      "by": 7282,
      "that": 7283,
      "##im": 7284,
      "ch": 7285,
      "cl": 7286,
      "##and": 7287,
      "all": 7288,
      "##em": 7289,
      "cont": 7290,
      "ad": 7291,
      "##if": 7292,
      "##end": 7293,
      "##ary": 7294,
      "from": 7295,
      "##ode": 7296,
      "##00": 7297,
      "are": 7298,
      "license": 7299,
      "ap": 7300,
      "##um": 7301,
      "##ame": 7302,
      "not": 7303,
      "##yp": 7304,
      "##ction": 7305,
      "##able": 7306,
      "lib": 7307,
      "##ill": 7308,
      "inst": 7309,
      "##int": 7310,
      "par": 7311,
      "##tt": 7312,
      "se": 7313,
      "##iz": 7314,
      "##qu": 7315,
      "##ir": 7316,
      "res": 7317,
      "##ild": 7318,
      "add": 7319,
      "exam": 7320,
      "crate": 7321,
      "sh": 7322,
      "your": 7323,
      "##arg": 7324,
      "##os": 7325,
      "##ach": 7326,
      "##th": 7327,
      "##un": 7328,
      "##ue": 7329,
      "##ub": 7330,
      "def": 7331,
      "##ore": 7332,
      "##ay": 7333,
      "##us": 7334,
      "ser": 7335,
      "if": 7336,
      "##ke": 7337,
      "##ure": 7338,
      "##ersion": 7339,
      "pr": 7340,
      "##ack": 7341,
      "doc": 7342,
      "dat": 7343,
      "typ": 7344,
      "int": 7345,
      "##ies": 7346,
      "build": 7347,
      "version": 7348,
      "file": 7349,
      "run": 7350,
      "will": 7351,
      "sp": 7352,
      "libr": 7353,
      "ar": 7354,
      "fe": 7355,
      "##op": 7356,
      "##ex": 7357,
      "##ject": 7358,
      "##ork": 7359,
      "##ere": 7360,
      "##ind": 7361,
      "##ase": 7362,
      "val": 7363,
      "##ser": 7364,
      "comp": 7365,
      "##oun": 7366,
      "##ttp": 7367,
      "get": 7368,
      "test": 7369,
      "tr": 7370,
      "http": 7371,
      "new": 7372,
      "we": 7373,
      "##ang": 7374,
      "##ain": 7375,
      "##og": 7376,
      "##mentation": 7377,
      "library": 7378,
      "lin": 7379,
      "out": 7380,
      "##ist": 7381,
      "##ust": 7382,
      "##orm": 7383,
      "##ant": 7384,
      "##ial": 7385,
      "##ome": 7386,
      "gen": 7387,
      "##der": 7388,
      "##ive": 7389,
      "comm": 7390,
      "##ates": 7391,
      "op": 7392,
      "example": 7393,
      "install": 7394,
      "supp": 7395,
      "imple": 7396,
      "##uct": 7397,
      "##ap": 7398,
      "##ld": 7399,
      "sy": 7400,
      "data": 7401,
      "##rap": 7402,
      "gener": 7403,
      "##form": 7404,
      "feat": 7405,
      "app": 7406,
      "cli": 7407,
      "##ity": 7408,
      "##argo": 7409,
      "support": 7410,
      "cargo": 7411,
      "##put": 7412,
      "##lo": 7413,
      "er": 7414,
      "##out": 7415,
      "##ault": 7416,
      "at": 7417,
      "##iv": 7418,
      "set": 7419,
      "id": 7420,
      "any": 7421,
      "string": 7422,
      "##ated": 7423,
      "using": 7424,
      "##ail": 7425,
      "##ire": 7426,
      "##ime": 7427,
      "default": 7428,
      "##ally": 7429,
      "requ": 7430,
      "##ory": 7431,
      "##rib": 7432,
      "err": 7433,
      "##ribut": 7434,
      "##our": 7435,
      "ke": 7436,
      "##vid": 7437,
      "pl": 7438,
      "do": 7439,
      "##gr": 7440,
      "api": 7441,
      "##enc": 7442,
      "cre": 7443,
      "print": 7444,
      "##ures": 7445,
      "work": 7446,
      "ab": 7447,
      "##igh": 7448,
      "##ost": 7449,
      "code": 7450,
      "fun": 7451,
      "##ations": 7452,
      "mut": 7453,
      "pat": 7454,
      "##ich": 7455,
      "name": 7456,
      "##fer": 7457,
      "project": 7458,
      "provid": 7459,
      "##sert": 7460,
      "##cl": 7461,
      "##low": 7462,
      "conf": 7463,
      "exp": 7464,
      "sim": 7465,
      "ac": 7466,
      "option": 7467,
      "some": 7468,
      "##oo": 7469,
      "ha": 7470,
      "which": 7471,
      "inter": 7472,
      "fn": 7473,
      "fil": 7474,
      "##ock": 7475,
      "##ition": 7476,
      "##ache": 7477,
      "hel": 7478,
      "##ace": 7479,
      "dep": 7480,
      "##──": 7481,
      "function": 7482,
      "struct": 7483,
      "##rit": 7484,
      "type": 7485,
      "rep": 7486,
      "key": 7487,
      "##ize": 7488,
      "config": 7489,
      "##ould": 7490,
      "fol": 7491,
      "##one": 7492,
      "docu": 7493,
      "error": 7494,
      "##lic": 7495,
      "stat": 7496,
      "list": 7497,
      "up": 7498,
      "##eth": 7499,
      "##ib": 7500,
      "has": 7501,
      "##ud": 7502,
      "mod": 7503,
      "##ther": 7504,
      "##ip": 7505,
      "col": 7506,
      "licens": 7507,
      "##ard": 7508,
      "##cess": 7509,
      "rs": 7510,
      "depend": 7511,
      "qu": 7512,
      "##ine": 7513,
      "##erm": 7514,
      "##ens": 7515,
      "le": 7516,
      "dev": 7517,
      "sub": 7518,
      "aut": 7519,
      "used": 7520,
      "so": 7521,
      "mit": 7522,
      "io": 7523,
      "crates": 7524,
      "see": 7525,
      "have": 7526,
      "vec": 7527,
      "spec": 7528,
      "assert": 7529,
      "writ": 7530,
      "##art": 7531,
      "command": 7532,
      "##so": 7533,
      "##ice": 7534,
      "apache": 7535,
      "##ast": 7536,
      "but": 7537,
      "other": 7538,
      "##ments": 7539,
      "##ans": 7540,
      "value": 7541,
      "##ext": 7542,
      "more": 7543,
      "pub": 7544,
      "result": 7545,
      "client": 7546,
      "usage": 7547,
      "unw": 7548,
      "##yn": 7549,
      "form": 7550,
      "##irect": 7551,
      "into": 7552,
      "https": 7553,
      "time": 7554,
      "mac": 7555,
      "cur": 7556,
      "path": 7557,
      "##act": 7558,
      "unwrap": 7559,
      "##ign": 7560,
      "##ord": 7561,
      "man": 7562,
      "##ight": 7563,
      "num": 7564,
      "##32": 7565,
      "features": 7566,
      "js": 7567,
      "documentation": 7568,
      "bas": 7569,
      "##ource": 7570,
      "##ound": 7571,
      "sc": 7572,
      "only": 7573,
      "dependenc": 7574,
      "aw": 7575,
      "##ile": 7576,
      "loc": 7577,
      "follow": 7578,
      "direct": 7579,
      "contribut": 7580,
      "pre": 7581,
      "##own": 7582,
      "main": 7583,
      "need": 7584,
      "var": 7585,
      "create": 7586,
      "##ass": 7587,
      "under": 7588,
      "##lease": 7589,
      "files": 7590,
      "call": 7591,
      "implementation": 7592,
      "log": 7593,
      "dis": 7594,
      "ev": 7595,
      "ret": 7596,
      "one": 7597,
      "##gh": 7598,
      "no": 7599,
      "##ff": 7600,
      "##stem": 7601,
      "mat": 7602,
      "also": 7603,
      "##ings": 7604,
      "tra": 7605,
      "##ator": 7606,
      "##ks": 7607,
      "##ug": 7608,
      "specif": 7609,
      "like": 7610,
      "eq": 7611,
      "user": 7612,
      "output": 7613,
      "bl": 7614,
      "std": 7615,
      "##ree": 7616,
      "help": 7617,
      "0x": 7618,
      "##ions": 7619,
      "##ress": 7620,
      "per": 7621,
      "json": 7622,
      "sec": 7623,
      "incl": 7624,
      "##ell": 7625,
      "when": 7626,
      "##ber": 7627,
      "##ount": 7628,
      "##rent": 7629,
      "##ry": 7630,
      "tok": 7631,
      "go": 7632,
      "##urn": 7633,
      "format": 7634,
      "##ml": 7635,
      "20": 7636,
      "##ln": 7637,
      "alloc": 7638,
      "##ples": 7639,
      "progr": 7640,
      "gith": 7641,
      "bin": 7642,
      "github": 7643,
      "##mit": 7644,
      "##are": 7645,
      "tool": 7646,
      "##ead": 7647,
      "##ows": 7648,
      "macro": 7649,
      "po": 7650,
      "my": 7651,
      "##ove": 7652,
      "chang": 7653,
      "part": 7654,
      "##ance": 7655,
      "status": 7656,
      "mess": 7657,
      "##ethod": 7658,
      "fl": 7659,
      "system": 7660,
      "##tern": 7661,
      "println": 7662,
      "##io": 7663,
      "was": 7664,
      "##abl": 7665,
      "method": 7666,
      "vari": 7667,
      "##te": 7668,
      "server": 7669,
      "##elf": 7670,
      "current": 7671,
      "types": 7672,
      "##ues": 7673,
      "request": 7674,
      "web": 7675,
      "##ix": 7676,
      "state": 7677,
      "how": 7678,
      "##eld": 7679,
      "start": 7680,
      "following": 7681,
      "##ia": 7682,
      "env": 7683,
      "ind": 7684,
      "self": 7685,
      "simple": 7686,
      "examples": 7687,
      "ob": 7688,
      "contain": 7689,
      "chec": 7690,
      "av": 7691,
      "10": 7692,
      "##read": 7693,
      "trait": 7694,
      "##formation": 7695,
      "licensed": 7696,
      "dependencies": 7697,
      "term": 7698,
      "there": 7699,
      "##ages": 7700,
      "pack": 7701,
      "node": 7702,
      "##af": 7703,
      "##ery": 7704,
      "hand": 7705,
      "applic": 7706,
      "org": 7707,
      "input": 7708,
      "may": 7709,
      "line": 7710,
      "rec": 7711,
      "##wn": 7712,
      "##av": 7713,
      "asyn": 7714,
      "##ait": 7715,
      "information": 7716,
      "##ual": 7717,
      "enc": 7718,
      "em": 7719,
      "serv": 7720,
      "##ible": 7721,
      "##64": 7722,
      "me": 7723,
      "should": 7724,
      "program": 7725,
      "arg": 7726,
      "det": 7727,
      "##ie": 7728,
      "trans": 7729,
      "return": 7730,
      "##ook": 7731,
      "##res": 7732,
      "##ide": 7733,
      "min": 7734,
      "feature": 7735,
      "act": 7736,
      "oper": 7737,
      "over": 7738,
      "##ft": 7739,
      "reg": 7740,
      "bind": 7741,
      "then": 7742,
      "iter": 7743,
      "make": 7744,
      "git": 7745,
      "##ep": 7746,
      "ext": 7747,
      "bo": 7748,
      "##ous": 7749,
      "defin": 7750,
      "without": 7751,
      "text": 7752,
      "##ence": 7753,
      "open": 7754,
      "check": 7755,
      "##ull": 7756,
      "##ak": 7757,
      "##ating": 7758,
      "docs": 7759,
      "includ": 7760,
      "implement": 7761,
      "##ning": 7762,
      "##pon": 7763,
      "der": 7764,
      "pos": 7765,
      "dec": 7766,
      "##ge": 7767,
      "##etw": 7768,
      "want": 7769,
      "exec": 7770,
      "auth": 7771,
      "number": 7772,
      "12": 7773,
      "##de": 7774,
      "##ese": 7775,
      "##ely": 7776,
      "##ert": 7777,
      "provides": 7778,
      "mult": 7779,
      "gr": 7780,
      "##load": 7781,
      "back": 7782,
      "source": 7783,
      "fir": 7784,
      "##uration": 7785,
      "##ux": 7786,
      "field": 7787,
      "upd": 7788,
      "bit": 7789,
      "async": 7790,
      "directory": 7791,
      "##oth": 7792,
      "##sp": 7793,
      "lang": 7794,
      "here": 7795,
      "pass": 7796,
      "ut": 7797,
      "ok": 7798,
      "dif": 7799,
      "##0000": 7800,
      "each": 7801,
      "##arget": 7802,
      "await": 7803,
      "##ite": 7804,
      "##up": 7805,
      "lo": 7806,
      "##ents": 7807,
      "iss": 7808,
      "does": 7809,
      "pri": 7810,
      "target": 7811,
      "these": 7812,
      "first": 7813,
      "match": 7814,
      "execut": 7815,
      "##ied": 7816,
      "##ctions": 7817,
      "ro": 7818,
      "const": 7819,
      "requir": 7820,
      "##ose": 7821,
      "mem": 7822,
      "devel": 7823,
      "##ong": 7824,
      "##ish": 7825,
      "##nect": 7826,
      "##ream": 7827,
      "deb": 7828,
      "based": 7829,
      "##ting": 7830,
      "down": 7831,
      "tw": 7832,
      "wind": 7833,
      "##ough": 7834,
      "acc": 7835,
      "##ise": 7836,
      "develop": 7837,
      "##con": 7838,
      "##lect": 7839,
      "##xt": 7840,
      "prot": 7841,
      "message": 7842,
      "##raph": 7843,
      "##ility": 7844,
      "inf": 7845,
      "link": 7846,
      "##ark": 7847,
      "att": 7848,
      "block": 7849,
      "rem": 7850,
      "cop": 7851,
      "##vel": 7852,
      "sign": 7853,
      "##ors": 7854,
      "end": 7855,
      "process": 7856,
      "avail": 7857,
      "##ither": 7858,
      "##ically": 7859,
      "access": 7860,
      "own": 7861,
      "##inal": 7862,
      "syn": 7863,
      "##ustom": 7864,
      "derive": 7865,
      "cons": 7866,
      "lat": 7867,
      "ass": 7868,
      "addition": 7869,
      "note": 7870,
      "##ick": 7871,
      "release": 7872,
      "values": 7873,
      "imp": 7874,
      "##cript": 7875,
      "supported": 7876,
      "eas": 7877,
      "available": 7878,
      "##ret": 7879,
      "##────": 7880,
      "hash": 7881,
      "sm": 7882,
      "about": 7883,
      "custom": 7884,
      "##ication": 7885,
      "ent": 7886,
      "either": 7887,
      "compil": 7888,
      "them": 7889,
      "connect": 7890,
      "application": 7891,
      "write": 7892,
      "##rl": 7893,
      "multi": 7894,
      "gu": 7895,
      "flag": 7896,
      "ed": 7897,
      "just": 7898,
      "object": 7899,
      "##ful": 7900,
      "ben": 7901,
      "options": 7902,
      "langu": 7903,
      "binary": 7904,
      "map": 7905,
      "where": 7906,
      "##arch": 7907,
      "debug": 7908,
      "ag": 7909,
      "##ract": 7910,
      "level": 7911,
      "its": 7912,
      "thread": 7913,
      "licenses": 7914,
      "linux": 7915,
      "tests": 7916,
      "way": 7917,
      "##au": 7918,
      "##iew": 7919,
      "##ted": 7920,
      "co": 7921,
      "perform": 7922,
      "what": 7923,
      "contribution": 7924,
      "am": 7925,
      "##tes": 7926,
      "please": 7927,
      "than": 7928,
      "functions": 7929,
      "##ule": 7930,
      "##plic": 7931,
      "interf": 7932,
      "refer": 7933,
      "dist": 7934,
      "inte": 7935,
      "differ": 7936,
      "same": 7937,
      "##ics": 7938,
      "bindings": 7939,
      "red": 7940,
      "serial": 7941,
      "init": 7942,
      "comple": 7943,
      "dele": 7944,
      "##ware": 7945,
      "stor": 7946,
      "local": 7947,
      "bench": 7948,
      "##ss": 7949,
      "extern": 7950,
      "##ative": 7951,
      "##ices": 7952,
      "##ization": 7953,
      "most": 7954,
      "high": 7955,
      "##ql": 7956,
      "##ables": 7957,
      "token": 7958,
      "size": 7959,
      "##du": 7960,
      "fut": 7961,
      "url": 7962,
      "copy": 7963,
      "send": 7964,
      "##afe": 7965,
      "##ake": 7966,
      "##ger": 7967,
      "download": 7968,
      "met": 7969,
      "##ify": 7970,
      "##very": 7971,
      "off": 7972,
      "respon": 7973,
      "order": 7974,
      "##ten": 7975,
      "configuration": 7976,
      "service": 7977,
      "##ized": 7978,
      "nam": 7979,
      "##ann": 7980,
      "##11": 7981,
      "##lob": 7982,
      "head": 7983,
      "such": 7984,
      "above": 7985,
      "param": 7986,
      "bytes": 7987,
      "image": 7988,
      "tem": 7989,
      "generate": 7990,
      "el": 7991,
      "post": 7992,
      "generated": 7993,
      "##itions": 7994,
      "##══": 7995,
      "point": 7996,
      "they": 7997,
      "detail": 7998,
      "ms": 7999,
      "##osit": 8000,
      "package": 8001,
      "fast": 8002,
      "##ets": 8003,
      "port": 8004,
      "two": 8005,
      "##com": 8006,
      "##ray": 8007,
      "##ov": 8008,
      "poss": 8009,
      "##ces": 8010,
      "sd": 8011,
      "cond": 8012,
      "##iron": 8013,
      "find": 8014,
      "currently": 8015,
      "hello": 8016,
      "stand": 8017,
      "clone": 8018,
      "##ru": 8019,
      "allow": 8020,
      "##less": 8021,
      "language": 8022,
      "uses": 8023,
      "##rol": 8024,
      "##ause": 8025,
      "jo": 8026,
      "argu": 8027,
      "environ": 8028,
      "parse": 8029,
      "update": 8030,
      "rel": 8031,
      "##ases": 8032,
      "running": 8033,
      "terms": 8034,
      "valid": 8035,
      "reposit": 8036,
      "via": 8037,
      "installation": 8038,
      "giv": 8039,
      "##rapp": 8040,
      "##mb": 8041,
      "additional": 8042,
      "now": 8043,
      "sing": 8044,
      "would": 8045,
      "defined": 8046,
      "interface": 8047,
      "cor": 8048,
      "##20": 8049,
      "impl": 8050,
      "must": 8051,
      "index": 8052,
      "he": 8053,
      "found": 8054,
      "true": 8055,
      "windows": 8056,
      "module": 8057,
      "sch": 8058,
      "memory": 8059,
      "enum": 8060,
      "prop": 8061,
      "inv": 8062,
      "buf": 8063,
      "info": 8064,
      "##ms": 8065,
      "query": 8066,
      "sol": 8067,
      "event": 8068,
      "expect": 8069,
      "##ient": 8070,
      "##api": 8071,
      "##ww": 8072,
      "address": 8073,
      "frame": 8074,
      "##iss": 8075,
      "tag": 8076,
      "##ocol": 8077,
      "single": 8078,
      "tim": 8079,
      "different": 8080,
      "pars": 8081,
      "every": 8082,
      "none": 8083,
      "stream": 8084,
      "##ical": 8085,
      "wor": 8086,
      "##time": 8087,
      "serde": 8088,
      "core": 8089,
      "char": 8090,
      "##gor": 8091,
      "foo": 8092,
      "##12": 8093,
      "##ities": 8094,
      "www": 8095,
      "load": 8096,
      "wrapp": 8097,
      "encod": 8098,
      "ver": 8099,
      "af": 8100,
      "graph": 8101,
      "parser": 8102,
      "##les": 8103,
      "protocol": 8104,
      "##bu": 8105,
      "len": 8106,
      "look": 8107,
      "operations": 8108,
      "glob": 8109,
      "##wise": 8110,
      "##row": 8111,
      "prob": 8112,
      "##ls": 8113,
      "tree": 8114,
      "tas": 8115,
      "search": 8116,
      "case": 8117,
      "autom": 8118,
      "colle": 8119,
      "##ular": 8120,
      "##ght": 8121,
      "##atch": 8122,
      "color": 8123,
      "##rig": 8124,
      "##str": 8125,
      "bec": 8126,
      "repository": 8127,
      "standard": 8128,
      "##ash": 8129,
      "script": 8130,
      "count": 8131,
      "100": 8132,
      "wasm": 8133,
      "ele": 8134,
      "00": 8135,
      "##ond": 8136,
      "minim": 8137,
      "plat": 8138,
      "##bo": 8139,
      "change": 8140,
      "fail": 8141,
      "br": 8142,
      "##plicit": 8143,
      "platform": 8144,
      "rand": 8145,
      "environment": 8146,
      "provided": 8147,
      "##par": 8148,
      "##56": 8149,
      "array": 8150,
      "##ays": 8151,
      "allows": 8152,
      "provide": 8153,
      "ht": 8154,
      "possible": 8155,
      "conver": 8156,
      "##ilt": 8157,
      "given": 8158,
      "world": 8159,
      "##ention": 8160,
      "##ier": 8161,
      "non": 8162,
      "otherwise": 8163,
      "multiple": 8164,
      "contains": 8165,
      "##ker": 8166,
      "##etwork": 8167,
      "item": 8168,
      "repres": 8169,
      "##fore": 8170,
      "details": 8171,
      "##ually": 8172,
      "##een": 8173,
      "##aries": 8174,
      "public": 8175,
      "limit": 8176,
      "py": 8177,
      "methods": 8178,
      "ip": 8179,
      "free": 8180,
      "##ender": 8181,
      "16": 8182,
      "instead": 8183,
      "both": 8184,
      "kn": 8185,
      "opens": 8186,
      "##do": 8187,
      "##╌╌": 8188,
      "datab": 8189,
      "##gorith": 8190,
      "opt": 8191,
      "network": 8192,
      "sdk": 8193,
      "required": 8194,
      "##ax": 8195,
      "##ron": 8196,
      "algorith": 8197,
      "optional": 8198,
      "issue": 8199,
      "##etween": 8200,
      "regist": 8201,
      "try": 8202,
      "##erial": 8203,
      "account": 8204,
      "after": 8205,
      "between": 8206,
      "##her": 8207,
      "root": 8208,
      "supports": 8209,
      "##aw": 8210,
      "context": 8211,
      "##oup": 8212,
      "their": 8213,
      "rest": 8214,
      "written": 8215,
      "##ced": 8216,
      "##55": 8217,
      "explicit": 8218,
      "enable": 8219,
      "response": 8220,
      "secret": 8221,
      "global": 8222,
      "tokio": 8223,
      "##cept": 8224,
      "##ata": 8225,
      "submit": 8226,
      "specific": 8227,
      "don": 8228,
      "latest": 8229,
      "toml": 8230,
      "##work": 8231,
      "next": 8232,
      "##16": 8233,
      "soft": 8234,
      "##ugin": 8235,
      "##ade": 8236,
      "##db": 8237,
      "model": 8238,
      "full": 8239,
      "##map": 8240,
      "html": 8241,
      "insert": 8242,
      "thr": 8243,
      "import": 8244,
      "future": 8245,
      "delete": 8246,
      "distribut": 8247,
      "unless": 8248,
      "##plo": 8249,
      "handl": 8250,
      "fal": 8251,
      "##word": 8252,
      "conv": 8253,
      "paramet": 8254,
      "macros": 8255,
      "eng": 8256,
      "built": 8257,
      "table": 8258,
      "##sh": 8259,
      "very": 8260,
      "##ily": 8261,
      "our": 8262,
      "false": 8263,
      "mak": 8264,
      "control": 8265,
      "##az": 8266,
      "##bed": 8267,
      "##ope": 8268,
      "compon": 8269,
      "##abled": 8270,
      "runtime": 8271,
      "##ush": 8272,
      "well": 8273,
      "static": 8274,
      "represent": 8275,
      "mark": 8276,
      "sam": 8277,
      "dyn": 8278,
      "while": 8279,
      "compile": 8280,
      "##its": 8281,
      "max": 8282,
      "##play": 8283,
      "##annel": 8284,
      "11": 8285,
      "select": 8286,
      "database": 8287,
      "ident": 8288,
      "pers": 8289,
      "dependency": 8290,
      "mode": 8291,
      "store": 8292,
      "##rc": 8293,
      "through": 8294,
      "##lish": 8295,
      "exist": 8296,
      "##file": 8297,
      "ref": 8298,
      "conditions": 8299,
      "software": 8300,
      "##tc": 8301,
      "aws": 8302,
      "small": 8303,
      "filter": 8304,
      "##not": 8305,
      "u8": 8306,
      "sin": 8307,
      "gre": 8308,
      "host": 8309,
      "second": 8310,
      "automat": 8311,
      "##po": 8312,
      "##ict": 8313,
      "locations": 8314,
      "versions": 8315,
      "##usion": 8316,
      "som": 8317,
      "i32": 8318,
      "plugin": 8319,
      "##ange": 8320,
      "produ": 8321,
      "require": 8322,
      "##ality": 8323,
      "##ection": 8324,
      "##ph": 8325,
      "disc": 8326,
      "basic": 8327,
      "random": 8328,
      "render": 8329,
      "##sel": 8330,
      "eff": 8331,
      "explicitly": 8332,
      "sw": 8333,
      "changes": 8334,
      "##99": 8335,
      "easy": 8336,
      "ph": 8337,
      "templ": 8338,
      "linked": 8339,
      "because": 8340,
      "uns": 8341,
      "group": 8342,
      "many": 8343,
      "arch": 8344,
      "initial": 8345,
      "channel": 8346,
      "rele": 8347,
      "builder": 8348,
      "##ng": 8349,
      "requests": 8350,
      "before": 8351,
      "##mp": 8352,
      "##ential": 8353,
      "flags": 8354,
      "##rop": 8355,
      "installed": 8356,
      "box": 8357,
      "development": 8358,
      "framework": 8359,
      "handle": 8360,
      "##fi": 8361,
      "implemented": 8362,
      "##ever": 8363,
      "war": 8364,
      "shall": 8365,
      "attribut": 8366,
      "buffer": 8367,
      "projects": 8368,
      "useful": 8369,
      "##ended": 8370,
      "repl": 8371,
      "##22": 8372,
      "fix": 8373,
      "building": 8374,
      "commands": 8375,
      "orig": 8376,
      "##view": 8377,
      "safe": 8378,
      "performance": 8379,
      "common": 8380,
      "messages": 8381,
      "64": 8382,
      "been": 8383,
      "users": 8384,
      "##ocket": 8385,
      "goog": 8386,
      "deserial": 8387,
      "device": 8388,
      "base": 8389,
      "##ont": 8390,
      "##pc": 8391,
      "extens": 8392,
      "low": 8393,
      "contributing": 8394,
      "bar": 8395,
      "traits": 8396,
      "ll": 8397,
      "express": 8398,
      "google": 8399,
      "##line": 8400,
      "##als": 8401,
      "design": 8402,
      "##86": 8403,
      "##19": 8404,
      "names": 8405,
      "authent": 8406,
      "dir": 8407,
      "##be": 8408,
      "##tr": 8409,
      "##10": 8410,
      "top": 8411,
      "##sc": 8412,
      "instance": 8413,
      "tools": 8414,
      "lay": 8415,
      "##ave": 8416,
      "intention": 8417,
      "dual": 8418,
      "sl": 8419,
      "manag": 8420,
      "content": 8421,
      "db": 8422,
      "##ved": 8423,
      "instru": 8424,
      "perm": 8425,
      "requires": 8426,
      "wrapper": 8427,
      "##ero": 8428,
      "comput": 8429,
      "game": 8430,
      "include": 8431,
      "page": 8432,
      "##odes": 8433,
      "15": 8434,
      "structure": 8435,
      "export": 8436,
      "play": 8437,
      "##000": 8438,
      "bel": 8439,
      "##air": 8440,
      "##mar": 8441,
      "##ively": 8442,
      "variable": 8443,
      "push": 8444,
      "works": 8445,
      "bet": 8446,
      "integr": 8447,
      "submitted": 8448,
      "display": 8449,
      "##back": 8450,
      "inclusion": 8451,
      "long": 8452,
      "14": 8453,
      "docker": 8454,
      "errors": 8455,
      "dust": 8456,
      "prints": 8457,
      "##ner": 8458,
      "intentionally": 8459,
      "move": 8460,
      "pan": 8461,
      "##ired": 8462,
      "sn": 8463,
      "specify": 8464,
      "report": 8465,
      "take": 8466,
      "mon": 8467,
      "##apt": 8468,
      "word": 8469,
      "pe": 8470,
      "##ross": 8471,
      "##xx": 8472,
      "##bers": 8473,
      "enabled": 8474,
      "##ci": 8475,
      "##ody": 8476,
      "hub": 8477,
      "publish": 8478,
      "wid": 8479,
      "pol": 8480,
      "##80": 8481,
      "charact": 8482,
      "could": 8483,
      "cd": 8484,
      "util": 8485,
      "##ern": 8486,
      "folder": 8487,
      "sty": 8488,
      "task": 8489,
      "##pu": 8490,
      "issues": 8491,
      "reference": 8492,
      "contract": 8493,
      "##list": 8494,
      "##other": 8495,
      "ns": 8496,
      "##thing": 8497,
      "cal": 8498,
      "arguments": 8499,
      "##cc": 8500,
      "engine": 8501,
      "header": 8502,
      "edit": 8503,
      "##pect": 8504,
      "intern": 8505,
      "##ror": 8506,
      "might": 8507,
      "##thon": 8508,
      "opensource": 8509,
      "keys": 8510,
      "terminal": 8511,
      "##ype": 8512,
      "##gth": 8513,
      "##ways": 8514,
      "show": 8515,
      "simil": 8516,
      "done": 8517,
      "etc": 8518,
      "##sl": 8519,
      "even": 8520,
      "##ources": 8521,
      "since": 8522,
      "rece": 8523,
      "##flow": 8524,
      "mach": 8525,
      "13": 8526,
      "class": 8527,
      "view": 8528,
      "##uch": 8529,
      "tri": 8530,
      "directly": 8531,
      "similar": 8532,
      "##alle": 8533,
      "bre": 8534,
      "compat": 8535,
      "still": 8536,
      "cert": 8537,
      "right": 8538,
      "automatically": 8539,
      "##ian": 8540,
      "specified": 8541,
      "convert": 8542,
      "hyp": 8543,
      "parsing": 8544,
      "synt": 8545,
      "put": 8546,
      "another": 8547,
      "##ific": 8548,
      "password": 8549,
      "implements": 8550,
      "dri": 8551,
      "inc": 8552,
      "##ns": 8553,
      "##aces": 8554,
      "##ging": 8555,
      "always": 8556,
      "started": 8557,
      "sql": 8558,
      "md": 8559,
      "32": 8560,
      "##34": 8561,
      "returns": 8562,
      "means": 8563,
      "dem": 8564,
      "listen": 8565,
      "python": 8566,
      "however": 8567,
      "##cp": 8568,
      "embed": 8569,
      "optim": 8570,
      "##ution": 8571,
      "os": 8572,
      "##cu": 8573,
      "##ared": 8574,
      "##gen": 8575,
      "kv": 8576,
      "mer": 8577,
      "del": 8578,
      "##action": 8579,
      "##ward": 8580,
      "testing": 8581,
      "pull": 8582,
      "##bb": 8583,
      "##aa": 8584,
      "document": 8585,
      "##ink": 8586,
      "fields": 8587,
      "schem": 8588,
      "algorithm": 8589,
      "pattern": 8590,
      "tak": 8591,
      "##ider": 8592,
      "raw": 8593,
      "working": 8594,
      "length": 8595,
      "##oto": 8596,
      "##────────": 8597,
      "scope": 8598,
      "##rid": 8599,
      "##set": 8600,
      "storage": 8601,
      "##old": 8602,
      "home": 8603,
      "##ote": 8604,
      "##ude": 8605,
      "##ik": 8606,
      "##rypt": 8607,
      "##fix": 8608,
      "below": 8609,
      "generator": 8610,
      "u32": 8611,
      "syntax": 8612,
      "backend": 8613,
      "body": 8614,
      "once": 8615,
      "19": 8616,
      "##ale": 8617,
      "src": 8618,
      "##ences": 8619,
      "created": 8620,
      "##ty": 8621,
      "##ightly": 8622,
      "##ether": 8623,
      "stable": 8624,
      "compiler": 8625,
      "author": 8626,
      "##ability": 8627,
      "##eed": 8628,
      "writing": 8629,
      "##ething": 8630,
      "dom": 8631,
      "sort": 8632,
      "record": 8633,
      "lock": 8634,
      "called": 8635,
      "commit": 8636,
      "args": 8637,
      "##anch": 8638,
      "##self": 8639,
      "##18": 8640,
      "getting": 8641,
      "quick": 8642,
      "track": 8643,
      "vect": 8644,
      "yet": 8645,
      "cache": 8646,
      "commun": 8647,
      "results": 8648,
      "fin": 8649,
      "##ck": 8650,
      "##df": 8651,
      "functionality": 8652,
      "something": 8653,
      "##════": 8654,
      "connection": 8655,
      "##ech": 8656,
      "insp": 8657,
      "beh": 8658,
      "interact": 8659,
      "programm": 8660,
      "##ys": 8661,
      "usize": 8662,
      "sys": 8663,
      "propert": 8664,
      "apis": 8665,
      "else": 8666,
      "##of": 8667,
      "##ured": 8668,
      "##ature": 8669,
      "again": 8670,
      "##ious": 8671,
      "##mt": 8672,
      "section": 8673,
      "##val": 8674,
      "pur": 8675,
      "being": 8676,
      "date": 8677,
      "priv": 8678,
      "cle": 8679,
      "variables": 8680,
      "slic": 8681,
      "partic": 8682,
      "##comm": 8683,
      "separ": 8684,
      "collect": 8685,
      "vis": 8686,
      "ci": 8687,
      "aud": 8688,
      "step": 8689,
      "general": 8690,
      "sk": 8691,
      "##33": 8692,
      "bug": 8693,
      "##side": 8694,
      "distributed": 8695,
      "equ": 8696,
      "##chain": 8697,
      "last": 8698,
      "place": 8699,
      "##eri": 8700,
      "rus": 8701,
      "te": 8702,
      "##sd": 8703,
      "collection": 8704,
      "v1": 8705,
      "ct": 8706,
      "zero": 8707,
      "##chron": 8708,
      "clos": 8709,
      "hyper": 8710,
      "lit": 8711,
      "##rect": 8712,
      "around": 8713,
      "##fc": 8714,
      "shell": 8715,
      "cry": 8716,
      "##21": 8717,
      "conc": 8718,
      "dynam": 8719,
      "##itle": 8720,
      "##name": 8721,
      "##ok": 8722,
      "variant": 8723,
      "##40": 8724,
      "consider": 8725,
      "added": 8726,
      "those": 8727,
      "ray": 8728,
      "stack": 8729,
      "pool": 8730,
      "txt": 8731,
      "branch": 8732,
      "manage": 8733,
      "##ruct": 8734,
      "kind": 8735,
      "que": 8736,
      "cap": 8737,
      "##icial": 8738,
      "##point": 8739,
      "##stream": 8740,
      "made": 8741,
      "##key": 8742,
      "libraries": 8743,
      "template": 8744,
      "duration": 8745,
      "register": 8746,
      "sequ": 8747,
      "machine": 8748,
      "##ines": 8749,
      "decod": 8750,
      "tls": 8751,
      "##gg": 8752,
      "prev": 8753,
      "##pro": 8754,
      "##ives": 8755,
      "larg": 8756,
      "##sv": 8757,
      "repo": 8758,
      "strings": 8759,
      "permiss": 8760,
      "including": 8761,
      "implementations": 8762,
      "##30": 8763,
      "##ency": 8764,
      "##██": 8765,
      "pip": 8766,
      "pres": 8767,
      "patch": 8768,
      "doit": 8769,
      "##right": 8770,
      "argument": 8771,
      "##command": 8772,
      "short": 8773,
      "byte": 8774,
      "complete": 8775,
      "loop": 8776,
      "maint": 8777,
      "##led": 8778,
      "execute": 8779,
      "structures": 8780,
      "doesn": 8781,
      "crypt": 8782,
      "sv": 8783,
      "know": 8784,
      "resource": 8785,
      "cover": 8786,
      "lines": 8787,
      "keep": 8788,
      "prefix": 8789,
      "original": 8790,
      "pow": 8791,
      "##error": 8792,
      "lab": 8793,
      "##oud": 8794,
      "proble": 8795,
      "##build": 8796,
      "todo": 8797,
      "rusoto": 8798,
      "##per": 8799,
      "##ving": 8800,
      "best": 8801,
      "calc": 8802,
      "sure": 8803,
      "##que": 8804,
      "##aut": 8805,
      "##ons": 8806,
      "light": 8807,
      "remove": 8808,
      "join": 8809,
      "within": 8810,
      "recom": 8811,
      "##vy": 8812,
      "real": 8813,
      "nightly": 8814,
      "embedd": 8815,
      "window": 8816,
      "style": 8817,
      "webs": 8818,
      "sync": 8819,
      "##zz": 8820,
      "services": 8821,
      "##pty": 8822,
      "title": 8823,
      "range": 8824,
      "collections": 8825,
      "30": 8826,
      "##uring": 8827,
      "art": 8828,
      "chain": 8829,
      "##oid": 8830,
      "structs": 8831,
      "calls": 8832,
      "gn": 8833,
      "##xy": 8834,
      "events": 8835,
      "##ef": 8836,
      "##respon": 8837,
      "compress": 8838,
      "things": 8839,
      "respect": 8840,
      "generic": 8841,
      "encoding": 8842,
      "net": 8843,
      "activ": 8844,
      "parameters": 8845,
      "##00000000": 8846,
      "applications": 8847,
      "experi": 8848,
      "##etch": 8849,
      "##ply": 8850,
      "sum": 8851,
      "##gn": 8852,
      "##come": 8853,
      "##semb": 8854,
      "msg": 8855,
      "sess": 8856,
      "cred": 8857,
      "parent": 8858,
      "setup": 8859,
      "manager": 8860,
      "wel": 8861,
      "much": 8862,
      "##50": 8863,
      "rayon": 8864,
      "element": 8865,
      "##ler": 8866,
      "anal": 8867,
      "##bin": 8868,
      "##ames": 8869,
      "purp": 8870,
      "altern": 8871,
      "##ably": 8872,
      "##amp": 8873,
      "##bit": 8874,
      "jav": 8875,
      "macos": 8876,
      "##adata": 8877,
      "subcommand": 8878,
      "creating": 8879,
      "good": 8880,
      "##vis": 8881,
      "numbers": 8882,
      "native": 8883,
      "images": 8884,
      "parts": 8885,
      "##ified": 8886,
      "##umer": 8887,
      "lear": 8888,
      "flo": 8889,
      "bad": 8890,
      "cases": 8891,
      "integer": 8892,
      "component": 8893,
      "sample": 8894,
      "med": 8895,
      "minimum": 8896,
      "sem": 8897,
      "f64": 8898,
      "empty": 8899,
      "##17": 8900,
      "able": 8901,
      "simply": 8902,
      "correct": 8903,
      "replace": 8904,
      "progress": 8905,
      "pay": 8906,
      "define": 8907,
      "dra": 8908,
      "entry": 8909,
      "mic": 8910,
      "cod": 8911,
      "ide": 8912,
      "17": 8913,
      "##14": 8914,
      "utility": 8915,
      "norm": 8916,
      "makes": 8917,
      "##cast": 8918,
      "schema": 8919,
      "##ification": 8920,
      "##mark": 8921,
      "##ural": 8922,
      "serialize": 8923,
      "recomm": 8924,
      "cross": 8925,
      "metadata": 8926,
      "##awn": 8927,
      "##co": 8928,
      "bevy": 8929,
      "accept": 8930,
      "scre": 8931,
      "calcul": 8932,
      "programming": 8933,
      "job": 8934,
      "domain": 8935,
      "needs": 8936,
      "unsafe": 8937,
      "##inter": 8938,
      "official": 8939,
      "##idd": 8940,
      "dig": 8941,
      "space": 8942,
      "##by": 8943,
      "vector": 8944,
      "unit": 8945,
      "objects": 8946,
      "minimal": 8947,
      "items": 8948,
      "##ploy": 8949,
      "##requ": 8950,
      "various": 8951,
      "break": 8952,
      "##icient": 8953,
      "req": 8954,
      "##24": 8955,
      "##ories": 8956,
      "hard": 8957,
      "##╌╌╌╌": 8958,
      "unt": 8959,
      "pin": 8960,
      "suc": 8961,
      "tu": 8962,
      "systems": 8963,
      "profile": 8964,
      "deserialize": 8965,
      "ec": 8966,
      "ign": 8967,
      "tot": 8968,
      "reser": 8969,
      "resources": 8970,
      "##kn": 8971,
      "welcome": 8972,
      "##ee": 8973,
      "action": 8974,
      "subs": 8975,
      "needed": 8976,
      "micro": 8977,
      "##ars": 8978,
      "ep": 8979,
      "rout": 8980,
      "better": 8981,
      "##ecess": 8982,
      "##ounter": 8983,
      "01": 8984,
      "##ds": 8985,
      "24": 8986,
      "why": 8987,
      "ens": 8988,
      "attribute": 8989,
      "##mbol": 8990,
      "instructions": 8991,
      "copyright": 8992,
      "bool": 8993,
      "person": 8994,
      "##ename": 8995,
      "##ooks": 8996,
      "gl": 8997,
      "feel": 8998,
      "##add": 8999,
      "resol": 9000,
      "spawn": 9001,
      "email": 9002,
      "ffi": 9003,
      "##ready": 9004,
      "slice": 9005,
      "##ators": 9006,
      "spl": 9007,
      "construct": 9008,
      "exact": 9009,
      "abst": 9010,
      "##gb": 9011,
      "##fs": 9012,
      "colum": 9013,
      "child": 9014,
      "panic": 9015,
      "mov": 9016,
      "already": 9017,
      "adding": 9018,
      "42": 9019,
      "nodes": 9020,
      "sett": 9021,
      "devices": 9022,
      "private": 9023,
      "named": 9024,
      "##chronous": 9025,
      "##box": 9026,
      "container": 9027,
      "##ibility": 9028,
      "prom": 9029,
      "sent": 9030,
      "##mary": 9031,
      "particular": 9032,
      "##ster": 9033,
      "icu": 9034,
      "label": 9035,
      "##acing": 9036,
      "left": 9037,
      "symbol": 9038,
      "embedded": 9039,
      "big": 9040,
      "##itch": 9041,
      "bor": 9042,
      "impro": 9043,
      "bound": 9044,
      "##ob": 9045,
      "ge": 9046,
      "reading": 9047,
      "easily": 9048,
      "endpoint": 9049,
      "ech": 9050,
      "rules": 9051,
      "##ules": 9052,
      "authentication": 9053,
      "##app": 9054,
      "##med": 9055,
      "appro": 9056,
      "fact": 9057,
      "compatible": 9058,
      "##vm": 9059,
      "x86": 9060,
      "##ystem": 9061,
      "##pload": 9062,
      "tested": 9063,
      "pair": 9064,
      "##red": 9065,
      "eval": 9066,
      "brow": 9067,
      "maintain": 9068,
      "guide": 9069,
      "sever": 9070,
      "##izer": 9071,
      "expected": 9072,
      "incre": 9073,
      "##auth": 9074,
      "##ton": 9075,
      "determ": 9076,
      "elements": 9077,
      "components": 9078,
      "releases": 9079,
      "##ested": 9080,
      "decl": 9081,
      "operation": 9082,
      "rat": 9083,
      "gnu": 9084,
      "fu": 9085,
      "cm": 9086,
      "upload": 9087,
      "shared": 9088,
      "integration": 9089,
      "000": 9090,
      "complex": 9091,
      "times": 9092,
      "session": 9093,
      "location": 9094,
      "enables": 9095,
      "who": 9096,
      "##board": 9097,
      "##get": 9098,
      "##ness": 9099,
      "50": 9100,
      "contents": 9101,
      "miss": 9102,
      "pod": 9103,
      "18": 9104,
      "solution": 9105,
      "queue": 9106,
      "handling": 9107,
      "few": 9108,
      "position": 9109,
      "##oci": 9110,
      "inside": 9111,
      "##cont": 9112,
      "extension": 9113,
      "driver": 9114,
      "cpu": 9115,
      "behav": 9116,
      "takes": 9117,
      "##ling": 9118,
      "polic": 9119,
      "##15": 9120,
      "bot": 9121,
      "##ived": 9122,
      "##rix": 9123,
      "fixed": 9124,
      "##bd": 9125,
      "##port": 9126,
      "##sole": 9127,
      "80": 9128,
      "##aml": 9129,
      "echo": 9130,
      "##pg": 9131,
      "cloud": 9132,
      "##down": 9133,
      "extract": 9134,
      "parameter": 9135,
      "127": 9136,
      "cat": 9137,
      "character": 9138,
      "everything": 9139,
      "diff": 9140,
      "##to": 9141,
      "hex": 9142,
      "generation": 9143,
      "##66": 9144,
      "save": 9145,
      "##urity": 9146,
      "##lex": 9147,
      "remov": 9148,
      "ye": 9149,
      "included": 9150,
      "##urs": 9151,
      "tcp": 9152,
      "u64": 9153,
      "##37": 9154,
      "##ves": 9155,
      "adv": 9156,
      "pret": 9157,
      "tokens": 9158,
      "power": 9159,
      "##li": 9160,
      "png": 9161,
      "##sembly": 9162,
      "f32": 9163,
      "necess": 9164,
      "apply": 9165,
      "remote": 9166,
      "happ": 9167,
      "demo": 9168,
      "stored": 9169,
      "dynamic": 9170,
      "auto": 9171,
      "##host": 9172,
      "##man": 9173,
      "reader": 9174,
      "fs": 9175,
      "binaries": 9176,
      "fork": 9177,
      "transaction": 9178,
      "pop": 9179,
      "ali": 9180,
      "pk": 9181,
      "tasks": 9182,
      "##builder": 9183,
      "deploy": 9184,
      "benchmark": 9185,
      "audio": 9186,
      "prel": 9187,
      "existing": 9188,
      "wait": 9189,
      "saf": 9190,
      "##buf": 9191,
      "lif": 9192,
      "redu": 9193,
      "xml": 9194,
      "fetch": 9195,
      "##ump": 9196,
      "until": 9197,
      "feed": 9198,
      "##met": 9199,
      "##ume": 9200,
      "notes": 9201,
      "##rs": 9202,
      "hist": 9203,
      "##tle": 9204,
      "##fil": 9205,
      "null": 9206,
      "##aim": 9207,
      "##writ": 9208,
      "whether": 9209,
      "associ": 9210,
      "##icate": 9211,
      "rustc": 9212,
      "##ifier": 9213,
      "behavi": 9214,
      "less": 9215,
      "csv": 9216,
      "##inf": 9217,
      "v0": 9218,
      "master": 9219,
      "##conf": 9220,
      "book": 9221,
      "threads": 9222,
      "tre": 9223,
      "success": 9224,
      "proc": 9225,
      "postgr": 9226,
      "making": 9227,
      "##we": 9228,
      "turn": 9229,
      "##ased": 9230,
      "width": 9231,
      "exit": 9232,
      "developer": 9233,
      "console": 9234,
      "prelude": 9235,
      "expression": 9236,
      "contributions": 9237,
      "failed": 9238,
      "25": 9239,
      "layer": 9240,
      "##iate": 9241,
      "40": 9242,
      "utf": 9243,
      "bits": 9244,
      "against": 9245,
      "##84": 9246,
      "##ipher": 9247,
      "##pped": 9248,
      "security": 9249,
      "amount": 9250,
      "##cle": 9251,
      "reas": 9252,
      "##marks": 9253,
      "bro": 9254,
      "##70": 9255,
      "itself": 9256,
      "properties": 9257,
      "0xf": 9258,
      "total": 9259,
      "several": 9260,
      "contact": 9261,
      "tags": 9262,
      "matrix": 9263,
      "verify": 9264,
      "flow": 9265,
      "##wh": 9266,
      "counter": 9267,
      "postgres": 9268,
      "problem": 9269,
      "compar": 9270,
      "subscri": 9271,
      "##ath": 9272,
      "settings": 9273,
      "setting": 9274,
      "later": 9275,
      "##ank": 9276,
      "##nd": 9277,
      "quest": 9278,
      "yes": 9279,
      "##min": 9280,
      "rfc": 9281,
      "signature": 9282,
      "efficient": 9283,
      "##ries": 9284,
      "includes": 9285,
      "speed": 9286,
      "compiled": 9287,
      "##elog": 9288,
      "regex": 9289,
      "##ble": 9290,
      "interp": 9291,
      "##ric": 9292,
      "futures": 9293,
      "avoid": 9294,
      "special": 9295,
      "##35": 9296,
      "normal": 9297,
      "large": 9298,
      "cf": 9299,
      "management": 9300,
      "##89": 9301,
      "##ances": 9302,
      "##ma": 9303,
      "worksp": 9304,
      "logging": 9305,
      "##ites": 9306,
      "asynchronous": 9307,
      "sudo": 9308,
      "##ulation": 9309,
      "experiment": 9310,
      "ui": 9311,
      "hal": 9312,
      "combin": 9313,
      "designed": 9314,
      "three": 9315,
      "cannot": 9316,
      "div": 9317,
      "probably": 9318,
      "actual": 9319,
      "algorithms": 9320,
      "benchmarks": 9321,
      "row": 9322,
      "lot": 9323,
      "cent": 9324,
      "prod": 9325,
      "socket": 9326,
      "##allel": 9327,
      "overview": 9328,
      "missing": 9329,
      "great": 9330,
      "font": 9331,
      "##bl": 9332,
      "handler": 9333,
      "##type": 9334,
      "##ium": 9335,
      "##ters": 9336,
      "fur": 9337,
      "simpl": 9338,
      "##ately": 9339,
      "rule": 9340,
      "intro": 9341,
      "purpose": 9342,
      "though": 9343,
      "providing": 9344,
      "utilities": 9345,
      "unix": 9346,
      "alph": 9347,
      "di": 9348,
      "desk": 9349,
      "##85": 9350,
      "temp": 9351,
      "inspired": 9352,
      "lu": 9353,
      "la": 9354,
      "modules": 9355,
      "yaml": 9356,
      "##ram": 9357,
      "##code": 9358,
      "defaults": 9359,
      "internal": 9360,
      "##pr": 9361,
      "constant": 9362,
      "side": 9363,
      "sets": 9364,
      "##ground": 9365,
      "##39": 9366,
      "pi": 9367,
      "primit": 9368,
      "persist": 9369,
      "too": 9370,
      "22": 9371,
      "related": 9372,
      "##igr": 9373,
      "##rie": 9374,
      "draw": 9375,
      "necessary": 9376,
      "encrypt": 9377,
      "##arant": 9378,
      "workflow": 9379,
      "decode": 9380,
      "changelog": 9381,
      "pure": 9382,
      "##oses": 9383,
      "ensure": 9384,
      "actions": 9385,
      "##ety": 9386,
      "owned": 9387,
      "requirements": 9388,
      "drop": 9389,
      "200": 9390,
      "##ined": 9391,
      "conversion": 9392,
      "proxy": 9393,
      "configure": 9394,
      "serialization": 9395,
      "further": 9396,
      "encode": 9397,
      "##struct": 9398,
      "reserved": 9399,
      "meas": 9400,
      "ans": 9401,
      "21": 9402,
      "pretty": 9403,
      "2020": 9404,
      "closure": 9405,
      "known": 9406,
      "intended": 9407,
      "expl": 9408,
      "cell": 9409,
      "sens": 9410,
      "conven": 9411,
      "##izing": 9412,
      "math": 9413,
      "##ape": 9414,
      "mean": 9415,
      "did": 9416,
      "linkedlist": 9417,
      "coverage": 9418,
      "runs": 9419,
      "codec": 9420,
      "##77": 9421,
      "representation": 9422,
      "##pace": 9423,
      "stdout": 9424,
      "executable": 9425,
      "correspon": 9426,
      "##36": 9427,
      "##itive": 9428,
      "amaz": 9429,
      "passed": 9430,
      "final": 9431,
      "##88": 9432,
      "arbit": 9433,
      "calling": 9434,
      "ful": 9435,
      "contin": 9436,
      "credential": 9437,
      "present": 9438,
      "attributes": 9439,
      "complet": 9440,
      "hashmap": 9441,
      "##pping": 9442,
      "##m32": 9443,
      "transform": 9444,
      "uni": 9445,
      "##ograph": 9446,
      "previous": 9447,
      "policy": 9448,
      "├──": 9449,
      "implementing": 9450,
      "sequence": 9451,
      "##gin": 9452,
      "##lib": 9453,
      "helper": 9454,
      "##ged": 9455,
      "arbitr": 9456,
      "characters": 9457,
      "encoded": 9458,
      "formats": 9459,
      "vide": 9460,
      "changed": 9461,
      "##net": 9462,
      "addr": 9463,
      "checks": 9464,
      "product": 9465,
      "split": 9466,
      "retrie": 9467,
      "kern": 9468,
      "headers": 9469,
      "##uff": 9470,
      "guarant": 9471,
      "##pm": 9472,
      "specification": 9473,
      "##gate": 9474,
      "evalu": 9475,
      "pix": 9476,
      "bus": 9477,
      "##ven": 9478,
      "due": 9479,
      "ear": 9480,
      "imag": 9481,
      "execution": 9482,
      "proced": 9483,
      "borrow": 9484,
      "win": 9485,
      "during": 9486,
      "rgb": 9487,
      "cy": 9488,
      "##a2": 9489,
      "##omic": 9490,
      "kernel": 9491,
      "foc": 9492,
      "lik": 9493,
      "quer": 9494,
      "redis": 9495,
      "span": 9496,
      "##raction": 9497,
      "##fl": 9498,
      "fri": 9499,
      "##ored": 9500,
      "seconds": 9501,
      "##irt": 9502,
      "dot": 9503,
      "links": 9504,
      "##actions": 9505,
      "migr": 9506,
      "aim": 9507,
      "modify": 9508,
      "containing": 9509,
      "##uss": 9510,
      "detect": 9511,
      "cir": 9512,
      "iterator": 9513,
      "downloads": 9514,
      "column": 9515,
      "##etime": 9516,
      "##esh": 9517,
      "words": 9518,
      "were": 9519,
      "##gu": 9520,
      "##ps": 9521,
      "blocks": 9522,
      "age": 9523,
      "never": 9524,
      "localhost": 9525,
      "assum": 9526,
      "creates": 9527,
      "platforms": 9528,
      "##known": 9529,
      "generates": 9530,
      "##96": 9531,
      "ctx": 9532,
      "float": 9533,
      "returned": 9534,
      "##ts": 9535,
      "associated": 9536,
      "##imes": 9537,
      "##mod": 9538,
      "##vers": 9539,
      "rustup": 9540,
      "timest": 9541,
      "mill": 9542,
      "proto": 9543,
      "##config": 9544,
      "##pper": 9545,
      "paths": 9546,
      "ve": 9547,
      "##eme": 9548,
      "plugins": 9549,
      "##gl": 9550,
      "usually": 9551,
      "##ptions": 9552,
      "##cer": 9553,
      "##2c": 9554,
      "desired": 9555,
      "anything": 9556,
      "ca": 9557,
      "unic": 9558,
      "external": 9559,
      "##ision": 9560,
      "ask": 9561,
      "unknown": 9562,
      "##tk": 9563,
      "primary": 9564,
      "learn": 9565,
      "prior": 9566,
      "focus": 9567,
      "##74": 9568,
      "##older": 9569,
      "##verse": 9570,
      "improve": 9571,
      "##iction": 9572,
      "updates": 9573,
      "##oose": 9574,
      "actix": 9575,
      "##ateg": 9576,
      "##osed": 9577,
      "cho": 9578,
      "chun": 9579,
      "##empt": 9580,
      "tet": 9581,
      "media": 9582,
      "podcast": 9583,
      "arbitrary": 9584,
      "batch": 9585,
      "##tain": 9586,
      "manually": 9587,
      "scripts": 9588,
      "permissions": 9589,
      "faster": 9590,
      "rpc": 9591,
      "##lab": 9592,
      "##iter": 9593,
      "layout": 9594,
      "stop": 9595,
      "v2": 9596,
      "processing": 9597,
      "browser": 9598,
      "##data": 9599,
      "##ryption": 9600,
      "capt": 9601,
      "##ivid": 9602,
      "logger": 9603,
      "entity": 9604,
      "consist": 9605,
      "inner": 9606,
      "respective": 9607,
      "parallel": 9608,
      "##54": 9609,
      "smart": 9610,
      "switch": 9611,
      "##itter": 9612,
      "oauth": 9613,
      "amazon": 9614,
      "##rics": 9615,
      "timestamp": 9616,
      "verb": 9617,
      "dim": 9618,
      "##imal": 9619,
      "clust": 9620,
      "transl": 9621,
      "fuzz": 9622,
      "follows": 9623,
      "##cs": 9624,
      "discord": 9625,
      "site": 9626,
      "##core": 9627,
      "##oss": 9628,
      "##atic": 9629,
      "##assembly": 9630,
      "programs": 9631,
      "##gre": 9632,
      "reason": 9633,
      "mag": 9634,
      "##itect": 9635,
      "##ifi": 9636,
      "2022": 9637,
      "##aced": 9638,
      "individ": 9639,
      "friend": 9640,
      "tx": 9641,
      "##igned": 9642,
      "trace": 9643,
      "clean": 9644,
      "logic": 9645,
      "generating": 9646,
      "##yz": 9647,
      "##90": 9648,
      "packages": 9649,
      "##ding": 9650,
      "##coin": 9651,
      "##cd": 9652,
      "##head": 9653,
      "##iddle": 9654,
      "mo": 9655,
      "partial": 9656,
      "##unch": 9657,
      "signal": 9658,
      "##atively": 9659,
      "##76": 9660,
      "rate": 9661,
      "az": 9662,
      "languages": 9663,
      "toolchain": 9664,
      "dns": 9665,
      "plan": 9666,
      "obtain": 9667,
      "effect": 9668,
      "rad": 9669,
      "assets": 9670,
      "super": 9671,
      "callback": 9672,
      "poly": 9673,
      "watch": 9674,
      "entire": 9675,
      "fully": 9676,
      "architect": 9677,
      "recommended": 9678,
      "flex": 9679,
      "##js": 9680,
      "2021": 9681,
      "badge": 9682,
      "disk": 9683,
      "virt": 9684,
      "##rv": 9685,
      "agent": 9686,
      "wrap": 9687,
      "certific": 9688,
      "0xff": 9689,
      "matching": 9690,
      "mp": 9691,
      "workspace": 9692,
      "da": 9693,
      "button": 9694,
      "webassembly": 9695,
      "allowing": 9696,
      "certain": 9697,
      "##ird": 9698,
      "dest": 9699,
      "##alk": 9700,
      "least": 9701,
      "ready": 9702,
      "higher": 9703,
      "introdu": 9704,
      "height": 9705,
      "username": 9706,
      "sav": 9707,
      "##itor": 9708,
      "writer": 9709,
      "authentic": 9710,
      "23": 9711,
      "##uid": 9712,
      "accord": 9713,
      "goal": 9714,
      "proof": 9715,
      "asci": 9716,
      "##ute": 9717,
      "shad": 9718,
      "builds": 9719,
      "actor": 9720,
      "##cons": 9721,
      "maxim": 9722,
      "sur": 9723,
      "grant": 9724,
      "attempt": 9725,
      "fill": 9726,
      "rather": 9727,
      "sched": 9728,
      "##for": 9729,
      "cfg": 9730,
      "##pack": 9731,
      "scal": 9732,
      "references": 9733,
      "02": 9734,
      "arm": 9735,
      "experimental": 9736,
      "recurs": 9737,
      "##ll": 9738,
      "excl": 9739,
      "ax": 9740,
      "directories": 9741,
      "chat": 9742,
      "updated": 9743,
      "##log": 9744,
      "mock": 9745,
      "vert": 9746,
      "##rom": 9747,
      "##emon": 9748,
      "pointer": 9749,
      "##ending": 9750,
      "points": 9751,
      "beta": 9752,
      "enter": 9753,
      "##ox": 9754,
      "##60": 9755,
      "svg": 9756,
      "finish": 9757,
      "sugg": 9758,
      "respons": 9759,
      "##ently": 9760,
      "##allet": 9761,
      "pixel": 9762,
      "wik": 9763,
      "instant": 9764,
      "inputs": 9765,
      "bash": 9766,
      "occ": 9767,
      "forward": 9768,
      "lex": 9769,
      "##over": 9770,
      "##aps": 9771,
      "website": 9772,
      "##ana": 9773,
      "buck": 9774,
      "##44": 9775,
      "##ascript": 9776,
      "inval": 9777,
      "regular": 9778,
      "trig": 9779,
      "definition": 9780,
      "shown": 9781,
      "gp": 9782,
      "gram": 9783,
      "typed": 9784,
      "repe": 9785,
      "weight": 9786,
      "maj": 9787,
      "according": 9788,
      "dou": 9789,
      "##rec": 9790,
      "heav": 9791,
      "released": 9792,
      "screen": 9793,
      "##gers": 9794,
      "give": 9795,
      "1000": 9796,
      "rendering": 9797,
      "origin": 9798,
      "sle": 9799,
      "really": 9800,
      "cost": 9801,
      "important": 9802,
      "published": 9803,
      "##════════": 9804,
      "curs": 9805,
      "offset": 9806,
      "lam": 9807,
      "##dp": 9808,
      "choose": 9809,
      "video": 9810,
      "interpret": 9811,
      "tracing": 9812,
      "metrics": 9813,
      "fire": 9814,
      "arc": 9815,
      "hold": 9816,
      "##light": 9817,
      "esp": 9818,
      "##ots": 9819,
      "du": 9820,
      "production": 9821,
      "middle": 9822,
      "mus": 9823,
      "##72": 9824,
      "matches": 9825,
      "llvm": 9826,
      "behavior": 9827,
      "comment": 9828,
      "curl": 9829,
      "having": 9830,
      "concur": 9831,
      "tin": 9832,
      "##dd": 9833,
      "pipel": 9834,
      "old": 9835,
      "markdown": 9836,
      "rt": 9837,
      "queries": 9838,
      "except": 9839,
      "begin": 9840,
      "hum": 9841,
      "editor": 9842,
      "den": 9843,
      "unicode": 9844,
      "pc": 9845,
      "##kit": 9846,
      "quot": 9847,
      "looking": 9848,
      "vol": 9849,
      "invalid": 9850,
      "mail": 9851,
      "##request": 9852,
      "09": 9853,
      "##ral": 9854,
      "##ari": 9855,
      "major": 9856,
      "background": 9857,
      "along": 9858,
      "outputs": 9859,
      "parsed": 9860,
      "##lin": 9861,
      "adapt": 9862,
      "separate": 9863,
      "##roid": 9864,
      "sleep": 9865,
      "##ism": 9866,
      "05": 9867,
      "##ouse": 9868,
      "deal": 9869,
      "adds": 9870,
      "##abil": 9871,
      "##ift": 9872,
      "mb": 9873,
      "seed": 9874,
      "##field": 9875,
      "actually": 9876,
      "wip": 9877,
      "clear": 9878,
      "procedural": 9879,
      "comes": 9880,
      "fold": 9881,
      "compiling": 9882,
      "tech": 9883,
      "apps": 9884,
      "colors": 9885,
      "visual": 9886,
      "##oke": 9887,
      "##unt": 9888,
      "extra": 9889,
      "accounts": 9890,
      "warning": 9891,
      "rou": 9892,
      "merge": 9893,
      "rustls": 9894,
      "##serv": 9895,
      "board": 9896,
      "fit": 9897,
      "##result": 9898,
      "seg": 9899,
      "contribute": 9900,
      "##sec": 9901,
      "limited": 9902,
      "datas": 9903,
      "definitions": 9904,
      "encryption": 9905,
      "unique": 9906,
      "permission": 9907,
      "javascript": 9908,
      "configured": 9909,
      "numer": 9910,
      "payload": 9911,
      "annot": 9912,
      "exactly": 9913,
      "##fb": 9914,
      "##lying": 9915,
      "logs": 9916,
      "binding": 9917,
      "##ridge": 9918,
      "disable": 9919,
      "ub": 9920,
      "admin": 9921,
      "credentials": 9922,
      "individual": 9923,
      "##⠀⠀": 9924,
      "##ips": 9925,
      "coord": 9926,
      "meta": 9927,
      "little": 9928,
      "virtual": 9929,
      "starting": 9930,
      "##94": 9931,
      "suggest": 9932,
      "##cing": 9933,
      "comments": 9934,
      "##eg": 9935,
      "compilation": 9936,
      "css": 9937,
      "registry": 9938,
      "close": 9939,
      "04": 9940,
      "##omp": 9941,
      "incom": 9942,
      "##ai": 9943,
      "##ev": 9944,
      "peripher": 9945,
      "secure": 9946,
      "##78": 9947,
      "installing": 9948,
      "60": 9949,
      "##hash": 9950,
      "cp": 9951,
      "entries": 9952,
      "region": 9953,
      "placeh": 9954,
      "##dir": 9955,
      "packet": 9956,
      "thanks": 9957,
      "##olog": 9958,
      "failure": 9959,
      "likely": 9960,
      "##resh": 9961,
      "##leq": 9962,
      "easier": 9963,
      "discuss": 9964,
      "measure": 9965,
      "pot": 9966,
      "exists": 9967,
      "squ": 9968,
      "est": 9969,
      "java": 9970,
      "front": 9971,
      "consumer": 9972,
      "pred": 9973,
      "subject": 9974,
      "liter": 9975,
      "azure": 9976,
      "claim": 9977,
      "maximum": 9978,
      "thing": 9979,
      "nat": 9980,
      "bund": 9981,
      "##izes": 9982,
      "##umb": 9983,
      "##ialeq": 9984,
      "corresponding": 9985,
      "tmp": 9986,
      "##och": 9987,
      "instances": 9988,
      "##epend": 9989,
      "esc": 9990,
      "fmt": 9991,
      "##ival": 9992,
      "validate": 9993,
      "params": 9994,
      "##top": 9995,
      "##istic": 9996,
      "expr": 9997,
      "launch": 9998,
      "##nost": 9999,
      "scale": 10000,
      "heap": 10001,
      "lower": 10002,
      "##ination": 10003,
      "partialeq": 10004,
      "card": 10005,
      "property": 10006,
      "variants": 10007,
      "won": 10008,
      "models": 10009,
      "##etimes": 10010,
      "##way": 10011,
      "history": 10012,
      "##rant": 10013,
      "##13": 10014,
      "prefer": 10015,
      "groups": 10016,
      "ping": 10017,
      "##52": 10018,
      "alias": 10019,
      "led": 10020,
      "##case": 10021,
      "cryptograph": 10022,
      "archive": 10023,
      "grammar": 10024,
      "pkg": 10025,
      "router": 10026,
      "##cell": 10027,
      "slow": 10028,
      "isn": 10029,
      "##eck": 10030,
      "questions": 10031,
      "##aper": 10032,
      "##fully": 10033,
      "channels": 10034,
      "activities": 10035,
      "player": 10036,
      "considered": 10037,
      "##⣿⣿": 10038,
      "documents": 10039,
      "apt": 10040,
      "clients": 10041,
      "digit": 10042,
      "attach": 10043,
      "2019": 10044,
      "##info": 10045,
      "android": 10046,
      "tiny": 10047,
      "targets": 10048,
      "##notes": 10049,
      "extensions": 10050,
      "compatibility": 10051,
      "say": 10052,
      "##ym": 10053,
      "adj": 10054,
      "validation": 10055,
      "safety": 10056,
      "##79": 10057,
      "templates": 10058,
      "timeout": 10059,
      "communication": 10060,
      "##string": 10061,
      "abs": 10062,
      "login": 10063,
      "printed": 10064,
      "configur": 10065,
      "compression": 10066,
      "games": 10067,
      "##base": 10068,
      "ascii": 10069,
      "share": 10070,
      "press": 10071,
      "quant": 10072,
      "applicable": 10073,
      "##where": 10074,
      "scan": 10075,
      "organ": 10076,
      "defines": 10077,
      "26": 10078,
      "##ulk": 10079,
      "proper": 10080,
      "ipv": 10081,
      "0x0": 10082,
      "dimens": 10083,
      "ast": 10084,
      "across": 10085,
      "bal": 10086,
      "sources": 10087,
      "##acy": 10088,
      "expressions": 10089,
      "approach": 10090,
      "car": 10091,
      "prompt": 10092,
      "##82": 10093,
      "limitations": 10094,
      "ease": 10095,
      "analys": 10096,
      "zip": 10097,
      "appl": 10098,
      "active": 10099,
      "independ": 10100,
      "asset": 10101,
      "ways": 10102,
      "timer": 10103,
      "provider": 10104,
      "edge": 10105,
      "stores": 10106,
      "openssl": 10107,
      "listennotes": 10108,
      "scen": 10109,
      "##era": 10110,
      "executed": 10111,
      "manip": 10112,
      "ignore": 10113,
      "cluster": 10114,
      "filename": 10115,
      "rng": 10116,
      "##pth": 10117,
      "ts": 10118,
      "placeholder": 10119,
      "34": 10120,
      "tar": 10121,
      "notice": 10122,
      "manif": 10123,
      "stdin": 10124,
      "expand": 10125,
      "##ek": 10126,
      "boot": 10127,
      "alternative": 10128,
      "hardware": 10129,
      "aren": 10130,
      "day": 10131,
      "i64": 10132,
      "clon": 10133,
      "allocator": 10134,
      "##entially": 10135,
      "##ring": 10136,
      "rob": 10137,
      "ones": 10138,
      "tuple": 10139,
      "laz": 10140,
      "receive": 10141,
      "idea": 10142,
      "scheme": 10143,
      "blocking": 10144,
      "alpha": 10145,
      "linear": 10146,
      "cach": 10147,
      "tog": 10148,
      "blockchain": 10149,
      "##wer": 10150,
      "team": 10151,
      "leg": 10152,
      "08": 10153,
      "snap": 10154,
      "36": 10155,
      "community": 10156,
      "2d": 10157,
      "prec": 10158,
      "near": 10159,
      "bindgen": 10160,
      "together": 10161,
      "cam": 10162,
      "##mediate": 10163,
      "ss": 10164,
      "manual": 10165,
      "equival": 10166,
      "jpg": 10167,
      "enough": 10168,
      "##████": 10169,
      "transfer": 10170,
      "##128": 10171,
      "manifest": 10172,
      "└──": 10173,
      "warrant": 10174,
      "##omet": 10175,
      "fam": 10176,
      "underst": 10177,
      "frequ": 10178,
      "##ibly": 10179,
      "oauth2": 10180,
      "##tp": 10181,
      "techn": 10182,
      "##ask": 10183,
      "cursor": 10184,
      "##enum": 10185,
      "constra": 10186,
      "mot": 10187,
      "sock": 10188,
      "initialize": 10189,
      "rol": 10190,
      "uuid": 10191,
      "##ensh": 10192,
      "bsd": 10193,
      "cmd": 10194,
      "vm": 10195,
      "removed": 10196,
      "bucket": 10197,
      "lambd": 10198,
      "reach": 10199,
      "servers": 10200,
      "peo": 10201,
      "##ocation": 10202,
      "dr": 10203,
      "ssh": 10204,
      "bump": 10205,
      "##ka": 10206,
      "##────────────────": 10207,
      "##ints": 10208,
      "declar": 10209,
      "shows": 10210,
      "lists": 10211,
      "allowed": 10212,
      "##256": 10213,
      "received": 10214,
      "increment": 10215,
      "u16": 10216,
      "##wd": 10217,
      "align": 10218,
      "##rency": 10219,
      "##ison": 10220,
      "click": 10221,
      "steps": 10222,
      "semant": 10223,
      "##2d": 10224,
      "debugging": 10225,
      "##thers": 10226,
      "fre": 10227,
      "##def": 10228,
      "bridge": 10229,
      "nix": 10230,
      "##ges": 10231,
      "##change": 10232,
      "##ta": 10233,
      "depth": 10234,
      "##ulator": 10235,
      "highlight": 10236,
      "bugs": 10237,
      "people": 10238,
      "256": 10239,
      "##1111": 10240,
      "##ane": 10241,
      "doing": 10242,
      "suit": 10243,
      "2018": 10244,
      "breaking": 10245,
      "aims": 10246,
      "monitor": 10247,
      "msrv": 10248,
      "255": 10249,
      "##streamer": 10250,
      "reduce": 10251,
      "trigger": 10252,
      "jw": 10253,
      "##ceed": 10254,
      "persistent": 10255,
      "##255": 10256,
      "feedback": 10257,
      "29": 10258,
      "##fort": 10259,
      "blob": 10260,
      "coll": 10261,
      "03": 10262,
      "looks": 10263,
      "##75": 10264,
      "append": 10265,
      "skip": 10266,
      "delay": 10267,
      "retrieve": 10268,
      "connections": 10269,
      "codes": 10270,
      "##ah": 10271,
      "instruction": 10272,
      "##xxxx": 10273,
      "analysis": 10274,
      "checking": 10275,
      "relative": 10276,
      "double": 10277,
      "series": 10278,
      "##━━": 10279,
      "##untu": 10280,
      "concept": 10281,
      "going": 10282,
      "learning": 10283,
      "sqlite": 10284,
      "rocket": 10285,
      "##iod": 10286,
      "##weight": 10287,
      "##gon": 10288,
      "##cel": 10289,
      "reads": 10290,
      "peer": 10291,
      "profil": 10292,
      "authors": 10293,
      "usr": 10294,
      "##lection": 10295,
      "integers": 10296,
      "produce": 10297,
      "ids": 10298,
      "interval": 10299,
      "think": 10300,
      "##ledge": 10301,
      "transport": 10302,
      "suite": 10303,
      "depends": 10304,
      "therefore": 10305,
      "##off": 10306,
      "past": 10307,
      "delegate": 10308,
      "lua": 10309,
      "##rt": 10310,
      "star": 10311,
      "##hip": 10312,
      "flat": 10313,
      "widget": 10314,
      "ink": 10315,
      "apple": 10316,
      "verbose": 10317,
      "##server": 10318,
      "##ience": 10319,
      "cc": 10320,
      "##ood": 10321,
      "##38": 10322,
      "##ins": 10323,
      "formatting": 10324,
      "img": 10325,
      "upgr": 10326,
      "care": 10327,
      "architecture": 10328,
      "strong": 10329,
      "ubuntu": 10330,
      "distance": 10331,
      "##sql": 10332,
      "31": 10333,
      "emit": 10334,
      "round": 10335,
      "##anced": 10336,
      "##ulate": 10337,
      "tetcore": 10338,
      "secrets": 10339,
      "##ropri": 10340,
      "decoding": 10341,
      "cause": 10342,
      "distribution": 10343,
      "recommend": 10344,
      "extend": 10345,
      "developers": 10346,
      "identity": 10347,
      "environments": 10348,
      "##comp": 10349,
      "month": 10350,
      "soon": 10351,
      "route": 10352,
      "score": 10353,
      "0x00": 10354,
      "lambda": 10355,
      "happen": 10356,
      "123": 10357,
      "stud": 10358,
      "128": 10359,
      "guard": 10360,
      "es": 10361,
      "gets": 10362,
      "understand": 10363,
      "clock": 10364,
      "abstraction": 10365,
      "s3": 10366,
      "convenient": 10367,
      "iam": 10368,
      "##╌╌╌╌╌╌╌╌": 10369,
      "signed": 10370,
      "tables": 10371,
      "##ref": 10372,
      "nested": 10373,
      "sa": 10374,
      "##ield": 10375,
      "gstreamer": 10376,
      "arrays": 10377,
      "atomic": 10378,
      "disp": 10379,
      "described": 10380,
      "appropri": 10381,
      "##mut": 10382,
      "inline": 10383,
      "builders": 10384,
      "maybe": 10385,
      "##opt": 10386,
      "##92": 10387,
      "##value": 10388,
      "44": 10389,
      "sound": 10390,
      "thus": 10391,
      "stm32": 10392,
      "creation": 10393,
      "##bc": 10394,
      "reports": 10395,
      "filesystem": 10396,
      "minor": 10397,
      "interfaces": 10398,
      "27": 10399,
      "##asm": 10400,
      "live": 10401,
      "pipeline": 10402,
      "##bre": 10403,
      "goals": 10404,
      "retry": 10405,
      "coordin": 10406,
      "ol": 10407,
      "consum": 10408,
      "28": 10409,
      "tab": 10410,
      "utc": 10411,
      "lightweight": 10412,
      "guid": 10413,
      "depending": 10414,
      "certificate": 10415,
      "cos": 10416,
      "contracts": 10417,
      "equal": 10418,
      "tele": 10419,
      "tell": 10420,
      "blue": 10421,
      "allocation": 10422,
      "lookup": 10423,
      "identifier": 10424,
      "green": 10425,
      "equivalent": 10426,
      "mount": 10427,
      "tun": 10428,
      "sending": 10429,
      "crypto": 10430,
      "mapping": 10431,
      "##client": 10432,
      "uri": 10433,
      "##iver": 10434,
      "##write": 10435,
      "##nostic": 10436,
      "##ational": 10437,
      "##bar": 10438,
      "detailed": 10439,
      "often": 10440,
      "choice": 10441,
      "force": 10442,
      "##vision": 10443,
      "curve": 10444,
      "bitcoin": 10445,
      "streams": 10446,
      "udp": 10447,
      "na": 10448,
      "graphics": 10449,
      "##wards": 10450,
      "##connect": 10451,
      "middleware": 10452,
      "ris": 10453,
      "##3d": 10454,
      "pages": 10455,
      "##env": 10456,
      "ls": 10457,
      "##48": 10458,
      "##uous": 10459,
      "disabled": 10460,
      "sat": 10461,
      "##anc": 10462,
      "patterns": 10463,
      "underlying": 10464,
      "07": 10465,
      "far": 10466,
      "1234": 10467,
      "samples": 10468,
      "ps": 10469,
      "codecov": 10470,
      "early": 10471,
      "diction": 10472,
      "mech": 10473,
      "desktop": 10474,
      "pdf": 10475,
      "##25519": 10476,
      "year": 10477,
      "generally": 10478,
      "worker": 10479,
      "sometimes": 10480,
      "conduct": 10481,
      "ren": 10482,
      "optimized": 10483,
      "deprec": 10484,
      "enums": 10485,
      "compute": 10486,
      "trust": 10487,
      "##hing": 10488,
      "rm": 10489,
      "##used": 10490,
      "plot": 10491,
      "possibly": 10492,
      "independent": 10493,
      "rc": 10494,
      "review": 10495,
      "plain": 10496,
      "ord": 10497,
      "modified": 10498,
      "websocket": 10499,
      "loading": 10500,
      "boo": 10501,
      "##rust": 10502,
      "unst": 10503,
      "strict": 10504,
      "gui": 10505,
      "##59": 10506,
      "verification": 10507,
      "reset": 10508,
      "screensh": 10509,
      "##bra": 10510,
      "##ager": 10511,
      "56": 10512,
      "##eet": 10513,
      "##ags": 10514,
      "rusty": 10515,
      "supporting": 10516,
      "##31": 10517,
      "computer": 10518,
      "records": 10519,
      "##ris": 10520,
      "optionally": 10521,
      "ul": 10522,
      "##path": 10523,
      "iso": 10524,
      "human": 10525,
      "fall": 10526,
      "##ube": 10527,
      "##consumer": 10528,
      "rot": 10529,
      "protocols": 10530,
      "##58": 10531,
      "third": 10532,
      "operating": 10533,
      "##west": 10534,
      "executor": 10535,
      "ignored": 10536,
      "##mm": 10537,
      "##ially": 10538,
      "gpio": 10539,
      "jobs": 10540,
      "concurrent": 10541,
      "others": 10542,
      "addresses": 10543,
      "##ren": 10544,
      "yourself": 10545,
      "longer": 10546,
      "##response": 10547,
      "gitlab": 10548,
      "nan": 10549,
      "suff": 10550,
      "deriv": 10551,
      "##oot": 10552,
      "3d": 10553,
      "transactions": 10554,
      "##u8": 10555,
      "appropriate": 10556,
      "passing": 10557,
      "##abilities": 10558,
      "aff": 10559,
      "##ats": 10560,
      "maps": 10561,
      "##roll": 10562,
      "interactive": 10563,
      "dro": 10564,
      "sig": 10565,
      "stri": 10566,
      "tick": 10567,
      "##orter": 10568,
      "primitives": 10569,
      "encrypted": 10570,
      "friendly": 10571,
      "##lock": 10572,
      "warn": 10573,
      "sect": 10574,
      "i2c": 10575,
      "meant": 10576,
      "48": 10577,
      "contributors": 10578,
      "##rupt": 10579,
      "chunk": 10580,
      "06": 10581,
      "ff": 10582,
      "##0000000000000000": 10583,
      "lazy": 10584,
      "##a1": 10585,
      "describ": 10586,
      "buff": 10587,
      "lead": 10588,
      "decoder": 10589,
      "ptr": 10590,
      "clause": 10591,
      "overhead": 10592,
      "prep": 10593,
      "pract": 10594,
      "##ense": 10595,
      "##anned": 10596,
      "fac": 10597,
      "semver": 10598,
      "unstable": 10599,
      "problems": 10600,
      "nothing": 10601,
      "kinds": 10602,
      "##acity": 10603,
      "mar": 10604,
      "wallet": 10605,
      "developed": 10606,
      "svd": 10607,
      "tile": 10608,
      "chip": 10609,
      "blog": 10610,
      "ef": 10611,
      "mesh": 10612,
      "##graph": 10613,
      "##book": 10614,
      "analyz": 10615,
      "condition": 10616,
      "##aq": 10617,
      "gpu": 10618,
      "automatic": 10619,
      "reverse": 10620,
      "invoke": 10621,
      "bt": 10622,
      "##most": 10623,
      "processes": 10624,
      "snapsh": 10625,
      "mom": 10626,
      "stuff": 10627,
      "eth": 10628,
      "##ener": 10629,
      "diag": 10630,
      "dump": 10631,
      "mk": 10632,
      "##iler": 10633,
      "filters": 10634,
      "functional": 10635,
      "boole": 10636,
      "hook": 10637,
      "rename": 10638,
      "##68": 10639,
      "period": 10640,
      "bob": 10641,
      "##bbbb": 10642,
      "compl": 10643,
      "black": 10644,
      "mutable": 10645,
[...]
